<|endoftext|>	0
<unk>	0
▁▃	-0
▁.	-1
▁이	-2
▁에	-3
▁다	-4
▁의	-5
▁는	-6
▁,	-7
▁하	-8
▁을	-9
▁1	-10
▁은	-11
▁가	-12
▁(	-13
▁)	-14
▁고	-15
▁를	-16
▁한	-17
▁년	-18
▁으	-19
▁2	-20
▁로	-21
▁으로	-22
▁에서	-23
▁지	-24
▁있	-25
▁대	-26
▁기	-27
▁되	-28
▁일	-29
▁인	-30
▁었	-31
▁사	-32
▁그	-33
▁도	-34
▁시	-35
▁과	-36
▁아	-37
▁들	-38
▁했	-39
▁월	-40
▁수	-41
▁19	-42
▁20	-43
▁어	-44
▁전	-45
▁적	-46
▁와	-47
▁자	-48
▁였	-49
▁여	-50
▁부	-51
▁제	-52
▁라	-53
▁주	-54
▁"	-55
▁정	-56
▁중	-57
▁위	-58
▁된	-59
▁보	-60
▁해	-61
▁공	-62
▁3	-63
▁세	-64
▁나	-65
▁경	-66
▁개	-67
▁게	-68
▁것	-69
▁유	-70
▁'	-71
▁한다	-72
▁조	-73
▁등	-74
▁스	-75
▁선	-76
▁마	-77
▁만	-78
▁성	-79
▁미	-80
▁동	-81
▁연	-82
▁오	-83
▁상	-84
▁소	-85
▁영	-86
▁모	-87
▁서	-88
▁구	-89
▁발	-90
▁비	-91
▁4	-92
▁면	-93
▁며	-94
▁국	-95
▁201	-96
▁명	-97
▁5	-98
▁후	-99
▁-	-100
▁관	-101
▁200	-102
▁신	-103
▁프	-104
▁때	-105
▁할	-106
▁던	-107
▁장	-108
▁거	-109
▁방	-110
▁바	-111
▁6	-112
▁대한	-113
▁교	-114
▁리	-115
▁차	-116
▁당	-117
▁우	-118
▁문	-119
▁무	-120
▁현	-121
▁역	-122
▁통	-123
▁또	-124
▁원	-125
▁내	-126
▁노	-127
▁진	-128
▁계	-129
▁포	-130
▁군	-131
▁분	-132
▁남	-133
▁7	-134
▁까	-135
▁않	-136
▁8	-137
▁10	-138
▁화	-139
▁생	-140
▁출	-141
▁작	-142
▁았	-143
▁까지	-144
▁같	-145
▁학	-146
▁결	-147
▁에게	-148
▁강	-149
▁받	-150
▁파	-151
▁불	-152
▁번	-153
▁함	-154
▁으며	-155
▁단	-156
▁된다	-157
▁최	-158
▁9	-159
▁반	-160
▁알	-161
▁~	-162
▁지만	-163
▁호	-164
▁배	-165
▁음	-166
▁회	-167
▁데	-168
▁S	-169
▁실	-170
▁예	-171
▁두	-172
▁형	-173
▁안	-174
▁재	-175
00	-176
▁따	-177
▁초	-178
▁말	-179
▁부터	-180
▁없	-181
▁사용	-182
▁카	-183
▁타	-184
or	-185
▁C	-186
▁미국	-187
▁18	-188
▁종	-189
▁설	-190
▁라고	-191
▁요	-192
▁이후	-193
▁라는	-194
▁199	-195
er	-196
▁A	-197
▁특	-198
▁12	-199
▁면서	-200
▁일본	-201
▁감	-202
▁레	-203
▁코	-204
▁산	-205
▁더	-206
▁는데	-207
▁M	-208
▁운	-209
으며	-210
▁권	-211
▁독	-212
▁다음	-213
▁추	-214
▁베	-215
▁처	-216
▁지역	-217
▁건	-218
▁행	-219
▁활	-220
▁11	-221
▁간	-222
▁태	-223
민국	-224
▁T	-225
▁입	-226
▁피	-227
▁왕	-228
▁크	-229
▁매	-230
▁평	-231
▁많	-232
▁양	-233
▁및	-234
on	-235
▁다른	-236
▁김	-237
▁참	-238
la	-239
▁민	-240
in	-241
▁본	-242
▁대한민국	-243
▁승	-244
▁드	-245
▁경기	-246
▁다고	-247
▁열	-248
▁총	-249
▁위해	-250
▁임	-251
▁올	-252
스트	-253
▁프로	-254
리아	-255
an	-256
▁속	-257
▁대학	-258
▁북	-259
▁198	-260
▁그리	-261
▁목	-262
▁:	-263
▁F	-264
▁야	-265
▁트	-266
▁시작	-267
▁때문	-268
▁달	-269
▁표	-270
▁물	-271
▁집	-272
▁변	-273
▁B	-274
▁외	-275
▁각	-276
▁체	-277
▁영화	-278
▁직	-279
▁법	-280
▁토	-281
▁메	-282
▁사람	-283
▁천	-284
▁약	-285
▁따라	-286
▁D	-287
▁함께	-288
▁15	-289
▁또한	-290
▁그러	-291
▁사이	-292
▁점	-293
▁f	-294
▁투	-295
▁항	-296
▁팀	-297
▁P	-298
▁치	-299
▁저	-300
▁현재	-301
▁박	-302
▁브	-303
▁자신	-304
▁선수	-305
▁16	-306
▁세계	-307
▁판	-308
▁새	-309
▁버	-310
▁경우	-311
▁광	-312
▁한국	-313
▁청	-314
▁용	-315
▁디	-316
en	-317
시아	-318
▁하나	-319
▁197	-320
▁가장	-321
▁위치	-322
▁또는	-323
▁기록	-324
▁이름	-325
▁m	-326
▁루	-327
▁당시	-328
▁네	-329
▁복	-330
▁존	-331
▁확	-332
▁17	-333
ar	-334
▁편	-335
▁국가	-336
▁L	-337
▁의해	-338
▁다는	-339
▁I	-340
▁축	-341
▁가지	-342
▁철	-343
▁이나	-344
▁합	-345
▁째	-346
▁필	-347
▁테	-348
▁_	-349
▁플	-350
▁뒤	-351
▁K	-352
▁for	-353
▁살	-354
▁그러나	-355
▁%	-356
mu	-357
▁증	-358
▁활동	-359
▁언	-360
주의	-361
▁삼	-362
▁리그	-363
▁심	-364
al	-365
▁196	-366
▁G	-367
▁금	-368
▁R	-369
▁조선	-370
▁페	-371
▁/	-372
▁근	-373
▁학교	-374
레이	-375
mula	-376
▁14	-377
▁formula	-378
▁식	-379
▁프랑	-380
▁통해	-381
부터	-382
▁백	-383
▁연구	-384
▁대표	-385
▁못	-386
▁창	-387
▁H	-388
▁병	-389
▁k	-390
▁쓰	-391
at	-392
▁니	-393
▁0	-394
▁그리고	-395
▁13	-396
▁돌	-397
▁규	-398
▁N	-399
▁사회	-400
▁황	-401
▁E	-402
es	-403
▁첫	-404
▁시즌	-405
▁애	-406
으나	-407
▁러	-408
▁순	-409
▁포함	-410
▁보다	-411
▁완	-412
▁히	-413
▁높	-414
▁충	-415
▁클	-416
▁패	-417
▁아니	-418
▁194	-419
▁키	-420
▁프랑스	-421
▁만들	-422
▁협	-423
▁중국	-424
▁도시	-425
▁다시	-426
랜드	-427
▁영국	-428
▁정부	-429
▁채	-430
ic	-431
▁는다	-432
▁인구	-433
▁뜻	-434
▁대해	-435
▁시대	-436
▁195	-437
▁여러	-438
he	-439
▁제작	-440
▁서울	-441
▁독일	-442
▁감독	-443
▁동안	-444
▁취	-445
▁큰	-446
▁친	-447
▁이상	-448
▁W	-449
▁일부	-450
▁아이	-451
▁전쟁	-452
▁로서	-453
▁모든	-454
학교	-455
is	-456
▁모두	-457
▁가능	-458
▁엔	-459
▁길	-460
▁으나	-461
▁다가	-462
▁죽	-463
▁202	-464
▁]	-465
▁온	-466
▁[	-467
▁곡	-468
▁U	-469
▁정치	-470
▁발매	-471
▁대회	-472
▁준	-473
▁처음	-474
▁환	-475
▁별	-476
▁손	-477
▁구성	-478
▁알려	-479
▁km	-480
▁c	-481
▁개발	-482
▁문화	-483
▁뉴	-484
▁위원	-485
▁배우	-486
▁위한	-487
▁축구	-488
▁지방	-489
it	-490
▁문제	-491
▁게임	-492
▁세기	-493
▁방송	-494
▁허	-495
▁될	-496
라이	-497
▁시간	-498
▁t	-499
▁30	-500
▁일반	-501
▁검	-502
▁이루	-503
▁농	-504
▁캐	-505
▁석	-506
▁골	-507
▁끝	-508
▁대학교	-509
▁였으며	-510
▁작품	-511
▁존재	-512
▁기준	-513
▁즉	-514
▁케	-515
▁날	-516
▁논	-517
▁밀	-518
▁쿠	-519
▁J	-520
▁이용	-521
▁국제	-522
▁193	-523
▁음악	-524
▁s	-525
▁앞	-526
니아	-527
▁효	-528
▁주장	-529
▁음반	-530
▁티	-531
▁볼	-532
▁접	-533
▁역사	-534
▁정도	-535
▁거나	-536
▁중심	-537
▁걸	-538
▁나타	-539
▁폭	-540
▁향	-541
▁관계	-542
▁O	-543
▁급	-544
▁곳	-545
▁새로	-546
▁려	-547
▁했으며	-548
▁25	-549
▁이러	-550
▁맡	-551
▁사건	-552
부분	-553
▁운동	-554
le	-555
▁선거	-556
▁교육	-557
▁씨	-558
▁질	-559
▁발견	-560
▁경제	-561
▁극	-562
▁슈	-563
▁맞	-564
▁절	-565
re	-566
리스	-567
▁육	-568
ou	-569
▁귀	-570
▁발표	-571
▁담	-572
▁도록	-573
▁블	-574
▁측	-575
▁글	-576
▁누	-577
000	-578
▁줄	-579
이스	-580
통령	-581
▁막	-582
ion	-583
▁기술	-584
▁대부분	-585
▁암	-586
▁로부터	-587
▁사망	-588
▁태어	-589
▁2010	-590
▁의미	-591
▁갖	-592
▁잘	-593
▁터	-594
▁시키	-595
▁아들	-596
▁21	-597
화국	-598
▁책	-599
▁192	-600
▁전투	-601
▁홍	-602
▁영향	-603
▁결과	-604
▁우승	-605
▁들어	-606
▁민주	-607
▁헤	-608
▁참여	-609
▁공격	-610
▁발생	-611
▁커	-612
▁설치	-613
▁봉	-614
▁대통령	-615
▁섬	-616
▁갈	-617
▁밝	-618
▁라이	-619
▁프로그	-620
▁앨	-621
el	-622
▁지원	-623
▁유럽	-624
란드	-625
▁과정	-626
▁잡	-627
▁특히	-628
리카	-629
▁관련	-630
▁부분	-631
▁진행	-632
▁러시아	-633
▁머	-634
▁탄	-635
▁업	-636
▁최초	-637
▁이전	-638
▁됐	-639
▁얻	-640
▁범	-641
▁다양	-642
▁송	-643
▁올림	-644
▁중앙	-645
디오	-646
▁센	-647
▁결정	-648
▁탈	-649
▁V	-650
지만	-651
▁24	-652
▁설립	-653
▁폐	-654
▁22	-655
▁독립	-656
▁2008	-657
▁새로운	-658
▁해당	-659
▁제국	-660
om	-661
버지	-662
▁악	-663
▁23	-664
▁191	-665
▁구조	-666
▁자유	-667
▁상태	-668
▁인해	-669
▁형태	-670
▁주로	-671
▁여성	-672
ol	-673
▁고등	-674
▁일어	-675
us	-676
▁난	-677
▁소속	-678
▁사실	-679
▁로마	-680
▁싱	-681
▁어서	-682
▁침	-683
▁그녀	-684
▁같이	-685
▁폴	-686
▁하지만	-687
▁2011	-688
▁이탈	-689
▁올림픽	-690
▁좋	-691
우스	-692
▁2012	-693
▁르	-694
as	-695
▁필요	-696
▁프로그램	-697
▁생각	-698
▁중요	-699
▁2009	-700
나라	-701
▁2007	-702
▁출신	-703
▁이것	-704
▁스타	-705
▁팔	-706
▁생산	-707
▁으로서	-708
et	-709
▁혼	-710
▁2014	-711
▁좌	-712
▁이어	-713
▁빌	-714
▁운영	-715
▁참가	-716
▁철도	-717
▁나라	-718
▁벌	-719
▁조직	-720
▁타이	-721
▁란	-722
il	-723
▁억	-724
▁행정	-725
▁출연	-726
▁등장	-727
▁초등	-728
▁기관	-729
am	-730
▁인민	-731
▁계획	-732
▁윤	-733
라마	-734
▁000	-735
▁정보	-736
ing	-737
▁성공	-738
▁계속	-739
▁관리	-740
므로	-741
▁이탈리아	-742
▁매우	-743
▁콘	-744
▁26	-745
▁주요	-746
르크	-747
▁상대	-748
▁2013	-749
▁데뷔	-750
▁시스	-751
▁2015	-752
▁헌	-753
▁바이	-754
리즈	-755
▁위원회	-756
▁따르	-757
▁넘	-758
▁데이	-759
▁몇	-760
▁28	-761
▁쇼	-762
▁2018	-763
▁27	-764
▁그룹	-765
▁o	-766
스터	-767
▁차지	-768
▁뿐	-769
▁해서	-770
▁아버지	-771
▁전체	-772
ro	-773
ch	-774
▁2016	-775
▁레이	-776
▁d	-777
▁과학	-778
▁여자	-779
▁지정	-780
진다	-781
▁국민	-782
프트	-783
▁아래	-784
▁처럼	-785
▁고려	-786
▁드라마	-787
▁칼	-788
이션	-789
▁제공	-790
▁자리	-791
▁발전	-792
▁찾	-793
▁2006	-794
▁p	-795
▁대전	-796
▁방법	-797
▁앨범	-798
▁시리즈	-799
▁기원	-800
▁사업	-801
▁보이	-802
▁인도	-803
▁후보	-804
▁능	-805
▁최고	-806
▁2017	-807
▁돌아	-808
레스	-809
▁묘	-810
▁의원	-811
▁회사	-812
▁졌	-813
▁가리	-814
▁기업	-815
▁둘	-816
▁결국	-817
▁공식	-818
▁엘	-819
▁2000	-820
▁100	-821
비아	-822
▁스페	-823
▁마이	-824
▁떨	-825
남도	-826
▁시스템	-827
▁격	-828
▁이유	-829
▁힘	-830
▁29	-831
이트	-832
▁퍼	-833
▁거의	-834
▁시기	-835
▁조사	-836
한다	-837
▁방식	-838
▁그리스	-839
▁인간	-840
▁내용	-841
▁빠	-842
비스	-843
▁한편	-844
▁얼	-845
▁태어났	-846
▁층	-847
▁떠	-848
▁생활	-849
▁역할	-850
▁인터	-851
▁")	-852
운데	-853
▁많이	-854
▁우리	-855
▁월드	-856
▁초기	-857
▁교회	-858
▁2019	-859
▁풍	-860
▁동시	-861
▁몸	-862
▁워	-863
▁잠	-864
▁출전	-865
▁연결	-866
▁연합	-867
▁가운데	-868
▁못하	-869
▁컴	-870
▁반대	-871
▁유지	-872
▁유명	-873
인다	-874
▁군사	-875
▁먼	-876
▁였으나	-877
▁공개	-878
▁해야	-879
▁190	-880
▁고등학교	-881
FA	-882
▁녹	-883
▁대신	-884
▁색	-885
▁2005	-886
▁마지	-887
▁느	-888
▁평가	-889
ac	-890
▁of	-891
▁지구	-892
▁표현	-893
▁규모	-894
▁으로써	-895
▁31	-896
▁으로부터	-897
▁기능	-898
▁항공	-899
▁분류	-900
▁민족	-901
▁수상	-902
▁노동	-903
▁떨어	-904
▁칸	-905
▁제도	-906
▁이미	-907
▁언어	-908
▁밴	-909
▁노래	-910
▁대상	-911
▁개인	-912
▁수도	-913
▁현대	-914
▁마지막	-915
▁열린	-916
▁텔	-917
▁졸	-918
▁각각	-919
▁몰	-920
▁따라서	-921
▁추가	-922
▁승리	-923
▁모습	-924
야기	-925
▁여기	-926
▁2020	-927
▁프리	-928
▁이루어	-929
▁홈	-930
ed	-931
▁이론	-932
▁류	-933
▁응	-934
▁기간	-935
▁이르	-936
▁특별	-937
▁지도	-938
▁플레이	-939
▁인정	-940
▁웨	-941
▁붙	-942
▁자연	-943
▁건설	-944
▁긴	-945
▁2004	-946
▁시켰	-947
▁밖	-948
▁단체	-949
▁놓	-950
▁임명	-951
▁형성	-952
▁진출	-953
▁알려져	-954
▁전문	-955
▁울	-956
▁희	-957
▁핵	-958
▁시장	-959
▁산업	-960
머니	-961
▁직접	-962
▁눈	-963
▁브라	-964
▁샤	-965
▁상황	-966
▁모델	-967
▁50	-968
스크	-969
id	-970
BS	-971
▁푸	-972
▁벨	-973
▁아르	-974
▁먹	-975
▁그것	-976
▁The	-977
▁마을	-978
▁건물	-979
▁공동	-980
▁왔	-981
▁정의	-982
▁오스트	-983
▁목적	-984
▁슬	-985
▁이야기	-986
▁빈	-987
▁정책	-988
▁계약	-989
▁서로	-990
▁불리	-991
▁족	-992
ent	-993
▁시절	-994
▁지금	-995
북도	-996
▁!	-997
▁스페인	-998
▁습	-999
▁압	-1000
▁했으나	-1001
▁보여	-1002
▁변경	-1003
▁뛰	-1004
▁자동	-1005
▁노선	-1006
▁혁	-1007
▁콜	-1008
이지	-1009
학자	-1010
ad	-1011
▁변화	-1012
▁경상	-1013
▁완전	-1014
▁의회	-1015
▁서비스	-1016
킨다	-1017
▁b	-1018
▁가수	-1019
▁공간	-1020
os	-1021
▁개최	-1022
▁교수	-1023
▁혹	-1024
이드	-1025
▁결혼	-1026
▁거리	-1027
▁경찰	-1028
▁너	-1029
▁관한	-1030
ur	-1031
▁야구	-1032
▁활약	-1033
▁낮	-1034
▁TV	-1035
니다	-1036
▁인물	-1037
▁훈	-1038
▁으면	-1039
▁망	-1040
ig	-1041
▁2002	-1042
▁졸업	-1043
▁최대	-1044
▁학생	-1045
▁실제	-1046
▁우주	-1047
▁40	-1048
▁부르	-1049
▁의하	-1050
▁공화국	-1051
▁싱글	-1052
▁촌	-1053
▁밴드	-1054
▁전국	-1055
▁기반	-1056
▁비롯	-1057
▁사상	-1058
▁소설	-1059
▁궁	-1060
▁휴	-1061
ter	-1062
iv	-1063
▁역시	-1064
▁기원전	-1065
▁지지	-1066
▁기타	-1067
▁189	-1068
▁요구	-1069
▁딸	-1070
▁판매	-1071
▁텔레	-1072
▁보호	-1073
▁the	-1074
▁2003	-1075
▁원래	-1076
▁일으	-1077
운드	-1078
and	-1079
대로	-1080
▁보통	-1081
▁잉	-1082
른다	-1083
프리카	-1084
▁속하	-1085
▁다이	-1086
▁부산	-1087
▁없이	-1088
▁황제	-1089
▁인민공	-1090
▁인민공화국	-1091
▁사랑	-1092
▁나이	-1093
▁겠	-1094
▁기본	-1095
▁가진	-1096
▁국회	-1097
비전	-1098
르트	-1099
▁출시	-1100
un	-1101
▁견	-1102
ation	-1103
▁FC	-1104
▁만든	-1105
▁맥	-1106
▁겸	-1107
▁퇴	-1108
▁달리	-1109
▁탑	-1110
▁어떤	-1111
▁거쳐	-1112
▁수행	-1113
▁실시	-1114
▁?	-1115
▁그래	-1116
▁론	-1117
▁아닌	-1118
▁자기	-1119
▁운행	-1120
od	-1121
스탄	-1122
▁못했	-1123
ot	-1124
▁전통	-1125
▁지하	-1126
▁설명	-1127
▁중화	-1128
▁도쿄	-1129
▁중학교	-1130
▁한다는	-1131
▁연방	-1132
▁종교	-1133
▁소련	-1134
▁엄	-1135
▁증가	-1136
▁도로	-1137
▁작업	-1138
▁차이	-1139
▁비판	-1140
▁1990	-1141
▁지나	-1142
▁Y	-1143
▁제외	-1144
▁이동	-1145
▁싸	-1146
▁옥	-1147
▁흐	-1148
▁환경	-1149
▁작곡	-1150
▁전기	-1151
▁특징	-1152
▁탐	-1153
▁혹은	-1154
▁공연	-1155
로스	-1156
린다	-1157
▁명칭	-1158
▁득	-1159
▁뮤	-1160
▁St	-1161
▁세력	-1162
▁숙	-1163
▁모양	-1164
▁세포	-1165
▁스위	-1166
역시	-1167
▁남쪽	-1168
▁북쪽	-1169
▁분야	-1170
▁애니	-1171
▁행동	-1172
▁통합	-1173
나다	-1174
▁경기도	-1175
▁염	-1176
▁시설	-1177
um	-1178
▁동물	-1179
▁위하	-1180
▁자료	-1181
▁군대	-1182
▁전자	-1183
▁방향	-1184
▁회의	-1185
▁도입	-1186
▁나오	-1187
▁구역	-1188
▁2001	-1189
▁센터	-1190
ra	-1191
▁목록	-1192
▁선정	-1193
▁능력	-1194
▁이라	-1195
▁작가	-1196
▁예술	-1197
▁기독	-1198
▁부대	-1199
▁차량	-1200
▁가족	-1201
▁확인	-1202
▁기존	-1203
▁바로	-1204
▁대해서	-1205
▁소프트	-1206
▁의한	-1207
▁풀	-1208
▁기념	-1209
▁지휘	-1210
너지	-1211
▁비슷	-1212
▁효과	-1213
▁승강	-1214
▁면적	-1215
▁교통	-1216
러스	-1217
▁지배	-1218
▁나가	-1219
▁추정	-1220
▁어머니	-1221
▁열차	-1222
▁작용	-1223
▁넓	-1224
▁높이	-1225
▁과거	-1226
▁피해	-1227
▁텔레비전	-1228
▁십	-1229
▁런	-1230
▁이때	-1231
▁이끌	-1232
▁역임	-1233
▁유일	-1234
▁몽	-1235
▁국내	-1236
▁n	-1237
▁2021	-1238
▁착	-1239
▁므로	-1240
▁월드컵	-1241
im	-1242
▁캐나다	-1243
▁옮	-1244
▁기독교	-1245
▁행위	-1246
▁남부	-1247
▁남자	-1248
▁형식	-1249
▁마다	-1250
▁교황	-1251
ir	-1252
▁동일	-1253
▁전라	-1254
▁오늘	-1255
▁X	-1256
▁부문	-1257
▁흔	-1258
▁적용	-1259
▁인기	-1260
▁문학	-1261
▁컴퓨	-1262
▁동쪽	-1263
루스	-1264
▁주변	-1265
em	-1266
▁시민	-1267
▁획	-1268
▁정당	-1269
▁혁명	-1270
▁앤	-1271
▁h	-1272
BC	-1273
▁솔	-1274
▁쪽	-1275
▁액	-1276
▁뉴욕	-1277
▁갑	-1278
▁한다고	-1279
▁담당	-1280
▁보내	-1281
▁컵	-1282
스타	-1283
▁비교	-1284
▁태양	-1285
▁대사	-1286
▁성장	-1287
▁낙	-1288
▁품	-1289
▁덴	-1290
▁서쪽	-1291
▁스트	-1292
▁상당	-1293
▁장관	-1294
▁윌	-1295
▁잔	-1296
▁1980	-1297
▁왕국	-1298
▁멤	-1299
▁승강장	-1300
▁클럽	-1301
▁영어	-1302
▁1999	-1303
▁이적	-1304
▁어린	-1305
ut	-1306
의원	-1307
▁발매되	-1308
▁이사	-1309
▁협회	-1310
▁데이터	-1311
ec	-1312
▁사고	-1313
ia	-1314
▁버전	-1315
▁FI	-1316
▁188	-1317
▁개념	-1318
메이션	-1319
자리	-1320
▁베이	-1321
▁"(	-1322
▁반응	-1323
▁자체	-1324
리오	-1325
▁예정	-1326
▁홀	-1327
▁특정	-1328
▁디자	-1329
▁공산	-1330
▁달러	-1331
▁크기	-1332
▁대체	-1333
▁스포	-1334
▁건축	-1335
▁징	-1336
▁에너지	-1337
▁연주	-1338
▁물리	-1339
▁메이	-1340
▁록	-1341
▁구간	-1342
▁돈	-1343
▁시켜	-1344
▁선택	-1345
▁가까	-1346
▁다르	-1347
▁챔	-1348
▁주연	-1349
▁곧	-1350
▁움	-1351
▁흥	-1352
▁1998	-1353
▁칭	-1354
▁차례	-1355
▁마음	-1356
▁사무	-1357
▁자치	-1358
▁컴퓨터	-1359
▁버스	-1360
▁즈	-1361
▁맨	-1362
▁a	-1363
▁애니메이션	-1364
▁어느	-1365
▁올라	-1366
▁육군	-1367
▁조건	-1368
▁넣	-1369
가지	-1370
▁율	-1371
▁멤버	-1372
▁평균	-1373
▁실패	-1374
▁부족	-1375
▁언급	-1376
▁이런	-1377
▁스위스	-1378
▁연속	-1379
st	-1380
▁마르	-1381
▁32	-1382
▁단계	-1383
▁선출	-1384
▁컨	-1385
▁주도	-1386
▁북부	-1387
▁공사	-1388
▁연기	-1389
▁땅	-1390
▁는지	-1391
▁출판	-1392
▁대하	-1393
▁늘	-1394
▁방영	-1395
▁인지	-1396
▁35	-1397
▁조지	-1398
▁속도	-1399
▁윈	-1400
▁종류	-1401
▁선언	-1402
▁Ch	-1403
▁고대	-1404
▁포르	-1405
▁수록	-1406
▁내부	-1407
▁작전	-1408
▁충청	-1409
op	-1410
▁챔피	-1411
▁링	-1412
카이	-1413
▁물질	-1414
▁1997	-1415
▁친구	-1416
▁정신	-1417
▁곤	-1418
▁덕	-1419
▁60	-1420
▁치료	-1421
▁옛	-1422
▁규정	-1423
▁In	-1424
드리	-1425
▁헌법	-1426
글랜드	-1427
▁최종	-1428
▁cm	-1429
▁밝혔	-1430
▁명령	-1431
▁1995	-1432
▁1996	-1433
▁구단	-1434
▁개혁	-1435
▁익	-1436
▁g	-1437
▁확장	-1438
▁몬	-1439
ow	-1440
▁민주주의	-1441
▁위해서	-1442
▁설계	-1443
▁걸쳐	-1444
▁입단	-1445
시마	-1446
▁흑	-1447
▁분석	-1448
▁쌍	-1449
거리	-1450
▁벤	-1451
난다	-1452
▁지냈	-1453
▁표준	-1454
▁페르	-1455
▁조약	-1456
▁보인다	-1457
▁연대	-1458
▁결승	-1459
▁획득	-1460
oc	-1461
▁체제	-1462
▁최근	-1463
▁척	-1464
▁지속	-1465
▁해군	-1466
▁의사	-1467
웨어	-1468
▁거주	-1469
▁선발	-1470
▁유사	-1471
▁찬	-1472
▁혈	-1473
▁대구	-1474
▁가치	-1475
▁관심	-1476
▁법원	-1477
▁in	-1478
▁일어나	-1479
▁소유	-1480
▁엔진	-1481
▁팬	-1482
▁요소	-1483
트남	-1484
▁대중	-1485
▁핀	-1486
▁왜	-1487
▁FIFA	-1488
▁더욱	-1489
▁사단	-1490
▁잉글랜드	-1491
▁강화	-1492
▁비행	-1493
▁남성	-1494
▁아시아	-1495
▁로스	-1496
▁개월	-1497
▁분리	-1498
▁1994	-1499
▁결합	-1500
▁국립	-1501
▁널	-1502
▁개봉	-1503
▁하이	-1504
▁스테	-1505
ag	-1506
▁머리	-1507
▁지명	-1508
▁체계	-1509
▁1970	-1510
▁mm	-1511
▁공항	-1512
▁소비	-1513
▁집단	-1514
▁내려	-1515
▁관할	-1516
▁도움	-1517
▁=	-1518
▁%)	-1519
▁1992	-1520
▁오늘날	-1521
▁목표	-1522
▁비디오	-1523
코드	-1524
▁가리킨다	-1525
▁휘	-1526
▁조정	-1527
▁자동차	-1528
▁후반	-1529
▁겨	-1530
메리카	-1531
리지	-1532
▁폴란드	-1533
▁제품	-1534
▁배치	-1535
▁실험	-1536
▁씩	-1537
▁파리	-1538
▁주인	-1539
▁맺	-1540
▁밤	-1541
스코	-1542
▁크리스	-1543
ay	-1544
▁부상	-1545
▁술	-1546
디어	-1547
▁어려	-1548
▁인천	-1549
▁시도	-1550
▁정규	-1551
렇게	-1552
▁어야	-1553
▁외국	-1554
▁문서	-1555
▁스포츠	-1556
▁베르	-1557
▁현상	-1558
▁요시	-1559
▁'(	-1560
▁&	-1561
▁수준	-1562
▁헬	-1563
▁재판	-1564
▁이해	-1565
▁186	-1566
▁고자	-1567
▁려고	-1568
▁가문	-1569
▁점령	-1570
▁네덜	-1571
▁네덜란드	-1572
아들	-1573
▁제한	-1574
▁투표	-1575
▁1991	-1576
▁187	-1577
▁처리	-1578
▁기사	-1579
라스	-1580
▁당하	-1581
▁불구	-1582
▁유전	-1583
▁알려진	-1584
▁주민	-1585
▁깊	-1586
▁디자인	-1587
▁문자	-1588
젝트	-1589
▁학자	-1590
▁들어가	-1591
▁쥐	-1592
ce	-1593
▁길이	-1594
▁북한	-1595
▁잃	-1596
▁뛰어	-1597
메달	-1598
▁편성	-1599
▁안정	-1600
▁칠	-1601
▁동맹	-1602
▁제조	-1603
▁마리	-1604
야마	-1605
▁나무	-1606
▁행사	-1607
ul	-1608
▁70	-1609
▁괴	-1610
▁원자	-1611
▁파이	-1612
▁일종	-1613
▁장치	-1614
버스	-1615
▁경험	-1616
▁바르	-1617
▁가정	-1618
▁책임	-1619
▁1993	-1620
▁정확	-1621
▁방문	-1622
▁웹	-1623
▁통치	-1624
▁장군	-1625
ers	-1626
▁통일	-1627
▁나타나	-1628
▁에스	-1629
▁올랐	-1630
▁용어	-1631
▁공원	-1632
▁언론	-1633
▁e	-1634
▁통과	-1635
▁시험	-1636
▁함수	-1637
▁통신	-1638
▁준비	-1639
▁아마	-1640
▁그림	-1641
▁사진	-1642
▁비해	-1643
▁촉	-1644
▁캠	-1645
▁다면	-1646
▁제안	-1647
▁프로젝트	-1648
▁아프리카	-1649
▁성적	-1650
▁베트남	-1651
광역시	-1652
▁사령	-1653
▁거두	-1654
▁이라고	-1655
▁믿	-1656
▁앙	-1657
▁500	-1658
▁듯	-1659
일랜드	-1660
▁만나	-1661
▁80	-1662
▁츠	-1663
머지	-1664
▁구분	-1665
▁",	-1666
▁나머지	-1667
▁원인	-1668
▁1988	-1669
▁병원	-1670
▁갔	-1671
▁끌	-1672
▁빛	-1673
▁불교	-1674
▁신문	-1675
▁멸	-1676
▁드러	-1677
▁런던	-1678
nd	-1679
▁1960	-1680
▁꽃	-1681
▁챔피언	-1682
▁주제	-1683
▁완전히	-1684
▁려는	-1685
▁그런	-1686
▁소재	-1687
▁평화	-1688
▁값	-1689
▁은퇴	-1690
▁정권	-1691
▁서부	-1692
▁36	-1693
▁본선	-1694
▁w	-1695
▁고속	-1696
▁대로	-1697
▁만화	-1698
▁인데	-1699
▁총리	-1700
▁45	-1701
▁쓴	-1702
▁아직	-1703
▁지진	-1704
▁부여	-1705
▁유래	-1706
▁발달	-1707
▁수용	-1708
▁야마	-1709
▁1989	-1710
▁쉽	-1711
▁요리	-1712
▁파괴	-1713
▁해석	-1714
▁영역	-1715
▁경쟁	-1716
▁정상	-1717
▁노력	-1718
▁여겨	-1719
스로	-1720
▁예선	-1721
▁레코드	-1722
▁생물	-1723
▁멀	-1724
▁방어	-1725
▁이곳	-1726
ri	-1727
▁경계	-1728
▁이듬	-1729
▁',	-1730
▁알렉	-1731
▁놀	-1732
▁오르	-1733
▁널리	-1734
▁KBS	-1735
▁훈련	-1736
▁기여	-1737
▁회장	-1738
▁나온	-1739
ph	-1740
▁33	-1741
나무	-1742
▁부인	-1743
ov	-1744
▁접근	-1745
▁추진	-1746
▁정리	-1747
▁부정	-1748
▁동부	-1749
▁반면	-1750
▁영토	-1751
▁폐지	-1752
▁번호	-1753
▁요청	-1754
▁광주	-1755
라인	-1756
리트	-1757
▁공립	-1758
▁라디오	-1759
▁사라	-1760
스턴	-1761
▁경영	-1762
▁무기	-1763
▁자주	-1764
▁이듬해	-1765
▁프레	-1766
▁보도	-1767
▁움직	-1768
▁왕조	-1769
▁입장	-1770
웨이	-1771
▁무대	-1772
▁인식	-1773
▁세워	-1774
▁+	-1775
▁일제	-1776
▁마찬	-1777
▁마찬가지	-1778
▁델	-1779
▁법률	-1780
레일	-1781
▁슈퍼	-1782
▁등록	-1783
▁세대	-1784
▁가르	-1785
▁궤	-1786
▁투수	-1787
▁연맹	-1788
▁오래	-1789
인트	-1790
▁식민	-1791
▁미사	-1792
▁신경	-1793
▁든	-1794
▁하계	-1795
▁외교	-1796
▁표기	-1797
▁신라	-1798
▁금지	-1799
▁종합	-1800
▁깨	-1801
th	-1802
▁인터넷	-1803
▁오른	-1804
▁민주당	-1805
톨릭	-1806
▁뇌	-1807
▁장애	-1808
▁지난	-1809
▁거부	-1810
▁철학	-1811
▁바탕	-1812
▁다리	-1813
▁도서	-1814
▁잇	-1815
▁스웨	-1816
▁묘사	-1817
▁실제로	-1818
ist	-1819
▁받아들	-1820
▁상호	-1821
▁스튜	-1822
ie	-1823
▁펼	-1824
▁캐릭	-1825
특별	-1826
▁;	-1827
▁행성	-1828
▁정식	-1829
▁펜	-1830
▁연구소	-1831
▁짧	-1832
▁노르	-1833
▁꼬	-1834
▁스스로	-1835
▁차트	-1836
▁박사	-1837
▁서식	-1838
▁미술	-1839
▁조각	-1840
▁검사	-1841
▁근처	-1842
▁업무	-1843
▁해결	-1844
▁아서	-1845
▁당했	-1846
▁표시	-1847
▁v	-1848
▁다수	-1849
▁전해	-1850
▁화학	-1851
▁보수	-1852
▁벽	-1853
▁빅	-1854
▁폰	-1855
▁지도자	-1856
▁의식	-1857
▁38	-1858
▁더불	-1859
▁은행	-1860
▁무역	-1861
▁복귀	-1862
▁기초	-1863
▁캐릭터	-1864
▁아일랜드	-1865
▁장소	-1866
og	-1867
▁분포	-1868
▁지대	-1869
▁둔	-1870
▁강력	-1871
▁가톨릭	-1872
요일	-1873
부르크	-1874
▁제주	-1875
▁결성	-1876
▁UE	-1877
▁감소	-1878
▁스웨덴	-1879
▁발사	-1880
▁주의	-1881
▁1987	-1882
▁득점	-1883
▁단순	-1884
▁중간	-1885
▁그대로	-1886
▁밝혀	-1887
▁끼	-1888
▁정치인	-1889
▁트리	-1890
▁오스트리아	-1891
▁패배	-1892
▁소리	-1893
낸다	-1894
▁식물	-1895
시코	-1896
▁수학	-1897
▁이스	-1898
▁임시	-1899
▁찾아	-1900
▁렌	-1901
▁여름	-1902
▁UEFA	-1903
로나	-1904
▁초대	-1905
▁경기장	-1906
▁생성	-1907
▁성격	-1908
모토	-1909
▁브라질	-1910
▁돼	-1911
▁마이크	-1912
▁아카	-1913
▁위험	-1914
▁기구	-1915
토리	-1916
▁오스	-1917
▁디지	-1918
▁박물	-1919
▁바뀌	-1920
▁1986	-1921
▁셀	-1922
▁삼성	-1923
▁제시	-1924
▁필리	-1925
▁바다	-1926
▁34	-1927
▁관측	-1928
▁이외	-1929
▁중단	-1930
▁멜	-1931
▁도착	-1932
▁그린	-1933
▁공작	-1934
▁회원	-1935
▁국회의원	-1936
▁차원	-1937
▁협력	-1938
▁시행	-1939
▁유로	-1940
▁유형	-1941
▁단어	-1942
▁계열	-1943
▁l	-1944
▁나중	-1945
▁로써	-1946
▁파일	-1947
▁활용	-1948
▁권력	-1949
▁린	-1950
▁가져	-1951
▁흡	-1952
▁다만	-1953
멕시코	-1954
▁아시	-1955
ard	-1956
NA	-1957
▁1950	-1958
▁히로	-1959
▁1984	-1960
▁기계	-1961
▁x	-1962
▁일정	-1963
▁인사	-1964
▁90	-1965
▁먼저	-1966
▁집합	-1967
▁오브	-1968
▁발행	-1969
▁안전	-1970
▁총선	-1971
est	-1972
▁뮤직	-1973
▁반란	-1974
워드	-1975
▁소프트웨어	-1976
▁형제	-1977
▁스코	-1978
▁여행	-1979
▁연장	-1980
▁캘	-1981
▁량	-1982
간다	-1983
▁지적	-1984
▁만큼	-1985
▁습니다	-1986
▁수많	-1987
▁카드	-1988
▁아무	-1989
▁오사	-1990
▁투자	-1991
▁Z	-1992
▁극장	-1993
▁나타내	-1994
▁굴	-1995
▁사이트	-1996
임스	-1997
▁번역	-1998
▁윌리	-1999
▁쓰이	-2000
▁률	-2001
▁라인	-2002
▁케이	-2003
주시	-2004
▁48	-2005
▁유대	-2006
▁달성	-2007
레일리아	-2008
워크	-2009
▁붕	-2010
▁박물관	-2011
▁개국	-2012
▁1985	-2013
▁균	-2014
▁겪	-2015
▁쉬	-2016
▁하루	-2017
▁연극	-2018
▁여객	-2019
▁강원	-2020
트로	-2021
ess	-2022
▁삶	-2023
▁후기	-2024
ap	-2025
▁해안	-2026
▁기자	-2027
▁후쿠	-2028
▁전시	-2029
▁공장	-2030
▁래	-2031
▁촬	-2032
▁떠나	-2033
▁유니	-2034
▁코드	-2035
가와	-2036
트리	-2037
▁녹음	-2038
▁2022	-2039
▁혐	-2040
▁1945	-2041
▁귀족	-2042
▁에이	-2043
▁네트	-2044
▁출생	-2045
▁조성	-2046
▁and	-2047
▁벌어	-2048
▁보유	-2049
티아	-2050
▁죽음	-2051
▁내각	-2052
▁순위	-2053
▁체포	-2054
▁파견	-2055
ine	-2056
▁다카	-2057
▁전달	-2058
▁측정	-2059
▁주어	-2060
▁디지털	-2061
지션	-2062
▁촬영	-2063
▁근거	-2064
▁위기	-2065
베이	-2066
▁뉴스	-2067
▁완성	-2068
▁관광	-2069
▁동생	-2070
소년	-2071
▁상업	-2072
무원	-2073
▁마사	-2074
▁제기	-2075
▁상징	-2076
▁영상	-2077
▁학위	-2078
▁카이	-2079
가리	-2080
▁단위	-2081
▁오스트레일리아	-2082
▁숨	-2083
▁옹	-2084
▁본부	-2085
▁꾸	-2086
▁태평	-2087
▁죄	-2088
▁멕시코	-2089
▁혜	-2090
▁지식	-2091
▁1982	-2092
▁전략	-2093
▁개통	-2094
▁바꾸	-2095
전히	-2096
▁유리	-2097
▁대응	-2098
▁범죄	-2099
▁컬	-2100
ity	-2101
▁37	-2102
▁세상	-2103
▁관찰	-2104
▁Al	-2105
▁이하	-2106
▁확대	-2107
버트	-2108
▁보존	-2109
▁아내	-2110
▁수사	-2111
▁포르투	-2112
▁지상	-2113
▁권리	-2114
▁특수	-2115
▁성우	-2116
▁통하	-2117
▁듀	-2118
▁이슬	-2119
▁185	-2120
▁밀도	-2121
▁이주	-2122
니스	-2123
회사	-2124
▁세웠	-2125
▁몇몇	-2126
배우	-2127
▁설정	-2128
ct	-2129
▁미래	-2130
▁보였	-2131
▁지하철	-2132
▁체결	-2133
특별시	-2134
▁1983	-2135
▁천황	-2136
▁윈도	-2137
▁서울특별시	-2138
▁양식	-2139
▁톤	-2140
▁당선	-2141
art	-2142
av	-2143
▁전환	-2144
▁크로	-2145
▁근무	-2146
▁싶	-2147
ab	-2148
▁헝	-2149
▁경상남도	-2150
▁경상북도	-2151
▁성립	-2152
▁윌리엄	-2153
▁그렇	-2154
▁피아	-2155
▁특성	-2156
▁논란	-2157
▁수비	-2158
▁코치	-2159
▁식민지	-2160
▁이렇게	-2161
▁타이틀	-2162
▁채널	-2163
▁직후	-2164
▁다루	-2165
▁종료	-2166
나이	-2167
▁42	-2168
▁옆	-2169
▁국왕	-2170
▁합류	-2171
▁세르	-2172
▁소수	-2173
▁주인공	-2174
▁즐	-2175
▁39	-2176
▁종목	-2177
▁계승	-2178
▁공급	-2179
▁승격	-2180
아시아	-2181
▁300	-2182
▁정착	-2183
▁님	-2184
▁판단	-2185
▁부른다	-2186
▁낳	-2187
▁생명	-2188
▁아키	-2189
▁밑	-2190
▁미군	-2191
▁텍	-2192
▁국경	-2193
▁젊	-2194
▁올리	-2195
▁으므로	-2196
▁지위	-2197
ill	-2198
▁따른	-2199
▁스키	-2200
▁춘	-2201
▁이집	-2202
▁이집트	-2203
▁개정	-2204
▁얼마	-2205
▁맹	-2206
모리	-2207
▁헨	-2208
▁즉위	-2209
▁홍콩	-2210
▁개선	-2211
▁취임	-2212
▁교체	-2213
▁주식	-2214
▁비용	-2215
▁농업	-2216
▁겐	-2217
▁의견	-2218
▁부모	-2219
▁시티	-2220
▁제거	-2221
▁시청	-2222
▁자본	-2223
▁수정	-2224
▁대륙	-2225
▁납	-2226
▁1981	-2227
▁빨	-2228
▁제정	-2229
▁보냈	-2230
▁소개	-2231
▁거대	-2232
▁원소	-2233
ak	-2234
▁~)	-2235
▁감염	-2236
igh	-2237
▁주목	-2238
▁41	-2239
▁벗	-2240
▁못한	-2241
▁건강	-2242
▁제목	-2243
▁강한	-2244
▁우크	-2245
▁기획	-2246
▁롤	-2247
▁64	-2248
▁음식	-2249
▁이래	-2250
▁시위	-2251
▁배경	-2252
▁계산	-2253
리학	-2254
▁해외	-2255
▁져	-2256
러운	-2257
▁55	-2258
▁인근	-2259
▁은하	-2260
▁스티	-2261
▁여전히	-2262
▁스튜디오	-2263
▁도서관	-2264
▁네트워크	-2265
▁튀	-2266
▁만드	-2267
▁MBC	-2268
▁충돌	-2269
if	-2270
▁1979	-2271
▁통제	-2272
라도	-2273
▁쌓	-2274
▁기후	-2275
▁왼	-2276
▁공부	-2277
▁썼	-2278
▁결승전	-2279
▁측면	-2280
▁펠	-2281
▁읽	-2282
▁집중	-2283
▁셰	-2284
▁de	-2285
▁장기	-2286
▁사회주의	-2287
ell	-2288
▁됨	-2289
▁본래	-2290
▁작성	-2291
▁지점	-2292
▁원정	-2293
▁환자	-2294
▁인수	-2295
▁184	-2296
▁물론	-2297
▁이번	-2298
▁..	-2299
▁떨어진	-2300
▁미사일	-2301
▁소장	-2302
▁알렉산	-2303
스티	-2304
▁자격	-2305
▁군인	-2306
▁찰	-2307
교회	-2308
▁최소	-2309
▁가격	-2310
▁II	-2311
▁너무	-2312
▁전차	-2313
▁계기	-2314
▁자원	-2315
ang	-2316
▁외부	-2317
▁1972	-2318
디아	-2319
▁가까운	-2320
▁음력	-2321
▁몽골	-2322
▁이슬람	-2323
▁랑	-2324
▁가입	-2325
▁합병	-2326
▁베네	-2327
오카	-2328
▁옮겨	-2329
▁듣	-2330
▁신호	-2331
▁명예	-2332
▁홈런	-2333
▁예수	-2334
▁1973	-2335
▁이란	-2336
▁문화재	-2337
▁Th	-2338
▁비밀	-2339
▁본관	-2340
▁오후	-2341
▁나누	-2342
▁청년	-2343
▁틀	-2344
▁약간	-2345
▁일어난	-2346
▁저항	-2347
리포	-2348
nt	-2349
▁75	-2350
▁포르투갈	-2351
▁마치	-2352
▁엘리	-2353
▁궤도	-2354
▁Re	-2355
▁허용	-2356
▁전라남도	-2357
▁강조	-2358
all	-2359
▁엑	-2360
▁으면서	-2361
스카	-2362
▁바이러스	-2363
ip	-2364
▁헝가리	-2365
▁학문	-2366
▁콩	-2367
▁전사	-2368
▁입학	-2369
▁다니	-2370
▁공군	-2371
▁편집	-2372
▁표면	-2373
어나	-2374
▁객	-2375
▁포지션	-2376
▁병력	-2377
ive	-2378
▁둘러	-2379
▁블랙	-2380
▁준다	-2381
▁종종	-2382
▁학년	-2383
▁아우	-2384
▁기회	-2385
▁가리키	-2386
▁실행	-2387
▁엔터	-2388
▁신학	-2389
▁킬	-2390
동안	-2391
티나	-2392
▁성인	-2393
ber	-2394
▁남북	-2395
▁인한	-2396
▁질량	-2397
▁각종	-2398
▁노동자	-2399
▁병사	-2400
▁제임스	-2401
▁고양	-2402
백질	-2403
▁충분	-2404
▁광고	-2405
▁천문	-2406
피아	-2407
▁나왔	-2408
▁뒷	-2409
▁180	-2410
▁만약	-2411
▁미디어	-2412
▁세이	-2413
니어	-2414
▁전반	-2415
▁변호	-2416
▁민간	-2417
▁샌	-2418
▁1974	-2419
▁보고	-2420
아가	-2421
베르	-2422
▁플로	-2423
▁겨울	-2424
▁빼	-2425
▁건너	-2426
▁모리	-2427
▁재정	-2428
▁간주	-2429
▁이루어져	-2430
▁동료	-2431
▁금융	-2432
▁혐의	-2433
▁43	-2434
▁윈도우	-2435
▁비트	-2436
▁전역	-2437
▁현실	-2438
▁무렵	-2439
▁증명	-2440
▁도중	-2441
▁가졌	-2442
▁흰	-2443
▁바람	-2444
▁태평양	-2445
▁유도	-2446
▁국방	-2447
ue	-2448
▁에드	-2449
▁수입	-2450
▁라운드	-2451
▁승인	-2452
▁고전	-2453
▁잎	-2454
▁1978	-2455
▁양자	-2456
▁털	-2457
te	-2458
▁위협	-2459
소리	-2460
▁양성	-2461
▁오사카	-2462
▁의료	-2463
▁1976	-2464
▁증거	-2465
▁캘리포	-2466
▁불린다	-2467
▁가스	-2468
▁등급	-2469
▁종이	-2470
▁잭	-2471
▁논문	-2472
▁무장	-2473
▁지내	-2474
▁짓	-2475
▁범위	-2476
▁시킨	-2477
▁토지	-2478
▁공공	-2479
▁클라	-2480
▁항상	-2481
▁숲	-2482
도로	-2483
▁냉	-2484
철도	-2485
▁단백질	-2486
▁1971	-2487
▁그해	-2488
ub	-2489
▁캘리포니아	-2490
▁마련	-2491
▁잡지	-2492
▁해방	-2493
▁나카	-2494
▁분자	-2495
▁계급	-2496
▁라이브	-2497
▁1968	-2498
▁재산	-2499
▁이미지	-2500
▁온도	-2501
▁붕괴	-2502
▁갖추	-2503
▁임무	-2504
▁가로	-2505
▁쇠	-2506
ne	-2507
▁그곳	-2508
▁재직	-2509
▁전력	-2510
▁섭	-2511
마크	-2512
▁인디	-2513
▁회복	-2514
▁융	-2515
▁강제	-2516
▁다섯	-2517
▁미치	-2518
▁183	-2519
▁킹	-2520
▁1975	-2521
▁조치	-2522
▁강원도	-2523
▁44	-2524
▁1969	-2525
▁채택	-2526
▁47	-2527
▁진화	-2528
▁위원장	-2529
▁적극	-2530
▁확보	-2531
▁명단	-2532
▁령	-2533
▁후지	-2534
▁사례	-2535
▁업체	-2536
스키	-2537
▁400	-2538
▁짐	-2539
▁폼	-2540
▁출발	-2541
▁65	-2542
▁소송	-2543
▁그래서	-2544
▁게이	-2545
보드	-2546
▁불러	-2547
▁원칙	-2548
▁힐	-2549
▁핀란드	-2550
our	-2551
▁비율	-2552
▁욕	-2553
▁점차	-2554
▁Q	-2555
▁합의	-2556
리스트	-2557
▁그려	-2558
▁꼬리	-2559
▁울산	-2560
▁대학원	-2561
▁카르	-2562
▁답	-2563
▁남동	-2564
▁전하	-2565
▁토론	-2566
아프리카	-2567
▁구축	-2568
▁대대	-2569
▁사우	-2570
▁충청남도	-2571
▁장면	-2572
▁r	-2573
▁인하	-2574
로드	-2575
▁에피	-2576
▁루이	-2577
▁드래	-2578
▁남편	-2579
▁일원	-2580
▁수단	-2581
▁거래	-2582
드로	-2583
▁시내	-2584
▁이스라	-2585
▁봄	-2586
▁수립	-2587
▁터미	-2588
주교	-2589
▁유엔	-2590
▁아라	-2591
▁동계	-2592
▁모스크	-2593
▁마쓰	-2594
▁매년	-2595
▁불가	-2596
▁46	-2597
▁중심지	-2598
▁군주	-2599
▁교사	-2600
▁의학	-2601
▁시인	-2602
▁첨	-2603
▁끊	-2604
ian	-2605
CA	-2606
▁얼굴	-2607
▁스파	-2608
▁라틴	-2609
▁둥	-2610
▁세종	-2611
▁부근	-2612
▁오리	-2613
▁이스라엘	-2614
▁체육	-2615
▁폭발	-2616
▁전선	-2617
▁쓰인다	-2618
바이	-2619
테르	-2620
▁1963	-2621
▁1977	-2622
▁강의	-2623
키아	-2624
▁장비	-2625
▁근대	-2626
▁불렀	-2627
▁아나	-2628
▁냈	-2629
▁179	-2630
▁침공	-2631
▁흘	-2632
▁스타일	-2633
타인	-2634
▁|	-2635
▁CD	-2636
▁공산당	-2637
▁규칙	-2638
▁빠르	-2639
▁51	-2640
▁필리핀	-2641
▁De	-2642
▁아주	-2643
ong	-2644
ice	-2645
▁전개	-2646
▁확실	-2647
▁텐	-2648
▁경향	-2649
▁군단	-2650
▁마리아	-2651
▁만족	-2652
▁투어	-2653
ud	-2654
▁위성	-2655
▁대수	-2656
▁대형	-2657
ran	-2658
▁롭	-2659
▁코미	-2660
▁기억	-2661
고기	-2662
▁라면	-2663
▁아랍	-2664
▁플랫	-2665
▁52	-2666
▁터미널	-2667
▁장식	-2668
▁Le	-2669
라노	-2670
▁신화	-2671
레이드	-2672
▁꿈	-2673
리히	-2674
▁공주	-2675
▁경력	-2676
▁카메	-2677
▁기지	-2678
▁앞두	-2679
▁라며	-2680
▁에게서	-2681
▁이제	-2682
▁향상	-2683
▁가사	-2684
▁클래	-2685
마스	-2686
▁효소	-2687
▁탑재	-2688
▁기대	-2689
▁붉	-2690
▁개편	-2691
▁어떻	-2692
▁150	-2693
▁선거구	-2694
▁일어났	-2695
반도	-2696
누스	-2697
▁1964	-2698
▁열렸	-2699
▁서양	-2700
▁했었	-2701
▁1948	-2702
▁고종	-2703
▁대기	-2704
▁감정	-2705
▁대장	-2706
▁1920	-2707
▁불과	-2708
▁해체	-2709
▁1940	-2710
데미	-2711
▁영화배우	-2712
고리	-2713
▁공유	-2714
▁아름	-2715
▁버리	-2716
▁상하	-2717
▁수출	-2718
▁떨어져	-2719
▁낭	-2720
▁보장	-2721
▁띠	-2722
▁캄	-2723
▁동음	-2724
▁나치	-2725
▁고구	-2726
▁시각	-2727
▁자금	-2728
▁태어난	-2729
네시아	-2730
▁1930	-2731
▁아파	-2732
▁좀	-2733
▁복잡	-2734
▁해도	-2735
▁켄	-2736
▁항성	-2737
▁조합	-2738
▁st	-2739
▁고용	-2740
▁이승	-2741
▁공업	-2742
▁알려졌	-2743
▁예상	-2744
▁살해	-2745
▁넘어	-2746
▁아카데미	-2747
▁플레이어	-2748
▁독자	-2749
▁스리	-2750
▁1967	-2751
ge	-2752
▁알리	-2753
▁호수	-2754
▁181	-2755
▁모르	-2756
▁세우	-2757
▁선고	-2758
▁이끄	-2759
우드	-2760
▁동의	-2761
▁스피	-2762
▁브랜드	-2763
▁Ne	-2764
▁귀국	-2765
▁신설	-2766
이의	-2767
▁사후	-2768
▁소년	-2769
▁단일	-2770
▁54	-2771
▁동음이의	-2772
소드	-2773
▁우선	-2774
▁확정	-2775
▁아메리카	-2776
▁Ar	-2777
▁지시	-2778
트라	-2779
▁고문	-2780
▁아야	-2781
▁1962	-2782
▁단지	-2783
▁나와	-2784
아메리카	-2785
▁트랙	-2786
▁솔로	-2787
▁코미디	-2788
▁강점	-2789
▁의장	-2790
▁중반	-2791
▁청소년	-2792
▁전설	-2793
▁차별	-2794
▁잠시	-2795
요시	-2796
▁수원	-2797
▁시킬	-2798
▁랭	-2799
▁청나라	-2800
▁공포	-2801
▁성과	-2802
▁회전	-2803
▁빙	-2804
틀랜드	-2805
▁마드리	-2806
▁우수	-2807
▁온라인	-2808
▁선생	-2809
▁나폴	-2810
▁집행	-2811
▁판결	-2812
▁전화	-2813
▁Un	-2814
▁구체	-2815
▁의무	-2816
▁53	-2817
이크	-2818
오스	-2819
▁삭	-2820
▁고정	-2821
▁인조	-2822
▁An	-2823
▁참석	-2824
▁편입	-2825
▁핵심	-2826
▁세운	-2827
▁어린이	-2828
하라	-2829
레이션	-2830
▁태어나	-2831
▁베이스	-2832
▁시킨다	-2833
▁자세	-2834
▁마드리드	-2835
를린	-2836
▁49	-2837
▁%,	-2838
ry	-2839
▁갖춘	-2840
▁주교	-2841
▁스카	-2842
▁훨	-2843
▁터키	-2844
▁신앙	-2845
▁덴마크	-2846
▁1965	-2847
▁1946	-2848
▁kg	-2849
▁대립	-2850
▁초반	-2851
어들	-2852
▁메이저	-2853
▁작곡가	-2854
▁노예	-2855
▁만주	-2856
▁평양	-2857
▁훨씬	-2858
▁직원	-2859
▁선조	-2860
▁헤이	-2861
▁브리	-2862
▁냐	-2863
없이	-2864
▁중화민국	-2865
▁애플	-2866
룬다	-2867
▁창설	-2868
▁숭	-2869
▁1966	-2870
▁저장	-2871
▁나뉘	-2872
▁숫	-2873
▁의해서	-2874
▁이루어진	-2875
▁뿌	-2876
▁철도역	-2877
▁운전	-2878
▁유전자	-2879
▁뛰어난	-2880
▁덮	-2881
▁스케	-2882
▁역대	-2883
▁Mar	-2884
▁교토	-2885
▁대비	-2886
▁상품	-2887
▁주택	-2888
▁협상	-2889
FC	-2890
▁권한	-2891
▁중부	-2892
ight	-2893
▁검찰	-2894
▁별도	-2895
▁공학	-2896
▁하늘	-2897
▁전용	-2898
터리	-2899
▁공기	-2900
▁이루어지	-2901
네스	-2902
▁경주	-2903
▁왕위	-2904
▁보안	-2905
▁이성	-2906
싱턴	-2907
▁보병	-2908
▁LG	-2909
▁원작	-2910
▁대항	-2911
각형	-2912
▁중세	-2913
▁카운	-2914
에르	-2915
▁보급	-2916
▁함대	-2917
▁북서	-2918
▁올렸	-2919
▁북동	-2920
▁오픈	-2921
▁아르헨	-2922
▁보조	-2923
리어	-2924
▁고구려	-2925
▁후손	-2926
다이	-2927
운동	-2928
▁태풍	-2929
▁56	-2930
의회	-2931
▁에선	-2932
▁1949	-2933
▁에피소드	-2934
▁흔히	-2935
ant	-2936
▁마크	-2937
▁인상	-2938
▁통한	-2939
일러	-2940
▁조금	-2941
▁협정	-2942
▁순서	-2943
▁1961	-2944
▁본인	-2945
▁서기	-2946
▁심각	-2947
▁묻	-2948
▁아르헨티나	-2949
셔널	-2950
▁사항	-2951
▁아시안	-2952
카와	-2953
▁옷	-2954
▁산맥	-2955
▁호텔	-2956
▁본격	-2957
▁이익	-2958
ST	-2959
▁장착	-2960
▁멘	-2961
▁금메달	-2962
▁연고	-2963
▁탄생	-2964
▁암살	-2965
▁재단	-2966
▁잘못	-2967
ob	-2968
▁전혀	-2969
▁Sh	-2970
▁정복	-2971
▁스크	-2972
▁오른쪽	-2973
▁수여	-2974
▁지키	-2975
se	-2976
▁사전	-2977
▁통계	-2978
ich	-2979
▁비난	-2980
▁바라	-2981
▁댄	-2982
▁유학	-2983
▁터널	-2984
▁반복	-2985
▁말기	-2986
▁방출	-2987
▁하드	-2988
▁고향	-2989
오프	-2990
▁켈	-2991
▁앞서	-2992
▁육상	-2993
사키	-2994
▁왼쪽	-2995
▁방면	-2996
▁보컬	-2997
▁아스	-2998
비드	-2999
▁이어지	-3000
▁변호사	-3001
▁물러	-3002
▁활성	-3003
▁오랜	-3004
▁명명	-3005
▁오히	-3006
▁찍	-3007
▁각본	-3008
▁강점기	-3009
▁1000	-3010
▁소식	-3011
다리	-3012
▁워싱턴	-3013
▁로버트	-3014
▁갈등	-3015
▁닌	-3016
해졌	-3017
ore	-3018
듀서	-3019
▁프로듀서	-3020
원군	-3021
▁도달	-3022
▁논의	-3023
ort	-3024
▁삼국	-3025
▁re	-3026
▁요새	-3027
▁돌아가	-3028
▁출마	-3029
▁58	-3030
▁어떻게	-3031
▁시점	-3032
▁슬로	-3033
▁저지	-3034
▁공무원	-3035
▁반도	-3036
▁카를	-3037
▁셋	-3038
▁유적	-3039
▁합성	-3040
▁저서	-3041
▁연관	-3042
per	-3043
▁금속	-3044
문화	-3045
▁선수단	-3046
▁롯	-3047
▁레드	-3048
▁성당	-3049
▁신체	-3050
▁플라	-3051
▁릴	-3052
▁원주	-3053
▁박쥐	-3054
▁베를린	-3055
▁요한	-3056
qu	-3057
▁구별	-3058
▁태국	-3059
▁인정받	-3060
▁강하	-3061
▁인권	-3062
▁노스	-3063
퍼스	-3064
▁인터뷰	-3065
▁주기	-3066
▁일으키	-3067
▁모스크바	-3068
▁전후	-3069
▁프란	-3070
▁99	-3071
▁관료	-3072
▁오토	-3073
▁아미	-3074
▁Com	-3075
▁법인	-3076
▁우스	-3077
▁창조	-3078
ain	-3079
미터	-3080
▁건조	-3081
▁전라북도	-3082
▁인류	-3083
▁피아노	-3084
▁인종	-3085
▁입자	-3086
▁투입	-3087
▁이민	-3088
▁광역시	-3089
▁생존	-3090
▁군수	-3091
▁무리	-3092
ver	-3093
▁글로	-3094
▁로드	-3095
▁182	-3096
▁미터	-3097
▁베이징	-3098
▁추측	-3099
▁속한다	-3100
▁교차	-3101
▁효율	-3102
▁오전	-3103
▁아침	-3104
▁US	-3105
▁숫자	-3106
▁진다	-3107
ate	-3108
▁to	-3109
▁사령관	-3110
▁창립	-3111
▁복합	-3112
▁57	-3113
▁항복	-3114
▁불렸	-3115
▁산하	-3116
▁짜	-3117
▁코스	-3118
▁흡수	-3119
BO	-3120
▁공산주의	-3121
▁건국	-3122
▁Be	-3123
▁현장	-3124
▁일치	-3125
▁거절	-3126
▁한때	-3127
▁62	-3128
무라	-3129
정부	-3130
▁내렸	-3131
▁구속	-3132
▁사법	-3133
▁1958	-3134
ord	-3135
▁제출	-3136
퍼드	-3137
ss	-3138
세이	-3139
▁스코틀랜드	-3140
▁인공	-3141
▁마침	-3142
▁논쟁	-3143
▁포기	-3144
▁성경	-3145
▁공화	-3146
▁탁	-3147
▁열리	-3148
▁전공	-3149
▁파라	-3150
▁낸	-3151
▁개시	-3152
▁노르웨이	-3153
▁해양	-3154
▁벡	-3155
OS	-3156
▁웨스트	-3157
ect	-3158
▁예산	-3159
▁현역	-3160
▁제자	-3161
▁절대	-3162
▁법칙	-3163
▁정체	-3164
▁00	-3165
▁연산	-3166
▁SBS	-3167
도르	-3168
▁머물	-3169
▁운용	-3170
▁의존	-3171
▁72	-3172
▁비록	-3173
▁하위	-3174
▁제어	-3175
▁i	-3176
▁주위	-3177
▁작사	-3178
▁연합군	-3179
▁라도	-3180
▁메시	-3181
▁집안	-3182
▁교류	-3183
▁오히려	-3184
▁해상	-3185
end	-3186
▁블루	-3187
▁수송	-3188
▁미나	-3189
▁미니	-3190
▁인가	-3191
젤레스	-3192
▁고유	-3193
▁헨리	-3194
▁투쟁	-3195
▁61	-3196
▁주전	-3197
▁전부	-3198
▁프라	-3199
▁PC	-3200
▁뽑	-3201
▁중대	-3202
▁김정	-3203
마트	-3204
▁관점	-3205
▁사운드	-3206
스토	-3207
▁1956	-3208
서트	-3209
▁붙여	-3210
▁에어	-3211
▁해졌	-3212
▁지닌	-3213
▁95	-3214
▁맛	-3215
▁소녀	-3216
▁포도	-3217
▁어렵	-3218
▁이기	-3219
▁마이클	-3220
▁160	-3221
▁멸망	-3222
▁신성	-3223
▁전철	-3224
▁편지	-3225
▁취급	-3226
▁들어갔	-3227
▁반영	-3228
▁66	-3229
▁활발	-3230
▁178	-3231
▁읍	-3232
▁파크	-3233
▁플레이오프	-3234
▁밖에	-3235
▁아사	-3236
▁취득	-3237
▁직전	-3238
▁분쟁	-3239
▁지니	-3240
▁목사	-3241
▁포위	-3242
▁통해서	-3243
산시	-3244
▁안타	-3245
▁정비	-3246
쿠라	-3247
▁파트	-3248
▁1944	-3249
▁본사	-3250
▁죽이	-3251
▁내리	-3252
기에	-3253
▁1959	-3254
▁택	-3255
▁한자	-3256
▁총독	-3257
▁장악	-3258
▁외국인	-3259
▁생겨	-3260
▁미드	-3261
▁항공기	-3262
▁약속	-3263
ys	-3264
준다	-3265
▁노부	-3266
▁다운	-3267
ae	-3268
▁88	-3269
키스탄	-3270
▁성능	-3271
▁히데	-3272
▁경성	-3273
▁폭력	-3274
▁Sp	-3275
▁1947	-3276
▁더라도	-3277
▁혼란	-3278
▁수집	-3279
▁직업	-3280
io	-3281
▁현지	-3282
▁명성	-3283
▁상당히	-3284
▁질병	-3285
라이나	-3286
▁도구	-3287
ik	-3288
▁자라	-3289
▁이른	-3290
▁소스	-3291
▁아름다	-3292
일보	-3293
▁견해	-3294
▁수술	-3295
▁그레	-3296
▁농민	-3297
▁보관	-3298
다가	-3299
▁해산	-3300
▁예비	-3301
▁부활	-3302
▁화물	-3303
▁조절	-3304
릭스	-3305
▁1941	-3306
▁성질	-3307
▁후원	-3308
▁한국어	-3309
▁넷	-3310
▁85	-3311
▁폴리	-3312
▁159	-3313
▁형사	-3314
▁무엇	-3315
▁떠났	-3316
▁대화	-3317
자기	-3318
▁장교	-3319
▁연료	-3320
▁일으켰	-3321
▁개체	-3322
▁일대	-3323
▁세인트	-3324
ff	-3325
▁상승	-3326
▁득표	-3327
▁에도	-3328
▁브루	-3329
▁팝	-3330
▁출입	-3331
▁불법	-3332
▁콘서트	-3333
▁브레	-3334
▁전문가	-3335
▁자녀	-3336
▁본명	-3337
▁사태	-3338
▁교환	-3339
▁니시	-3340
▁생기	-3341
▁남서	-3342
▁대략	-3343
라비아	-3344
▁대리	-3345
▁진입	-3346
▁건립	-3347
▁소방	-3348
▁68	-3349
▁동원	-3350
▁주관	-3351
▁보험	-3352
▁빠른	-3353
▁여객철도	-3354
▁핑	-3355
▁63	-3356
ok	-3357
▁심리	-3358
▁간단	-3359
▁디스	-3360
▁모드	-3361
oh	-3362
▁원리	-3363
▁인도네시아	-3364
▁학부	-3365
▁베스트	-3366
uc	-3367
▁부장	-3368
데스	-3369
▁선교	-3370
▁여부	-3371
▁연재	-3372
▁이치	-3373
▁탈출	-3374
▁영향력	-3375
▁관직	-3376
▁니콜	-3377
▁자이	-3378
▁백작	-3379
▁부임	-3380
▁출장	-3381
▁써	-3382
▁좁	-3383
▁진보	-3384
▁철수	-3385
▁하우스	-3386
바라	-3387
▁고도	-3388
▁엠	-3389
▁로스앤	-3390
▁벨기에	-3391
▁로스앤젤레스	-3392
▁의도	-3393
▁꼭	-3394
▁살인	-3395
▁임대	-3396
▁취하	-3397
▁닥	-3398
▁시리아	-3399
▁1954	-3400
▁정지	-3401
▁영화제	-3402
▁al	-3403
▁보스	-3404
▁응용	-3405
▁학습	-3406
▁스미	-3407
▁막부	-3408
▁1939	-3409
▁분열	-3410
▁You	-3411
▁경로	-3412
▁탄소	-3413
▁1952	-3414
▁임금	-3415
▁연출	-3416
▁변형	-3417
▁허가	-3418
▁이시	-3419
▁동성	-3420
▁랜	-3421
▁갤	-3422
▁Con	-3423
▁구성원	-3424
▁59	-3425
▁알아	-3426
▁고리	-3427
▁논리	-3428
▁사령부	-3429
ast	-3430
▁주간	-3431
▁그런데	-3432
▁로운	-3433
▁공동체	-3434
▁예측	-3435
▁공통	-3436
▁위반	-3437
에트	-3438
▁학술	-3439
▁접하	-3440
▁훗	-3441
▁보건	-3442
▁톰	-3443
▁젠	-3444
▁갈라	-3445
▁말레이	-3446
▁픽	-3447
▁항구	-3448
▁FA	-3449
▁증상	-3450
▁코로나	-3451
▁영업	-3452
▁장르	-3453
▁트랜	-3454
▁천체	-3455
노스	-3456
▁헤르	-3457
▁방사	-3458
▁스프	-3459
▁1919	-3460
▁계통	-3461
▁아테	-3462
▁통상	-3463
▁거기	-3464
카이도	-3465
▁하나님	-3466
▁사장	-3467
▁82	-3468
▁복무	-3469
▁재료	-3470
▁전파	-3471
▁영입	-3472
▁He	-3473
▁쫓	-3474
▁프리미	-3475
▁도망	-3476
▁리더	-3477
▁스러운	-3478
이어	-3479
▁주년	-3480
리케	-3481
▁콤	-3482
▁엑스	-3483
▁시카	-3484
▁리스	-3485
나이티	-3486
병대	-3487
▁국도	-3488
▁타이완	-3489
▁샘	-3490
▁주식회사	-3491
▁Pro	-3492
▁1957	-3493
▁유나이티	-3494
▁요코	-3495
▁상륙	-3496
▁완료	-3497
▁프로세	-3498
▁신분	-3499
▁1955	-3500
▁문헌	-3501
▁수리	-3502
▁자살	-3503
▁기호	-3504
ure	-3505
▁유물	-3506
▁렀	-3507
▁반발	-3508
아버지	-3509
▁아파트	-3510
▁절차	-3511
▁축제	-3512
▁정원	-3513
▁1953	-3514
▁화성	-3515
▁진압	-3516
타르	-3517
▁Se	-3518
▁당한	-3519
▁지낸	-3520
▁탈락	-3521
▁데이비드	-3522
로그	-3523
▁요인	-3524
▁86	-3525
▁이중	-3526
▁이뤄	-3527
▁흉	-3528
▁흐르	-3529
▁학회	-3530
머스	-3531
▁테러	-3532
▁톱	-3533
▁국장	-3534
ib	-3535
▁그리스도	-3536
▁모여	-3537
▁카메라	-3538
▁98	-3539
시스	-3540
▁메인	-3541
▁박정	-3542
▁스토	-3543
▁이온	-3544
▁120	-3545
▁유기	-3546
▁동남	-3547
▁화면	-3548
▁신청	-3549
▁포트	-3550
▁나타났	-3551
▁백제	-3552
▁히트	-3553
▁식품	-3554
▁횡	-3555
에이	-3556
▁정기	-3557
천군	-3558
ens	-3559
▁Me	-3560
▁포로	-3561
▁락	-3562
▁충청북도	-3563
▁다스	-3564
▁""	-3565
▁먹이	-3566
▁십자	-3567
▁훗날	-3568
포르	-3569
티브	-3570
▁74	-3571
▁기도	-3572
▁김영	-3573
▁수소	-3574
▁부부	-3575
▁승진	-3576
믹스	-3577
▁선보	-3578
▁시호	-3579
▁71	-3580
▁가을	-3581
▁감사	-3582
▁치렀	-3583
▁라이트	-3584
AR	-3585
▁누구	-3586
▁취소	-3587
▁방지	-3588
▁재위	-3589
▁빠져	-3590
▁트라	-3591
하마	-3592
▁문장	-3593
천시	-3594
▁판서	-3595
▁제일	-3596
▁개신	-3597
▁스럽	-3598
▁모아	-3599
▁학과	-3600
▁아동	-3601
▁임의	-3602
▁우크라	-3603
▁체코	-3604
무부	-3605
페라	-3606
메리	-3607
▁벼	-3608
▁그라	-3609
▁콘스탄	-3610
▁변환	-3611
▁배출	-3612
▁캠퍼스	-3613
▁조작	-3614
ld	-3615
▁압력	-3616
▁쳐	-3617
one	-3618
▁합격	-3619
▁원년	-3620
▁광장	-3621
▁코르	-3622
▁트로	-3623
▁분명	-3624
▁학원	-3625
▁보낸	-3626
▁생긴	-3627
▁아프	-3628
▁셔	-3629
▁연안	-3630
▁채용	-3631
▁저작	-3632
▁1942	-3633
▁출간	-3634
▁개조	-3635
▁지붕	-3636
▁동작	-3637
▁큐	-3638
▁76	-3639
▁청구	-3640
▁한반도	-3641
▁소비에트	-3642
▁롯데	-3643
▁늦	-3644
드시	-3645
▁창단	-3646
▁SK	-3647
man	-3648
▁마케	-3649
▁서버	-3650
▁나타난다	-3651
▁우려	-3652
▁73	-3653
▁가나	-3654
iz	-3655
수록	-3656
▁망명	-3657
ER	-3658
▁메이지	-3659
▁도전	-3660
▁비례	-3661
▁177	-3662
▁처형	-3663
▁등지	-3664
▁무덤	-3665
▁추산	-3666
▁뿌리	-3667
▁물체	-3668
▁액션	-3669
▁주둔	-3670
성군	-3671
▁지급	-3672
▁페이	-3673
▁600	-3674
▁선전	-3675
▁실수	-3676
▁분해	-3677
바르	-3678
▁독특	-3679
▁살아	-3680
▁67	-3681
▁목소리	-3682
크스	-3683
어스	-3684
▁루트	-3685
▁흑인	-3686
▁어떠	-3687
▁맞이	-3688
▁참고	-3689
▁DNA	-3690
▁오프	-3691
▁서구	-3692
▁농구	-3693
▁가구	-3694
▁특이	-3695
▁유치	-3696
▁불상	-3697
▁달하	-3698
▁상원	-3699
▁매일	-3700
ount	-3701
▁고지	-3702
문화재	-3703
▁800	-3704
▁1943	-3705
▁77	-3706
정식	-3707
▁방해	-3708
▁기하	-3709
▁남겼	-3710
▁반드시	-3711
▁전면	-3712
▁오스만	-3713
▁전형	-3714
▁홋	-3715
▁참전	-3716
▁글자	-3717
▁끝나	-3718
▁동기	-3719
▁엄청	-3720
▁된다는	-3721
▁풍부	-3722
▁위상	-3723
▁발언	-3724
▁기체	-3725
▁제대로	-3726
브리	-3727
▁나갔	-3728
ial	-3729
▁도쿠	-3730
▁녹색	-3731
▁IS	-3732
▁리가	-3733
▁롱	-3734
▁기법	-3735
▁왕자	-3736
ack	-3737
▁둘째	-3738
▁희망	-3739
▁메모리	-3740
▁비평	-3741
▁삽	-3742
▁장수	-3743
▁카운티	-3744
저우	-3745
▁기상	-3746
▁실질	-3747
▁덧	-3748
▁미국인	-3749
비치	-3750
▁계곡	-3751
▁방송국	-3752
▁CO	-3753
▁신뢰	-3754
▁황금	-3755
▁레오	-3756
▁신인	-3757
▁지리	-3758
▁연간	-3759
▁는가	-3760
▁로켓	-3761
▁단독	-3762
▁분할	-3763
▁판사	-3764
▁크리	-3765
▁한정	-3766
▁치러	-3767
▁스토리	-3768
▁92	-3769
▁공정	-3770
▁성향	-3771
▁별명	-3772
▁묶	-3773
▁뜨	-3774
▁점점	-3775
▁추구	-3776
▁수영	-3777
▁물리학	-3778
▁쓸	-3779
▁수도원	-3780
ust	-3781
▁적절	-3782
▁에르	-3783
AS	-3784
▁캔	-3785
▁향하	-3786
▁플래	-3787
▁희생	-3788
질랜드	-3789
ly	-3790
▁움직임	-3791
▁대법	-3792
▁루이스	-3793
▁그레이	-3794
더스	-3795
▁천연	-3796
▁명나라	-3797
▁태어났으며	-3798
▁꺾	-3799
▁싸우	-3800
▁뉴질랜드	-3801
▁최다	-3802
▁호주	-3803
▁둘러싸	-3804
▁션	-3805
▁타임	-3806
▁친일	-3807
▁싸움	-3808
▁파악	-3809
유럽	-3810
▁처벌	-3811
▁끝난	-3812
▁법정	-3813
▁독립운동	-3814
▁사냥	-3815
▁순환	-3816
▁아티	-3817
▁화재	-3818
▁앵	-3819
▁인접	-3820
▁코파	-3821
▁자극	-3822
▁96	-3823
▁새롭	-3824
▁구하	-3825
▁손자	-3826
라드	-3827
ith	-3828
▁한계	-3829
▁고양이	-3830
▁스탠	-3831
▁무시	-3832
▁91	-3833
▁Am	-3834
▁여야	-3835
▁로봇	-3836
▁부사	-3837
▁향해	-3838
▁타격	-3839
▁마침내	-3840
▁일찍	-3841
▁스마트	-3842
▁명확	-3843
▁버렸	-3844
▁상위	-3845
▁조종	-3846
▁알렉산드	-3847
▁81	-3848
▁알파	-3849
▁해리	-3850
▁분기	-3851
▁이승만	-3852
▁전동	-3853
▁집권	-3854
▁달라	-3855
치아	-3856
▁모형	-3857
▁내전	-3858
▁가상	-3859
▁바둑	-3860
▁부하	-3861
▁이룬다	-3862
▁일본군	-3863
▁홍보	-3864
▁구현	-3865
▁1936	-3866
▁유행	-3867
▁확률	-3868
▁간행	-3869
사스	-3870
▁으려	-3871
AT	-3872
ind	-3873
▁맞추	-3874
▁사임	-3875
▁방정식	-3876
▁범주	-3877
라이언	-3878
▁오페라	-3879
▁세르비아	-3880
▁테이	-3881
▁마시	-3882
▁찰스	-3883
▁서명	-3884
▁악기	-3885
▁파르	-3886
▁인증	-3887
▁SS	-3888
▁분위	-3889
▁개신교	-3890
▁1951	-3891
▁전주	-3892
▁의심	-3893
▁빌보드	-3894
▁부진	-3895
이치	-3896
▁접촉	-3897
▁KBO	-3898
텐츠	-3899
▁재건	-3900
▁마르크	-3901
▁무게	-3902
▁이자	-3903
▁날개	-3904
▁화산	-3905
우리	-3906
▁뮤지	-3907
▁임진	-3908
▁전원	-3909
▁마법	-3910
▁퀸	-3911
▁웅	-3912
▁충격	-3913
▁긍	-3914
▁올려	-3915
▁혼합	-3916
▁의지	-3917
▁통산	-3918
투스	-3919
▁영웅	-3920
▁클레	-3921
▁전신	-3922
공항	-3923
▁복수	-3924
▁순간	-3925
▁팽	-3926
▁승객	-3927
▁대개	-3928
▁보물	-3929
▁람	-3930
▁첼	-3931
리노	-3932
▁빼앗	-3933
▁임기	-3934
▁1938	-3935
▁프라이	-3936
▁78	-3937
▁출범	-3938
▁다며	-3939
민주	-3940
▁악화	-3941
TV	-3942
▁확산	-3943
▁84	-3944
▁느끼	-3945
▁여단	-3946
▁복지	-3947
▁기기	-3948
▁보고서	-3949
▁나뉜	-3950
디션	-3951
▁완공	-3952
▁com	-3953
▁평등	-3954
▁영지	-3955
▁162	-3956
▁성분	-3957
▁순수	-3958
IV	-3959
▁입니다	-3960
▁양쪽	-3961
▁가시	-3962
▁과학자	-3963
▁사립	-3964
▁일본인	-3965
▁어도	-3966
▁닉	-3967
프리	-3968
▁저술	-3969
▁폐쇄	-3970
▁기둥	-3971
▁리처	-3972
▁좌우	-3973
▁진정	-3974
▁97	-3975
▁후속	-3976
▁시카고	-3977
▁서원	-3978
▁161	-3979
▁방위	-3980
▁연구원	-3981
▁포인트	-3982
▁87	-3983
▁93	-3984
▁에서부터	-3985
▁뤼	-3986
▁김일	-3987
▁훌	-3988
▁아리	-3989
먼트	-3990
▁진주	-3991
▁발굴	-3992
르타	-3993
▁튜	-3994
▁사마	-3995
▁수석	-3996
▁사형	-3997
▁시드	-3998
▁개입	-3999
▁균형	-4000
▁중기	-4001
▁추천	-4002
▁바깥	-4003
▁갈색	-4004
▁카라	-4005
▁신자	-4006
▁징역	-4007
▁모토	-4008
▁났	-4009
방송	-4010
▁테스트	-4011
▁1937	-4012
▁흘러	-4013
▁나타낸다	-4014
▁페르시아	-4015
사자	-4016
ove	-4017
▁루스	-4018
▁올해	-4019
▁국제공항	-4020
▁드라이	-4021
▁사원	-4022
▁문명	-4023
▁오랫	-4024
▁발음	-4025
▁웨이	-4026
▁이닝	-4027
▁뚜	-4028
▁닛	-4029
ide	-4030
▁동명	-4031
▁사실상	-4032
▁당초	-4033
▁노벨	-4034
피스	-4035
▁개막	-4036
▁69	-4037
▁레인	-4038
▁커뮤	-4039
▁포켓	-4040
▁수익	-4041
▁교향	-4042
▁밝히	-4043
▁텍사스	-4044
▁손상	-4045
▁그때	-4046
BA	-4047
▁변수	-4048
▁편찬	-4049
거운	-4050
▁띄	-4051
▁매장	-4052
▁미야	-4053
연히	-4054
▁모임	-4055
▁대공	-4056
▁나아가	-4057
▁속한	-4058
▁도와	-4059
▁시사	-4060
▁이라크	-4061
▁석유	-4062
학생	-4063
아티아	-4064
▁크로아티아	-4065
ug	-4066
ory	-4067
▁사정	-4068
은행	-4069
▁힌	-4070
▁커뮤니	-4071
▁등판	-4072
세포	-4073
틀러	-4074
▁공로	-4075
▁태도	-4076
▁근본	-4077
▁질환	-4078
▁오랫동안	-4079
▁묵	-4080
이너	-4081
▁단편	-4082
▁벡터	-4083
▁새겨	-4084
▁가진다	-4085
▁당국	-4086
▁꼽	-4087
▁마무	-4088
▁함락	-4089
일리	-4090
▁프린	-4091
▁시조	-4092
▁된다고	-4093
▁고속도로	-4094
▁재배	-4095
▁출력	-4096
메이	-4097
▁네이	-4098
▁실현	-4099
▁분위기	-4100
ood	-4101
▁그래픽	-4102
▁평론	-4103
IA	-4104
▁가와	-4105
▁뱅	-4106
▁밝혀졌	-4107
ational	-4108
▁입법	-4109
▁심사	-4110
▁합쳐	-4111
▁1935	-4112
▁가슴	-4113
up	-4114
▁무사	-4115
▁춤	-4116
▁탐사	-4117
▁기울	-4118
▁예전	-4119
▁점수	-4120
마니아	-4121
▁한다면	-4122
ock	-4123
▁권위	-4124
▁각지	-4125
▁심장	-4126
▁떨어지	-4127
▁구원	-4128
▁억제	-4129
▁1910	-4130
▁Pr	-4131
▁언제	-4132
베스	-4133
▁일상	-4134
▁정하	-4135
▁Ro	-4136
▁원형	-4137
▁곽	-4138
▁공헌	-4139
▁덜	-4140
▁감시	-4141
▁기온	-4142
▁독일군	-4143
ath	-4144
▁IC	-4145
▁왕실	-4146
▁민법	-4147
▁백성	-4148
▁흐름	-4149
▁음악가	-4150
▁저녁	-4151
▁절반	-4152
▁AT	-4153
버그	-4154
lan	-4155
▁바위	-4156
▁회담	-4157
▁175	-4158
▁심지	-4159
▁복원	-4160
▁어깨	-4161
ace	-4162
▁바닥	-4163
▁포스	-4164
▁멀리	-4165
▁89	-4166
▁NH	-4167
▁프로그래	-4168
▁줄기	-4169
▁침략	-4170
▁움직이	-4171
▁여론	-4172
▁1932	-4173
▁공중	-4174
▁대량	-4175
▁정차	-4176
ond	-4177
▁가공	-4178
▁후계	-4179
▁앉	-4180
▁섞	-4181
▁돕	-4182
▁뮤지컬	-4183
▁일시	-4184
▁노출	-4185
▁1914	-4186
▁기에	-4187
▁1918	-4188
▁력	-4189
▁받아들여	-4190
▁발발	-4191
▁약물	-4192
▁화합	-4193
▁조별	-4194
▁확립	-4195
▁1933	-4196
▁국무	-4197
▁인쇄	-4198
▁진단	-4199
▁기소	-4200
러리	-4201
▁넓이	-4202
▁Sc	-4203
▁안토	-4204
▁도요	-4205
터스	-4206
▁'()	-4207
▁170	-4208
▁인용	-4209
▁프리미어	-4210
▁작동	-4211
▁백만	-4212
▁긍정	-4213
▁암호	-4214
▁신고	-4215
▁밥	-4216
레옹	-4217
일스	-4218
▁승부	-4219
▁그렇게	-4220
▁자전	-4221
▁th	-4222
▁신부	-4223
▁여왕	-4224
▁정해	-4225
▁동해	-4226
ment	-4227
▁타자	-4228
▁나폴레옹	-4229
레인	-4230
▁어디	-4231
▁피부	-4232
▁산화	-4233
▁다케	-4234
▁파워	-4235
▁164	-4236
▁미쓰	-4237
▁학살	-4238
▁돌아왔	-4239
▁고통	-4240
▁필수	-4241
▁화석	-4242
▁83	-4243
▁한글	-4244
▁광범	-4245
▁주최	-4246
▁혁신	-4247
▁늘어	-4248
▁벗어나	-4249
▁상관	-4250
▁행렬	-4251
▁Ma	-4252
▁숙종	-4253
▁경전	-4254
▁지형	-4255
▁이어졌	-4256
▁비상	-4257
▁부지	-4258
ical	-4259
▁163	-4260
▁오버	-4261
▁한국인	-4262
▁선박	-4263
▁아이돌	-4264
▁프랑크	-4265
▁듯이	-4266
▁가설	-4267
▁여겨진다	-4268
▁펼쳐	-4269
▁시마	-4270
▁침입	-4271
▁계층	-4272
▁내셔널	-4273
▁자식	-4274
▁아트	-4275
▁79	-4276
▁전직	-4277
▁벌였	-4278
▁관여	-4279
▁고기	-4280
▁시상	-4281
▁광복	-4282
▁다소	-4283
▁94	-4284
▁생물학	-4285
▁우라	-4286
대부	-4287
▁겹	-4288
▁더블	-4289
▁지켜	-4290
▁연예	-4291
▁나온다	-4292
스트라	-4293
▁참조	-4294
▁오카	-4295
▁AP	-4296
▁사자	-4297
▁작위	-4298
쿠스	-4299
▁대선	-4300
ies	-4301
▁어려운	-4302
▁프랑스어	-4303
조합	-4304
▁이와	-4305
▁장남	-4306
▁태조	-4307
▁일본어	-4308
시오	-4309
▁FM	-4310
▁결론	-4311
▁나뉜다	-4312
▁입력	-4313
▁1934	-4314
▁누르	-4315
▁알프	-4316
▁뮌	-4317
▁하원	-4318
이센	-4319
▁메리	-4320
▁폭탄	-4321
▁깃	-4322
미야	-4323
▁Br	-4324
▁176	-4325
▁가량	-4326
▁가이	-4327
▁피하	-4328
코스	-4329
▁병합	-4330
▁사인	-4331
▁화이트	-4332
▁데스	-4333
▁보상	-4334
▁158	-4335
▁이혼	-4336
▁포항	-4337
▁구매	-4338
▁리처드	-4339
▁마무리	-4340
▁매체	-4341
▁산소	-4342
▁제사	-4343
▁심지어	-4344
▁1928	-4345
▁좋아	-4346
▁브라운	-4347
▁중력	-4348
▁통화	-4349
필더	-4350
▁미드필더	-4351
▁DV	-4352
▁불만	-4353
▁가마	-4354
▁분노	-4355
▁에드워드	-4356
▁소득	-4357
▁도마	-4358
▁잠수	-4359
▁700	-4360
▁도덕	-4361
▁덩	-4362
▁위대	-4363
▁1924	-4364
▁복음	-4365
친다	-4366
▁홋카이도	-4367
▁훈장	-4368
▁제이	-4369
▁해발	-4370
▁여섯	-4371
▁동아	-4372
▁잭슨	-4373
▁면역	-4374
▁사제	-4375
에른	-4376
▁리버	-4377
▁비서	-4378
▁화장	-4379
▁쌀	-4380
▁그만	-4381
▁안드로	-4382
▁레알	-4383
▁느낌	-4384
▁근육	-4385
▁민중	-4386
▁말레이시아	-4387
▁역학	-4388
▁165	-4389
▁전투기	-4390
▁포스트	-4391
▁검토	-4392
▁오이	-4393
▁거듭	-4394
▁기리	-4395
▁가담	-4396
▁골든	-4397
▁메시지	-4398
▁적합	-4399
가락	-4400
▁Wh	-4401
▁유고	-4402
▁올라가	-4403
▁총회	-4404
▁턴	-4405
▁호소	-4406
▁피해자	-4407
▁어려움	-4408
▁개설	-4409
▁불안	-4410
▁설득	-4411
▁동방	-4412
▁본질	-4413
▁태종	-4414
▁La	-4415
▁안동	-4416
▁리드	-4417
EC	-4418
tern	-4419
▁싱가	-4420
▁Wor	-4421
▁싱가포르	-4422
▁지향	-4423
▁y	-4424
▁평안	-4425
▁녀	-4426
숭이	-4427
▁수요	-4428
▁광범위	-4429
▁따로	-4430
▁상실	-4431
▁힙	-4432
▁의혹	-4433
▁정수	-4434
▁지역구	-4435
▁초점	-4436
ire	-4437
▁블라	-4438
▁창작	-4439
▁특별시	-4440
▁옮겼	-4441
▁가까이	-4442
▁루마니아	-4443
▁보르	-4444
tt	-4445
▁곱	-4446
act	-4447
타이	-4448
▁알바	-4449
▁AFC	-4450
▁탈퇴	-4451
▁라스	-4452
▁커버	-4453
▁152	-4454
▁1900	-4455
ont	-4456
▁개방	-4457
▁는다는	-4458
▁교구	-4459
▁실력	-4460
▁동양	-4461
▁두려	-4462
▁Te	-4463
▁En	-4464
▁후쿠오카	-4465
▁조카	-4466
▁박정희	-4467
▁140	-4468
ence	-4469
▁유한	-4470
직자	-4471
▁뷰	-4472
▁구글	-4473
▁속해	-4474
▁참모	-4475
슬러	-4476
▁피터	-4477
▁부담	-4478
ass	-4479
▁본다	-4480
▁천만	-4481
▁졌으며	-4482
▁랩	-4483
▁101	-4484
▁질문	-4485
▁엄청난	-4486
▁아름다운	-4487
▁아웃	-4488
ick	-4489
▁규제	-4490
▁예방	-4491
▁세자	-4492
▁랜드	-4493
▁Gr	-4494
▁연습	-4495
메리칸	-4496
▁보여준다	-4497
▁일련	-4498
가니	-4499
▁모바	-4500
▁세리	-4501
▁라틴어	-4502
▁나들	-4503
▁세트	-4504
란색	-4505
▁창원	-4506
▁재학	-4507
▁콘스탄티	-4508
▁라우	-4509
▁접한다	-4510
▁바이에른	-4511
▁깊이	-4512
▁포켓몬	-4513
▁바르셀	-4514
AN	-4515
▁바르셀로나	-4516
ary	-4517
▁맞서	-4518
▁벌이	-4519
▁디스크	-4520
▁동서	-4521
▁즉시	-4522
▁대지	-4523
▁끝내	-4524
▁부친	-4525
iss	-4526
▁폭격	-4527
▁닥터	-4528
▁마스터	-4529
▁지사	-4530
▁무료	-4531
▁사유	-4532
▁독일어	-4533
▁교리	-4534
▁행복	-4535
▁황후	-4536
▁급제	-4537
▁골드	-4538
▁소멸	-4539
pt	-4540
▁섹	-4541
▁퀴	-4542
▁정조	-4543
▁168	-4544
▁김대	-4545
▁국군	-4546
드리히	-4547
체스터	-4548
나가	-4549
▁1931	-4550
▁156	-4551
▁시나	-4552
▁부위	-4553
▁조상	-4554
왜란	-4555
▁임진왜란	-4556
클리	-4557
▁나들목	-4558
▁연설	-4559
▁오직	-4560
▁조지아	-4561
▁닫	-4562
▁앤드	-4563
land	-4564
▁타워	-4565
▁대왕	-4566
산화	-4567
▁였을	-4568
▁하인	-4569
▁김성	-4570
▁패션	-4571
▁프로이센	-4572
▁유산	-4573
▁승려	-4574
▁사우스	-4575
▁유통	-4576
▁테크	-4577
▁기동	-4578
▁프리드리히	-4579
▁빅토	-4580
▁대체로	-4581
▁윗	-4582
▁주력	-4583
▁총장	-4584
▁막대	-4585
▁돌아와	-4586
의정	-4587
▁발탁	-4588
▁혼인	-4589
▁쓰여	-4590
▁페이지	-4591
▁모바일	-4592
▁구입	-4593
▁후임	-4594
▁조차	-4595
▁필드	-4596
▁Count	-4597
▁글로벌	-4598
▁신사	-4599
마르	-4600
▁센트	-4601
▁쿠데	-4602
▁도모	-4603
▁당나라	-4604
▁My	-4605
▁디아	-4606
▁사도	-4607
▁일컫	-4608
▁일기	-4609
▁림	-4610
인물	-4611
▁발레	-4612
▁이른다	-4613
▁추방	-4614
▁원주민	-4615
▁방언	-4616
▁티베	-4617
▁무한	-4618
▁언덕	-4619
하여	-4620
▁처분	-4621
▁천주교	-4622
▁불가리아	-4623
▁프랭	-4624
lat	-4625
▁선임	-4626
▁수업	-4627
▁MS	-4628
▁국정	-4629
▁Col	-4630
DP	-4631
▁인원	-4632
▁일식	-4633
▁1929	-4634
▁햄	-4635
▁미시	-4636
▁Bo	-4637
▁웃	-4638
▁심판	-4639
▁문신	-4640
▁우크라이나	-4641
▁감각	-4642
▁개칭	-4643
▁조조	-4644
▁타운	-4645
▁대성	-4646
▁이내	-4647
▁Ph	-4648
ah	-4649
▁학사	-4650
▁1923	-4651
▁딜	-4652
▁혈액	-4653
▁상속	-4654
▁아티스트	-4655
▁남아프리카	-4656
▁벨라	-4657
해서	-4658
▁왕비	-4659
ivers	-4660
▁Joh	-4661
▁께	-4662
▁탱	-4663
▁Co	-4664
▁굳	-4665
▁쾌	-4666
▁상인	-4667
▁실업	-4668
미르	-4669
바키아	-4670
▁음성	-4671
▁EP	-4672
▁서술	-4673
▁1921	-4674
▁톨	-4675
▁1925	-4676
▁유형문화재	-4677
▁결의	-4678
▁멸종	-4679
▁개별	-4680
▁쿠데타	-4681
유산	-4682
▁발명	-4683
▁휴대	-4684
▁왕후	-4685
▁스테이션	-4686
▁토론토	-4687
▁1922	-4688
▁서식지	-4689
▁축구단	-4690
▁도미	-4691
▁핫	-4692
▁김일성	-4693
▁경제학	-4694
▁라이프	-4695
▁근로	-4696
▁스티븐	-4697
▁166	-4698
▁Sch	-4699
주군	-4700
▁콘텐츠	-4701
AM	-4702
▁저자	-4703
▁만났	-4704
▁게다가	-4705
▁크로스	-4706
▁석사	-4707
▁아테네	-4708
▁손실	-4709
▁보살	-4710
▁신장	-4711
▁주석	-4712
아내	-4713
▁진영	-4714
▁151	-4715
▁157	-4716
▁급격	-4717
▁이웃	-4718
▁타인	-4719
▁스미스	-4720
▁똑	-4721
민주당	-4722
▁130	-4723
▁옵	-4724
▁154	-4725
amp	-4726
▁배포	-4727
▁려면	-4728
▁부산광역시	-4729
어도	-4730
▁핸	-4731
▁Bl	-4732
▁수치	-4733
▁인생	-4734
레나	-4735
▁크루	-4736
▁자국	-4737
BM	-4738
시스코	-4739
▁게르	-4740
▁모음	-4741
▁물건	-4742
▁선호	-4743
▁스탈	-4744
▁연락	-4745
▁와이	-4746
▁엉	-4747
▁테마	-4748
슈타인	-4749
▁펑	-4750
▁대책	-4751
▁유효	-4752
▁로맨	-4753
▁개성	-4754
▁김종	-4755
▁최우	-4756
▁정교회	-4757
머리	-4758
▁영조	-4759
▁창당	-4760
▁여우	-4761
▁145	-4762
바로	-4763
▁자이언	-4764
▁카스	-4765
▁전술	-4766
▁재즈	-4767
▁고급	-4768
▁상역	-4769
▁검색	-4770
▁DVD	-4771
▁오가	-4772
▁빌리	-4773
▁스타디	-4774
▁고시	-4775
▁야스	-4776
▁완벽	-4777
▁운송	-4778
▁이명	-4779
▁빚	-4780
▁세부	-4781
▁칭호	-4782
▁암컷	-4783
▁고객	-4784
▁사기	-4785
▁빌딩	-4786
▁소위	-4787
▁수호	-4788
가시	-4789
구치	-4790
▁소비자	-4791
pe	-4792
pha	-4793
▁110	-4794
▁그리스어	-4795
▁가요	-4796
▁궁전	-4797
ID	-4798
▁업적	-4799
▁싱어	-4800
▁155	-4801
▁생태	-4802
▁아인	-4803
▁블록	-4804
▁고위	-4805
▁차단	-4806
▁클로	-4807
▁시트	-4808
▁히틀러	-4809
▁반사	-4810
▁천안	-4811
▁미리	-4812
▁렀다	-4813
▁자는	-4814
▁구멍	-4815
▁킬로	-4816
리우스	-4817
▁재개	-4818
▁취리히	-4819
▁랄	-4820
▁진격	-4821
sh	-4822
▁사격	-4823
▁호흡	-4824
▁환승	-4825
▁줄어들	-4826
▁후계자	-4827
▁영주	-4828
▁동북	-4829
▁01	-4830
토스	-4831
age	-4832
▁밀려	-4833
▁Man	-4834
▁농촌	-4835
▁오키	-4836
▁촉진	-4837
▁분화	-4838
▁흰색	-4839
▁비치	-4840
▁전송	-4841
▁퀘	-4842
▁레스	-4843
▁국적	-4844
▁줄이	-4845
▁1926	-4846
▁드래프트	-4847
▁마르크스	-4848
자키	-4849
▁Tr	-4850
▁Car	-4851
▁전당	-4852
▁주소	-4853
▁갑자기	-4854
▁알고리	-4855
▁뼈	-4856
너스	-4857
자치	-4858
▁이즈	-4859
▁섬유	-4860
▁일체	-4861
▁누리	-4862
▁소형	-4863
▁백인	-4864
▁아오	-4865
▁153	-4866
▁사무소	-4867
▁CP	-4868
▁짝	-4869
지사	-4870
▁독재	-4871
▁대사관	-4872
▁영양	-4873
동생	-4874
▁달려	-4875
▁노리	-4876
▁원수	-4877
하이	-4878
▁대우	-4879
▁부동	-4880
▁요금	-4881
▁Love	-4882
▁알고리즘	-4883
구리	-4884
▁단층	-4885
▁반지	-4886
▁사과	-4887
▁칠레	-4888
▁청주	-4889
▁1927	-4890
▁약칭	-4891
▁거짓	-4892
▁물고기	-4893
▁타이거	-4894
▁스프링	-4895
▁딘	-4896
▁대만	-4897
▁수백	-4898
펙트	-4899
▁되돌	-4900
▁화려	-4901
ost	-4902
▁수십	-4903
▁선포	-4904
▁비행기	-4905
▁생겼	-4906
▁소화	-4907
▁돌려	-4908
베르트	-4909
▁비스	-4910
▁사양	-4911
▁경남	-4912
▁선형	-4913
▁Ad	-4914
▁의문	-4915
son	-4916
▁개량	-4917
▁와서	-4918
다란	-4919
▁경비	-4920
▁언스	-4921
▁경사	-4922
▁젤	-4923
▁받아들이	-4924
▁덧붙	-4925
닉스	-4926
▁172	-4927
▁동성애	-4928
▁노트	-4929
▁파티	-4930
▁료	-4931
▁선로	-4932
▁판타	-4933
▁쿼	-4934
ern	-4935
▁*	-4936
▁개명	-4937
▁변하	-4938
비히	-4939
▁안쪽	-4940
▁캘리포니아주	-4941
니즘	-4942
총리	-4943
▁벌어진	-4944
▁이른바	-4945
▁시모	-4946
▁We	-4947
▁스타디움	-4948
IN	-4949
▁마주	-4950
▁내세	-4951
▁사망자	-4952
생물	-4953
▁상수	-4954
▁주체	-4955
▁대법원	-4956
▁립	-4957
에도	-4958
▁아메리칸	-4959
▁지불	-4960
▁진학	-4961
▁주니어	-4962
▁극단	-4963
▁기부	-4964
▁프랑스군	-4965
▁돌파	-4966
▁찬성	-4967
▁발간	-4968
▁영구	-4969
제국	-4970
▁j	-4971
▁당해	-4972
여서	-4973
▁1917	-4974
▁마루	-4975
▁툴	-4976
▁중추	-4977
▁질서	-4978
벤트	-4979
리나	-4980
사이	-4981
▁꾸준	-4982
▁증언	-4983
▁167	-4984
▁당대	-4985
▁실천	-4986
▁총재	-4987
▁사퇴	-4988
▁1912	-4989
▁당원	-4990
▁보편	-4991
▁부서	-4992
▁허락	-4993
▁습격	-4994
▁알레	-4995
과이	-4996
▁늑	-4997
독부	-4998
오르	-4999
▁인디언	-5000
▁타율	-5001
원경	-5002
▁화합물	-5003
▁OS	-5004
▁스톤	-5005
▁가속	-5006
ier	-5007
무르	-5008
▁누스	-5009
▁사이드	-5010
▁쿨	-5011
데이	-5012
▁강릉	-5013
▁북미	-5014
▁곡선	-5015
▁세로	-5016
로지	-5017
▁최후	-5018
▁뮌헨	-5019
▁남기	-5020
▁유발	-5021
▁거치	-5022
▁충분히	-5023
▁항의	-5024
▁국기	-5025
▁자산	-5026
▁가깝	-5027
▁New	-5028
▁각국	-5029
▁등장인물	-5030
다수	-5031
▁도쿠가와	-5032
▁단순히	-5033
▁전동차	-5034
▁윙	-5035
▁겉	-5036
▁시신	-5037
▁집회	-5038
▁1907	-5039
ish	-5040
▁09	-5041
▁자본주의	-5042
▁139	-5043
▁힙합	-5044
▁171	-5045
▁메탈	-5046
래프트	-5047
▁구상	-5048
▁내놓	-5049
▁오케	-5050
▁느냐	-5051
▁크라	-5052
ite	-5053
▁종사	-5054
▁HD	-5055
▁멈	-5056
▁격파	-5057
▁펀	-5058
▁메달	-5059
▁챔피언십	-5060
▁위키	-5061
ck	-5062
베르크	-5063
▁티베트	-5064
▁개장	-5065
▁연평	-5066
▁트레이드	-5067
▁소집	-5068
▁cod	-5069
▁세워졌	-5070
▁마틴	-5071
▁약화	-5072
▁탄압	-5073
▁은메달	-5074
olog	-5075
▁소문	-5076
▁축소	-5077
뜨리	-5078
▁배급	-5079
▁브로	-5080
▁추기	-5081
ann	-5082
▁주문	-5083
▁일으켜	-5084
센트	-5085
▁동메달	-5086
▁성남	-5087
무늬	-5088
▁클리	-5089
▁아틀	-5090
▁Par	-5091
▁화폐	-5092
▁간다	-5093
▁팩	-5094
▁멀티	-5095
lar	-5096
▁용인	-5097
▁미스	-5098
▁용도	-5099
▁이재	-5100
▁틈	-5101
▁유대인	-5102
드라	-5103
▁법학	-5104
게이	-5105
▁174	-5106
▁주일	-5107
▁남녀	-5108
▁피트	-5109
▁혼자	-5110
▁코리아	-5111
투아	-5112
▁돌아온	-5113
▁이벤트	-5114
▁이스트	-5115
▁모험	-5116
▁엄격	-5117
여금	-5118
▁경고	-5119
AC	-5120
▁첩	-5121
▁영감	-5122
▁County	-5123
▁뻗	-5124
▁들어오	-5125
▁치르	-5126
▁항공사	-5127
rom	-5128
▁지중	-5129
▁JR	-5130
베리아	-5131
필드	-5132
▁미술관	-5133
▁힘들	-5134
▁액체	-5135
▁콜로	-5136
▁정확히	-5137
▁틴	-5138
▁파키스탄	-5139
▁개척	-5140
▁목성	-5141
▁이념	-5142
▁재생	-5143
▁넥	-5144
▁매치	-5145
▁미만	-5146
▁클래식	-5147
▁가난	-5148
▁상주	-5149
▁끈	-5150
▁입대	-5151
▁콜롬	-5152
▁원시	-5153
▁조선총	-5154
▁베네치아	-5155
▁정류	-5156
즈니	-5157
▁조선총독부	-5158
▁구로	-5159
▁수컷	-5160
▁화제	-5161
▁돌아오	-5162
▁드물	-5163
▁영원	-5164
▁전망	-5165
▁쓰였	-5166
▁Ex	-5167
▁야당	-5168
▁1905	-5169
▁입구	-5170
▁해제	-5171
IS	-5172
▁실내	-5173
▁베르크	-5174
▁정통	-5175
▁다큐	-5176
▁추적	-5177
▁추기경	-5178
▁철거	-5179
▁라트	-5180
▁ch	-5181
▁산지	-5182
▁노동당	-5183
▁법안	-5184
▁진실	-5185
▁철학자	-5186
▁1908	-5187
▁익스	-5188
▁합동	-5189
▁탓	-5190
▁빗	-5191
▁회로	-5192
▁쿠바	-5193
▁고개	-5194
▁지질	-5195
▁페리	-5196
▁흔적	-5197
▁동화	-5198
▁이수	-5199
▁조항	-5200
▁못한다	-5201
▁아프가니	-5202
▁250	-5203
▁농장	-5204
▁강도	-5205
티스	-5206
▁다다	-5207
▁자매	-5208
▁댄스	-5209
▁서방	-5210
해군	-5211
orm	-5212
▁재능	-5213
▁지수	-5214
▁전적	-5215
▁토대	-5216
▁군부	-5217
▁퓨	-5218
▁웰	-5219
저스	-5220
▁설치류	-5221
▁페이스	-5222
▁이행	-5223
▁그럼	-5224
▁대칭	-5225
▁동인	-5226
▁형상	-5227
▁간격	-5228
▁안토니	-5229
▁평론가	-5230
제르	-5231
▁유배	-5232
▁08	-5233
▁존스	-5234
▁로렌	-5235
▁시계	-5236
▁스크린	-5237
▁밀리	-5238
리다	-5239
텐도	-5240
▁걸친	-5241
▁배열	-5242
▁닌텐도	-5243
▁AC	-5244
▁무력	-5245
▁공신	-5246
▁회색	-5247
▁돔	-5248
▁강요	-5249
▁양국	-5250
▁이마	-5251
▁대가	-5252
▁사막	-5253
▁레벨	-5254
▁프로그래밍	-5255
▁잠재	-5256
▁풋	-5257
▁룸	-5258
▁간부	-5259
▁놀이	-5260
▁당신	-5261
▁강남	-5262
▁북서쪽	-5263
▁요코하마	-5264
▁대원	-5265
▁Cl	-5266
ound	-5267
▁으니	-5268
▁아프가니스탄	-5269
▁합리	-5270
▁유아	-5271
▁중성	-5272
▁뱀	-5273
▁글리	-5274
▁오류	-5275
▁조기	-5276
▁도마뱀	-5277
ile	-5278
▁나선	-5279
▁클래스	-5280
▁%),	-5281
ON	-5282
▁성종	-5283
▁주재	-5284
수량	-5285
드레	-5286
▁베리	-5287
▁프로토	-5288
브라	-5289
▁신도	-5290
▁본토	-5291
▁장로	-5292
▁05	-5293
ase	-5294
ere	-5295
▁사무실	-5296
▁할아버지	-5297
▁04	-5298
▁레닌	-5299
▁무용	-5300
▁세금	-5301
▁주어졌	-5302
코프	-5303
▁사찰	-5304
▁꾼	-5305
▁캡	-5306
▁인치	-5307
▁국방부	-5308
▁트랜스	-5309
▁구름	-5310
페이스	-5311
▁타카	-5312
▁바이올	-5313
사전	-5314
▁우에	-5315
▁중지	-5316
▁운항	-5317
▁1906	-5318
▁la	-5319
▁정면	-5320
▁합니다	-5321
▁on	-5322
▁레이블	-5323
▁양산	-5324
▁스탈린	-5325
▁재판소	-5326
▁탕	-5327
▁지표	-5328
▁자랑	-5329
▁중동	-5330
▁올스타	-5331
▁유키	-5332
▁전제	-5333
▁판정	-5334
▁John	-5335
런스	-5336
▁히로시마	-5337
▁구사	-5338
▁중종	-5339
▁평면	-5340
▁함경	-5341
▁사카	-5342
▁잠수함	-5343
▁쟁	-5344
▁나이트	-5345
▁드리	-5346
▁분산	-5347
레오	-5348
▁복사	-5349
▁장례	-5350
▁밸	-5351
▁ST	-5352
▁표지	-5353
슬링	-5354
▁닐	-5355
▁첸	-5356
▁식량	-5357
▁번지	-5358
▁독점	-5359
힌다	-5360
ung	-5361
▁직무	-5362
bert	-5363
▁엘리자	-5364
▁전한	-5365
▁리아	-5366
▁일단	-5367
▁편의	-5368
티오	-5369
▁관객	-5370
▁지칭	-5371
▁강등	-5372
▁북아메리카	-5373
▁Univers	-5374
▁노인	-5375
▁그래프	-5376
야스	-5377
▁인민군	-5378
▁마감	-5379
▁매주	-5380
▁명시	-5381
▁항해	-5382
리그	-5383
▁일환	-5384
▁탄핵	-5385
▁나섰	-5386
▁안내	-5387
▁하여금	-5388
▁광산	-5389
▁대다수	-5390
▁메트로	-5391
▁보스턴	-5392
히로	-5393
▁부속	-5394
▁그리하여	-5395
ime	-5396
성기	-5397
att	-5398
레이크	-5399
공사	-5400
▁발전소	-5401
▁마저	-5402
둥이	-5403
▁동굴	-5404
▁석방	-5405
▁상대식	-5406
▁재임	-5407
▁준우	-5408
▁파트너	-5409
▁전작	-5410
▁킨	-5411
▁세월	-5412
▁세조	-5413
▁행하	-5414
키퍼	-5415
▁전남	-5416
▁토착	-5417
▁골키퍼	-5418
▁곤충	-5419
▁국토	-5420
▁꺼	-5421
세대	-5422
▁원자력	-5423
돌프	-5424
▁착용	-5425
ica	-5426
▁카자	-5427
▁초청	-5428
시스트	-5429
▁열매	-5430
▁코너	-5431
▁포드	-5432
▁리스트	-5433
▁부작	-5434
▁아이스	-5435
페인	-5436
▁투스	-5437
▁개찰	-5438
▁현존	-5439
▁대동	-5440
▁덕분	-5441
ES	-5442
▁첫째	-5443
▁World	-5444
▁빵	-5445
어로	-5446
▁손해	-5447
▁남동쪽	-5448
▁늑대	-5449
▁진술	-5450
▁오리지	-5451
▁부드	-5452
▁지바	-5453
▁이정	-5454
▁갱	-5455
▁공룡	-5456
▁동반	-5457
▁소요	-5458
▁심리학	-5459
▁파운드	-5460
▁부호	-5461
▁필립	-5462
▁놀라	-5463
▁발렌	-5464
▁수비수	-5465
▁히어로	-5466
▁쏘	-5467
▁동지	-5468
▁새벽	-5469
▁하와	-5470
▁의정부	-5471
und	-5472
▁부품	-5473
▁스카이	-5474
ction	-5475
▁코어	-5476
▁특별히	-5477
▁146	-5478
▁북동쪽	-5479
▁앱	-5480
▁하사	-5481
니스트	-5482
▁전북	-5483
▁동구	-5484
▁타점	-5485
튜브	-5486
▁필라	-5487
OR	-5488
▁키스	-5489
▁놓여	-5490
▁부처	-5491
ach	-5492
▁고조	-5493
▁윤리	-5494
▁거점	-5495
▁KT	-5496
▁매니	-5497
▁연령	-5498
▁대승	-5499
▁관계자	-5500
▁베른	-5501
▁벼슬	-5502
▁살아남	-5503
▁얀	-5504
▁중립	-5505
▁기생	-5506
위대	-5507
▁유튜브	-5508
▁박스	-5509
▁일자	-5510
▁교향곡	-5511
▁선물	-5512
▁성씨	-5513
▁종전	-5514
▁한성	-5515
▁모자	-5516
▁죠	-5517
테스	-5518
▁Or	-5519
▁훌륭	-5520
▁풍속	-5521
사르	-5522
▁도메	-5523
▁유력	-5524
▁소재지	-5525
▁카리	-5526
▁마일	-5527
▁메르	-5528
▁141	-5529
▁codice	-5530
▁접속	-5531
▁pro	-5532
▁동경	-5533
▁오염	-5534
▁시정	-5535
▁모로	-5536
▁밀라노	-5537
▁고고	-5538
▁펼쳤	-5539
▁자유주의	-5540
▁약탈	-5541
▁롬	-5542
▁감옥	-5543
▁타입	-5544
▁휘하	-5545
공업	-5546
▁비틀	-5547
▁새끼	-5548
▁준우승	-5549
▁일곱	-5550
▁주자	-5551
▁다이묘	-5552
▁이어서	-5553
VP	-5554
▁어두	-5555
▁요원	-5556
▁마그	-5557
▁우드	-5558
▁봉기	-5559
▁아르메	-5560
▁배웠	-5561
▁지휘관	-5562
▁Su	-5563
▁뚜렷	-5564
▁거느	-5565
▁구리	-5566
▁임신	-5567
▁집필	-5568
▁맨체스터	-5569
▁동일본	-5570
ft	-5571
▁아비	-5572
안군	-5573
▁베토	-5574
▁패턴	-5575
▁수반	-5576
▁Is	-5577
▁대변	-5578
▁러브	-5579
▁삭제	-5580
▁자치구	-5581
▁르네	-5582
▁물려	-5583
▁제네	-5584
▁캠프	-5585
▁아르메니아	-5586
▁체험	-5587
▁칼리지	-5588
▁남극	-5589
▁명사	-5590
▁수직	-5591
▁목숨	-5592
▁테르	-5593
▁연호	-5594
▁장점	-5595
▁그러므로	-5596
야수	-5597
▁로즈	-5598
▁레지	-5599
▁오리지널	-5600
▁SM	-5601
▁비중	-5602
▁적어도	-5603
▁UN	-5604
▁ro	-5605
▁성서	-5606
▁코트	-5607
▁경찰서	-5608
▁히가시	-5609
▁펄	-5610
▁쯤	-5611
▁훼	-5612
▁후퇴	-5613
▁비즈	-5614
▁칙	-5615
▁SF	-5616
▁가끔	-5617
▁특허	-5618
▁교도	-5619
les	-5620
▁소설가	-5621
데르	-5622
▁단장	-5623
▁중계	-5624
▁교차로	-5625
▁폭풍	-5626
▁킬로미터	-5627
▁모노	-5628
▁토마스	-5629
▁압도	-5630
교육	-5631
▁영혼	-5632
라이터	-5633
▁제약	-5634
▁149	-5635
▁굽	-5636
▁대결	-5637
▁증권	-5638
아르	-5639
▁진동	-5640
▁07	-5641
▁틱	-5642
▁구미	-5643
도사	-5644
▁연상	-5645
베이스	-5646
▁플로리다	-5647
ED	-5648
▁크레	-5649
▁주류	-5650
▁극복	-5651
▁곰	-5652
▁건담	-5653
▁기병	-5654
▁똑같	-5655
▁하버	-5656
▁SC	-5657
▁초상	-5658
▁빨간	-5659
▁닮	-5660
are	-5661
▁원장	-5662
▁웨일스	-5663
▁성직자	-5664
▁역전	-5665
▁무늬	-5666
▁는다고	-5667
▁원조	-5668
▁의석	-5669
▁사신	-5670
애나	-5671
▁Sy	-5672
▁운동가	-5673
▁무너	-5674
▁지부	-5675
▁적응	-5676
▁지연	-5677
멘터리	-5678
▁1904	-5679
고속	-5680
old	-5681
▁베토벤	-5682
▁공국	-5683
▁성명	-5684
▁모터	-5685
프라	-5686
▁시게	-5687
▁유용	-5688
▁강전	-5689
▁경유	-5690
▁부유	-5691
▁저널	-5692
▁버지	-5693
▁수장	-5694
우치	-5695
▁색상	-5696
▁169	-5697
▁고교	-5698
▁도호	-5699
▁무릎	-5700
▁판타지	-5701
이즈	-5702
ium	-5703
▁06	-5704
▁평생	-5705
▁147	-5706
▁기관차	-5707
▁스트라이	-5708
▁베타	-5709
▁협약	-5710
▁화가	-5711
▁청동	-5712
ve	-5713
베리	-5714
프란	-5715
미아	-5716
▁빠지	-5717
▁지자	-5718
밀리	-5719
▁존슨	-5720
ton	-5721
PS	-5722
유키	-5723
▁HIV	-5724
▁딱	-5725
일본	-5726
▁커다란	-5727
▁미카	-5728
▁주거	-5729
▁복구	-5730
▁봉해졌	-5731
▁자이언츠	-5732
▁계수	-5733
▁예외	-5734
▁토너	-5735
▁북극	-5736
▁프레임	-5737
▁AM	-5738
▁Ed	-5739
▁도어	-5740
▁위안	-5741
▁드래곤	-5742
ps	-5743
▁발휘	-5744
▁좌파	-5745
▁타원	-5746
▁때로	-5747
▁사관	-5748
▁고안	-5749
▁리투아	-5750
▁리투아니아	-5751
▁납치	-5752
▁송라이터	-5753
▁압축	-5754
▁남서쪽	-5755
▁다큐멘터리	-5756
▁SN	-5757
▁규슈	-5758
▁장갑	-5759
▁홀로	-5760
▁일어난다	-5761
클린	-5762
▁교역	-5763
▁과도	-5764
▁1911	-5765
▁연계	-5766
▁해협	-5767
▁유고슬	-5768
▁인터페이스	-5769
▁유고슬라비아	-5770
럼비아	-5771
▁몬테	-5772
▁유역	-5773
▁항목	-5774
▁인천광역시	-5775
▁쓰러	-5776
슬리	-5777
▁선교사	-5778
▁125	-5779
▁램	-5780
▁결심	-5781
▁지중해	-5782
▁출산	-5783
▁돌아갔	-5784
▁김대중	-5785
▁표본	-5786
▁트레이	-5787
▁대한제국	-5788
▁김구	-5789
▁자책	-5790
▁음모	-5791
▁변신	-5792
▁"()	-5793
▁스케이	-5794
▁대조	-5795
▁사촌	-5796
▁삽입	-5797
▁페루	-5798
▁고르	-5799
▁공세	-5800
▁데려	-5801
추어	-5802
▁김해	-5803
▁직위	-5804
▁나서	-5805
▁입사	-5806
▁파울	-5807
▁비평가	-5808
▁낸다	-5809
▁서적	-5810
긴다	-5811
▁관리자	-5812
▁연소	-5813
▁험	-5814
▁비하	-5815
▁추대	-5816
▁케이블	-5817
az	-5818
gr	-5819
▁135	-5820
▁통로	-5821
나르	-5822
ult	-5823
▁105	-5824
▁커뮤니티	-5825
▁모래	-5826
▁데리	-5827
▁다녔	-5828
▁최상	-5829
▁삼각형	-5830
크래프트	-5831
나타	-5832
▁리치	-5833
▁매각	-5834
▁삼각	-5835
▁그럼에도	-5836
▁중구	-5837
▁공격수	-5838
▁어워드	-5839
IC	-5840
▁부탁	-5841
▁탐험	-5842
sp	-5843
▁토너먼트	-5844
▁우루	-5845
▁트럼	-5846
aw	-5847
▁BBC	-5848
▁남겨	-5849
▁생애	-5850
▁조화	-5851
▁각자	-5852
▁필름	-5853
▁리듬	-5854
▁동사	-5855
▁토르	-5856
▁173	-5857
▁인력	-5858
▁연평균	-5859
▁산악	-5860
▁서인	-5861
▁염색	-5862
▁중시	-5863
느님	-5864
▁상처	-5865
▁운반	-5866
▁드러나	-5867
▁남아메리카	-5868
▁기압	-5869
▁싫	-5870
▁하느님	-5871
▁정서	-5872
▁플레	-5873
▁헤드	-5874
au	-5875
▁주한	-5876
무게	-5877
▁조문	-5878
▁국민당	-5879
▁몸무게	-5880
▁El	-5881
▁파생	-5882
▁비전	-5883
▁포유	-5884
▁디즈니	-5885
멘트	-5886
▁칼리	-5887
▁경북	-5888
▁채권	-5889
▁상영	-5890
플레이	-5891
▁망원경	-5892
▁03	-5893
▁144	-5894
▁철저	-5895
▁1896	-5896
눅스	-5897
▁디오	-5898
▁왈	-5899
▁구마	-5900
ear	-5901
▁무산	-5902
▁유비	-5903
보이	-5904
▁목포	-5905
▁리눅스	-5906
▁내장	-5907
▁샤를	-5908
▁직선	-5909
▁트라이	-5910
▁02	-5911
▁불화	-5912
▁트럭	-5913
▁소니	-5914
▁와카	-5915
▁떼	-5916
▁옹호	-5917
▁그랜드	-5918
▁맞춰	-5919
▁사토	-5920
▁일행	-5921
▁건축물	-5922
▁엽	-5923
란다	-5924
▁출판사	-5925
▁사거리	-5926
▁예술가	-5927
대문	-5928
▁조명	-5929
▁요미	-5930
▁악장	-5931
▁태자	-5932
▁포크	-5933
▁대행	-5934
▁쇼군	-5935
▁크림	-5936
▁올린	-5937
▁침해	-5938
▁보좌	-5939
▁과장	-5940
▁아기	-5941
ame	-5942
▁우익	-5943
▁유닛	-5944
▁아이디어	-5945
▁과일	-5946
ous	-5947
▁유성	-5948
ix	-5949
▁광역	-5950
▁유입	-5951
▁이조	-5952
즈키	-5953
▁라마	-5954
▁모듈	-5955
▁문법	-5956
▁모시	-5957
▁간섭	-5958
▁고분	-5959
▁사당	-5960
사관	-5961
가타	-5962
▁사라지	-5963
▁토벌	-5964
▁목격	-5965
▁아과	-5966
▁블라디	-5967
▁금강	-5968
▁돼지	-5969
▁행해	-5970
▁그려져	-5971
▁1909	-5972
널드	-5973
▁모니	-5974
▁종족	-5975
▁폐기	-5976
▁정류장	-5977
운서	-5978
▁노비	-5979
▁버지니아	-5980
키스	-5981
▁이날	-5982
▁전향	-5983
▁하와이	-5984
양군	-5985
▁탑승	-5986
▁수지	-5987
▁아나운서	-5988
▁프로세서	-5989
▁랭킹	-5990
▁아울	-5991
무네	-5992
▁합계	-5993
▁릭	-5994
마이	-5995
▁쇠퇴	-5996
▁적색	-5997
카스	-5998
▁체인	-5999
▁렉	-6000
▁실점	-6001
▁역과	-6002
▁스마트폰	-6003
▁옮기	-6004
▁교과	-6005
▁출현	-6006
▁이종	-6007
▁가해	-6008
▁이토	-6009
▁증기	-6010
▁103	-6011
▁틸	-6012
▁외계	-6013
▁운명	-6014
▁왕립	-6015
▁안드로이드	-6016
▁미나미	-6017
▁넬	-6018
스팅	-6019
▁글씨	-6020
▁단선	-6021
▁시에	-6022
▁창간	-6023
▁아마추어	-6024
▁들어서	-6025
▁제주도	-6026
▁단행	-6027
▁퍼시	-6028
▁It	-6029
▁무인	-6030
▁박근	-6031
▁투구	-6032
▁디자이너	-6033
라트	-6034
▁플루	-6035
영상	-6036
▁왕가	-6037
▁출구	-6038
▁토머스	-6039
ep	-6040
▁설비	-6041
▁원로	-6042
▁유인	-6043
▁유가	-6044
▁종로	-6045
▁산타	-6046
▁여인	-6047
▁입증	-6048
▁넘겨	-6049
오리	-6050
▁단종	-6051
▁마카	-6052
▁수감	-6053
슬로	-6054
▁추락	-6055
▁전승	-6056
▁이루어진다	-6057
▁황태	-6058
다니	-6059
ome	-6060
▁고서	-6061
▁쓴다	-6062
▁루트비히	-6063
▁야생	-6064
▁무선	-6065
▁문인	-6066
▁하천	-6067
▁도심	-6068
▁복제	-6069
▁좌상	-6070
▁호조	-6071
▁수명	-6072
▁연주자	-6073
▁색깔	-6074
▁세워진	-6075
▁에스파	-6076
▁샌프란	-6077
▁샌프란시스코	-6078
▁DS	-6079
▁낼	-6080
▁사료	-6081
▁스릴	-6082
▁Gre	-6083
▁자회사	-6084
부사	-6085
몬드	-6086
▁기타리스트	-6087
▁시상식	-6088
▁링크	-6089
ET	-6090
▁슐	-6091
행성	-6092
▁최우수	-6093
▁선제	-6094
지마	-6095
▁기갑	-6096
▁농도	-6097
▁들여	-6098
▁지름	-6099
▁진지	-6100
▁가미	-6101
▁진도	-6102
▁All	-6103
▁패러	-6104
▁1913	-6105
▁사우루스	-6106
▁별로	-6107
▁대안	-6108
▁진흥	-6109
▁기하학	-6110
▁배상	-6111
▁띤	-6112
ism	-6113
▁시아	-6114
▁해설	-6115
▁민속	-6116
▁아무런	-6117
▁육성	-6118
▁데이터베이스	-6119
▁마스	-6120
▁쿠스	-6121
런트	-6122
▁봉사	-6123
▁안보	-6124
▁되찾	-6125
▁무신	-6126
▁수천	-6127
▁알렉산더	-6128
▁자문	-6129
길이	-6130
▁관중	-6131
▁흥미	-6132
▁수상자	-6133
IT	-6134
OC	-6135
▁영광	-6136
▁앨런	-6137
▁바오	-6138
▁칭하	-6139
▁문화유산	-6140
orn	-6141
ool	-6142
▁기차	-6143
▁꾸준히	-6144
ric	-6145
▁''	-6146
▁윤치	-6147
▁흙	-6148
▁셋째	-6149
▁주사	-6150
▁지자체	-6151
▁뚫	-6152
▁거둔	-6153
▁커피	-6154
▁레이스	-6155
eth	-6156
▁배제	-6157
▁스승	-6158
하르트	-6159
▁템	-6160
▁관하	-6161
▁기름	-6162
▁148	-6163
▁자치체	-6164
▁주파	-6165
▁해진	-6166
▁토니	-6167
▁중국어	-6168
AP	-6169
▁AS	-6170
▁모집	-6171
▁묘지	-6172
▁시집	-6173
▁재무	-6174
엘라	-6175
▁급속	-6176
▁콩고	-6177
▁143	-6178
▁PS	-6179
▁아세	-6180
▁초래	-6181
▁용기	-6182
▁할리	-6183
▁138	-6184
▁빅토리아	-6185
▁명문	-6186
▁럭	-6187
▁연금	-6188
▁로맨스	-6189
ke	-6190
▁1915	-6191
▁가쓰	-6192
rist	-6193
▁이어져	-6194
▁스펙트	-6195
산물	-6196
▁가르치	-6197
▁엄마	-6198
▁걷	-6199
▁겨우	-6200
▁딴	-6201
로운	-6202
▁동아시아	-6203
▁가톨릭교회	-6204
▁136	-6205
▁142	-6206
▁Ge	-6207
▁무관	-6208
▁스페셜	-6209
▁늘어나	-6210
▁민족주의	-6211
▁번주	-6212
▁정자	-6213
나카	-6214
▁or	-6215
▁몸길이	-6216
▁구장	-6217
▁스펙트럼	-6218
▁오케스트라	-6219
▁여서	-6220
▁아크	-6221
▁미분	-6222
▁주의자	-6223
▁노무	-6224
▁PD	-6225
란트	-6226
▁다양체	-6227
ign	-6228
ina	-6229
▁서브	-6230
▁직장	-6231
▁부동산	-6232
▁자전거	-6233
▁호르	-6234
▁일으킨	-6235
주곡	-6236
총장	-6237
▁반환	-6238
▁향토	-6239
도니아	-6240
▁마쳤	-6241
▁미얀	-6242
▁칩	-6243
▁여동생	-6244
▁연고지	-6245
▁그쳤	-6246
▁머물렀	-6247
▁무슬	-6248
▁향년	-6249
ale	-6250
▁밀접	-6251
▁동영상	-6252
▁128	-6253
▁기종	-6254
▁전염	-6255
▁상하이	-6256
타카	-6257
▁Mus	-6258
▁룩	-6259
▁IP	-6260
▁바이올린	-6261
▁127	-6262
▁지휘자	-6263
▁미네	-6264
▁수수	-6265
▁줬	-6266
▁쿠르	-6267
▁개발자	-6268
▁곧바로	-6269
▁오디션	-6270
▁게시	-6271
▁유신	-6272
ala	-6273
▁스릴러	-6274
슬라	-6275
▁무슬림	-6276
▁디비	-6277
▁예능	-6278
▁900	-6279
▁거친	-6280
▁스틸	-6281
▁내륙	-6282
▁안양	-6283
데이트	-6284
▁전해진다	-6285
타운	-6286
▁박근혜	-6287
▁비단	-6288
▁주말	-6289
▁타마	-6290
다른	-6291
▁스와	-6292
▁네이션	-6293
▁업데이트	-6294
▁1895	-6295
ron	-6296
▁걸려	-6297
▁심하	-6298
▁펼치	-6299
페이지	-6300
▁무라	-6301
▁좌익	-6302
▁융합	-6303
▁콜롬비아	-6304
▁정사	-6305
▁서북	-6306
즈카	-6307
▁DJ	-6308
▁아가	-6309
▁기점	-6310
▁협의	-6311
리케이션	-6312
▁나미	-6313
▁완화	-6314
▁북동부	-6315
▁여신	-6316
▁NHK	-6317
▁넨	-6318
yl	-6319
▁고립	-6320
▁분지	-6321
▁신임	-6322
▁자사	-6323
▁호남	-6324
▁비즈니스	-6325
▁MC	-6326
▁기재	-6327
▁사로	-6328
▁압박	-6329
▁정교	-6330
▁버그	-6331
▁부패	-6332
▁신비	-6333
▁도메인	-6334
악기	-6335
▁품질	-6336
▁102	-6337
▁구동	-6338
▁기용	-6339
▁점성	-6340
▁붙잡	-6341
트랙	-6342
▁나폴리	-6343
▁옛날	-6344
▁홈페이지	-6345
ose	-6346
▁권고	-6347
▁긴급	-6348
▁의병	-6349
▁엘리자베스	-6350
▁사이클	-6351
▁WW	-6352
▁렌즈	-6353
▁걸리	-6354
▁분배	-6355
▁입문	-6356
▁말라	-6357
▁찌	-6358
시온	-6359
▁문재	-6360
▁랴	-6361
▁가하	-6362
▁임상	-6363
▁당사자	-6364
▁협의회	-6365
▁가게	-6366
▁동치	-6367
▁특급	-6368
▁프랜	-6369
세스	-6370
▁평소	-6371
▁노조	-6372
루살	-6373
▁개수	-6374
▁바흐	-6375
▁세균	-6376
ree	-6377
▁문하	-6378
▁시달	-6379
▁원산	-6380
▁좌석	-6381
루살렘	-6382
▁두드	-6383
▁제후	-6384
▁드러내	-6385
▁뿔	-6386
때로	-6387
int	-6388
▁알바니아	-6389
▁관장	-6390
▁갤럭	-6391
▁라이온	-6392
▁왕족	-6393
▁라이벌	-6394
▁모순	-6395
▁번식	-6396
▁마라	-6397
▁선진	-6398
▁희극	-6399
▁얼음	-6400
▁굿	-6401
▁우르	-6402
▁조선인	-6403
yn	-6404
▁장편	-6405
▁사직	-6406
▁폭스	-6407
▁카페	-6408
▁합작	-6409
▁후자	-6410
▁자바	-6411
▁교전	-6412
▁주어진	-6413
레드	-6414
▁Fran	-6415
어트	-6416
iel	-6417
▁스트리트	-6418
가스	-6419
▁살펴	-6420
▁오타	-6421
▁기아	-6422
▁콘스탄티노	-6423
▁MP	-6424
▁ex	-6425
▁호환	-6426
▁나타난	-6427
▁때때로	-6428
▁And	-6429
▁회원국	-6430
▁계단	-6431
▁발효	-6432
▁상소	-6433
▁할당	-6434
▁행정부	-6435
▁방안	-6436
▁문과	-6437
▁갤럭시	-6438
▁센트럴	-6439
TC	-6440
회의	-6441
▁사르	-6442
▁브라이언	-6443
▁장사	-6444
▁선보였	-6445
▁조류	-6446
▁기념물	-6447
▁요미우리	-6448
▁댐	-6449
▁예언	-6450
▁이오	-6451
랑이	-6452
▁좋아하	-6453
▁시내버스	-6454
▁드림	-6455
▁사면	-6456
브스	-6457
로프	-6458
문학	-6459
▁간접	-6460
▁알라	-6461
▁강수량	-6462
▁스케이팅	-6463
▁alpha	-6464
▁에릭	-6465
▁정계	-6466
ley	-6467
▁108	-6468
▁과제	-6469
▁용량	-6470
▁부수	-6471
▁아도	-6472
로디	-6473
▁교섭	-6474
AD	-6475
들리	-6476
▁현종	-6477
▁두려워	-6478
▁스테이지	-6479
▁팅	-6480
▁상임	-6481
▁자마	-6482
▁부리	-6483
▁부시	-6484
▁신하	-6485
▁퍼져	-6486
폴리스	-6487
▁예루살렘	-6488
▁차관	-6489
스티벌	-6490
▁페스티벌	-6491
▁대령	-6492
▁도리	-6493
▁선두	-6494
▁한나라	-6495
으므로	-6496
▁사라졌	-6497
▁한나라당	-6498
▁1916	-6499
▁인자	-6500
▁충성	-6501
▁On	-6502
▁저택	-6503
▁매개	-6504
▁환상	-6505
▁플라스	-6506
▁137	-6507
▁벨라루스	-6508
▁가득	-6509
▁이리	-6510
▁벌어지	-6511
▁후쿠시마	-6512
▁연구자	-6513
▁일요일	-6514
▁체육관	-6515
▁대교	-6516
▁지주	-6517
▁나열	-6518
▁야기	-6519
▁CH	-6520
▁편곡	-6521
▁카자흐	-6522
랑크	-6523
▁훼손	-6524
▁호평	-6525
껍질	-6526
▁지각	-6527
▁십자군	-6528
▁1500	-6529
▁봐	-6530
Hz	-6531
▁뷔	-6532
▁만난	-6533
▁우지	-6534
▁최신	-6535
▁투명	-6536
▁히스	-6537
▁DC	-6538
▁변동	-6539
▁상류	-6540
▁형법	-6541
▁푸른	-6542
▁알렸	-6543
▁싸웠	-6544
▁에스토	-6545
어리	-6546
▁거슬러	-6547
▁들어간	-6548
lo	-6549
마치	-6550
▁급행	-6551
▁신용	-6552
▁착륙	-6553
▁식사	-6554
리티	-6555
oph	-6556
▁니아	-6557
▁대답	-6558
▁사사	-6559
▁마케도니아	-6560
▁서일본	-6561
▁샹	-6562
▁식별	-6563
▁학파	-6564
▁동전	-6565
식물	-6566
▁상상	-6567
▁친정	-6568
▁파동	-6569
트롤	-6570
▁월간	-6571
OM	-6572
▁빨리	-6573
▁자면	-6574
▁마케팅	-6575
▁관습	-6576
▁기단	-6577
▁관광객	-6578
▁충족	-6579
▁벌어졌	-6580
▁판매량	-6581
다는	-6582
▁지지자	-6583
아리	-6584
▁예배	-6585
다이라	-6586
▁아베	-6587
▁111	-6588
▁애플리케이션	-6589
▁중독	-6590
▁부통령	-6591
▁참가자	-6592
▁잊	-6593
▁맥스	-6594
▁선사	-6595
▁에스토니아	-6596
ance	-6597
▁던지	-6598
▁차체	-6599
▁공용	-6600
▁와중	-6601
▁수면	-6602
▁미스터	-6603
아지	-6604
ork	-6605
▁받침	-6606
▁피렌	-6607
▁의거	-6608
▁취약	-6609
▁됐으며	-6610
▁스피드	-6611
결승	-6612
▁백신	-6613
▁사명	-6614
▁하드웨어	-6615
▁묘소	-6616
▁명종	-6617
▁내내	-6618
ert	-6619
▁대단	-6620
▁트레	-6621
▁파나	-6622
▁MVP	-6623
▁얼마나	-6624
레이터	-6625
▁가질	-6626
▁해임	-6627
▁이에	-6628
나와	-6629
▁오다	-6630
▁응답	-6631
▁하트	-6632
▁굉	-6633
▁신전	-6634
▁이지	-6635
▁존경	-6636
▁조용	-6637
▁주립	-6638
▁친선	-6639
▁트윈	-6640
▁득표율	-6641
▁환원	-6642
▁아즈	-6643
▁위주	-6644
▁곁	-6645
▁니스	-6646
▁피스	-6647
▁한화	-6648
▁컬럼비아	-6649
모니	-6650
▁붓	-6651
ise	-6652
▁바그	-6653
▁힌두	-6654
▁수학자	-6655
oth	-6656
▁크리스토	-6657
▁서독	-6658
▁연애	-6659
ild	-6660
▁다룬	-6661
▁다이아	-6662
▁련	-6663
▁피렌체	-6664
▁5000	-6665
▁부흥	-6666
▁심한	-6667
▁점유	-6668
동물	-6669
잡이	-6670
▁뛰어나	-6671
▁자손	-6672
▁낱	-6673
▁상무	-6674
▁중도	-6675
▁아틀레	-6676
▁University	-6677
커스	-6678
▁측근	-6679
▁이슬람교	-6680
▁메가	-6681
▁저기	-6682
▁귀환	-6683
▁붙이	-6684
▁미얀마	-6685
▁깔	-6686
▁실용	-6687
▁Intern	-6688
▁분교	-6689
▁일렉	-6690
▁젖	-6691
가루	-6692
▁급진	-6693
▁도르	-6694
▁로빈	-6695
▁무효	-6696
▁용산	-6697
▁조국	-6698
▁노동조합	-6699
▁상부	-6700
▁소금	-6701
▁le	-6702
▁시체	-6703
ai	-6704
▁루수	-6705
▁적대	-6706
▁119	-6707
▁고원	-6708
▁래퍼	-6709
▁리얼	-6710
▁별개	-6711
▁책봉	-6712
▁통칭	-6713
▁시외	-6714
경기	-6715
우옌	-6716
▁전임	-6717
▁고사	-6718
▁학명	-6719
▁혜성	-6720
▁쥬	-6721
▁동남아시아	-6722
수수	-6723
▁중점	-6724
▁한양	-6725
디스	-6726
▁세례	-6727
▁자율	-6728
▁전이	-6729
▁주행	-6730
▁항일	-6731
▁아울러	-6732
▁발족	-6733
▁우즈	-6734
토미	-6735
own	-6736
▁회수	-6737
▁룬	-6738
트니	-6739
▁서울시	-6740
Pa	-6741
카르	-6742
▁목조	-6743
▁석탄	-6744
▁일관	-6745
▁SP	-6746
▁시라	-6747
▁아케	-6748
▁포맷	-6749
▁피난	-6750
▁검증	-6751
스부르크	-6752
enn	-6753
▁감지	-6754
▁소송법	-6755
▁믿음	-6756
▁서열	-6757
▁착수	-6758
▁푼	-6759
▁뱅크	-6760
▁Comp	-6761
▁스쿨	-6762
▁아이디	-6763
▁인과	-6764
▁CE	-6765
▁생일	-6766
▁여덟	-6767
▁하노	-6768
▁캠페인	-6769
페이	-6770
▁브라우	-6771
▁끼리	-6772
▁비아	-6773
▁사가	-6774
▁정벌	-6775
▁산림	-6776
▁악마	-6777
▁흥행	-6778
▁로고	-6779
▁팽창	-6780
▁리메	-6781
▁보드	-6782
▁빌헬	-6783
▁와인	-6784
▁권유	-6785
▁진상	-6786
▁아마도	-6787
▁프로세스	-6788
▁메디	-6789
▁메타	-6790
▁사다	-6791
▁외무	-6792
▁얇	-6793
▁배정	-6794
▁떨어졌	-6795
▁흩	-6796
전자	-6797
▁121	-6798
▁비잔	-6799
▁근로자	-6800
▁아리스	-6801
균관	-6802
▁전지	-6803
조선	-6804
▁창업	-6805
스케	-6806
▁참판	-6807
▁카시	-6808
▁드럼	-6809
▁부자	-6810
ons	-6811
▁통행	-6812
▁공전	-6813
▁김동	-6814
▁사범	-6815
▁지분	-6816
▁우주선	-6817
▁강사	-6818
▁전류	-6819
▁마오	-6820
▁사바	-6821
▁친척	-6822
▁그랑	-6823
▁애국	-6824
ox	-6825
▁발현	-6826
일드	-6827
▁성벽	-6828
▁관념	-6829
▁규격	-6830
▁요크	-6831
▁최적	-6832
▁강연	-6833
▁버튼	-6834
▁제의	-6835
루미	-6836
stem	-6837
▁비틀즈	-6838
▁겔	-6839
보살	-6840
자와	-6841
부인	-6842
▁조언	-6843
▁장인	-6844
▁하이드	-6845
▁옌	-6846
카드	-6847
▁보전	-6848
▁제휴	-6849
▁연수	-6850
▁전진	-6851
▁112	-6852
▁독립운동가	-6853
외선	-6854
▁하마	-6855
▁비극	-6856
▁비로	-6857
▁성공회	-6858
▁하버드	-6859
▁루터	-6860
▁공과	-6861
▁따위	-6862
▁우정	-6863
▁포장	-6864
▁짙	-6865
che	-6866
▁가라	-6867
▁수신	-6868
▁쏟	-6869
▁쇼핑	-6870
▁꼴	-6871
▁거인	-6872
▁스콧	-6873
▁바티	-6874
▁IT	-6875
▁몰락	-6876
▁자책점	-6877
킨스	-6878
▁국어	-6879
▁두드러	-6880
IM	-6881
▁동등	-6882
▁전장	-6883
▁긴장	-6884
▁노드	-6885
▁매사	-6886
▁부착	-6887
▁소지	-6888
▁보충	-6889
수아	-6890
pp	-6891
산군	-6892
▁달아	-6893
▁찾아가	-6894
▁해인	-6895
▁주머니	-6896
서양	-6897
▁초연	-6898
▁약한	-6899
▁No	-6900
▁관찰사	-6901
▁제작자	-6902
러미	-6903
▁오렌	-6904
▁히라	-6905
▁마친	-6906
▁발트	-6907
▁법령	-6908
▁z	-6909
▁샬	-6910
▁구제	-6911
▁테오	-6912
ake	-6913
▁경선	-6914
▁떠난	-6915
▁마운	-6916
▁좌표	-6917
▁응우옌	-6918
▁성전	-6919
▁쇄	-6920
▁전두	-6921
▁짜리	-6922
▁3000	-6923
▁하우	-6924
▁물러나	-6925
▁리오	-6926
▁배틀	-6927
▁노무현	-6928
▁연루	-6929
▁텍스트	-6930
▁담배	-6931
▁주권	-6932
▁평행	-6933
▁들어와	-6934
▁아미노	-6935
▁천문학	-6936
oci	-6937
▁준공	-6938
▁원나라	-6939
▁어항	-6940
▁기상청	-6941
▁빌헬름	-6942
▁턱	-6943
▁김용	-6944
▁스파이	-6945
▁성균관	-6946
▁이명박	-6947
▁규명	-6948
받침	-6949
out	-6950
▁개업	-6951
▁북서부	-6952
메르	-6953
▁베이스볼	-6954
▁Ab	-6955
▁없애	-6956
▁서경	-6957
▁합법	-6958
▁컨트롤	-6959
▁위장	-6960
▁이복	-6961
▁엔지	-6962
▁어드	-6963
▁어릴	-6964
▁점프	-6965
▁시드니	-6966
츠키	-6967
iam	-6968
▁금성	-6969
▁회계	-6970
▁저기압	-6971
▁주파수	-6972
▁마산	-6973
▁여진	-6974
▁행진	-6975
▁아군	-6976
▁퇴각	-6977
▁공인	-6978
▁나리	-6979
▁게재	-6980
▁두산	-6981
▁디비전	-6982
▁휩	-6983
▁아바	-6984
▁1894	-6985
▁겸임	-6986
▁미하	-6987
▁허브	-6988
▁클린	-6989
▁로프	-6990
▁서서	-6991
▁식당	-6992
혁명	-6993
▁배구	-6994
▁소총	-6995
▁연인	-6996
▁우편	-6997
▁"("	-6998
▁게이트	-6999
▁알코	-7000
▁못해	-7001
문관	-7002
▁중재	-7003
네이	-7004
▁디젤	-7005
▁어두운	-7006
▁자고	-7007
▁정찰	-7008
▁남인	-7009
▁사물	-7010
▁123	-7011
▁마찰	-7012
▁이슈	-7013
▁115	-7014
▁내지	-7015
▁인텔	-7016
▁이노	-7017
▁곳곳	-7018
▁법무	-7019
▁사로잡	-7020
▁Cent	-7021
▁셈	-7022
▁파스	-7023
▁건축가	-7024
▁테일러	-7025
▁복소	-7026
▁금액	-7027
▁전도	-7028
II	-7029
▁봤	-7030
▁유해	-7031
▁패전	-7032
▁미쳤	-7033
▁손가락	-7034
ii	-7035
▁윌슨	-7036
▁준결승	-7037
▁계절	-7038
▁고무	-7039
▁근접	-7040
▁박영	-7041
▁하부	-7042
▁사용자	-7043
▁중장	-7044
▁단원	-7045
▁트위	-7046
▁아우구	-7047
▁실종	-7048
▁레이다	-7049
▁닿	-7050
▁피에르	-7051
▁크리스마스	-7052
▁술탄	-7053
▁증후	-7054
▁지목	-7055
▁106	-7056
▁신칸	-7057
▁마리오	-7058
▁한강	-7059
▁한데	-7060
▁$	-7061
▁콰	-7062
델피아	-7063
▁필라델피아	-7064
▁각기	-7065
▁제트	-7066
▁상자	-7067
▁오클	-7068
▁휠	-7069
oll	-7070
▁관현	-7071
▁센서	-7072
▁키프	-7073
▁갓	-7074
▁굵	-7075
리크	-7076
▁눈물	-7077
▁117	-7078
▁마쓰다이라	-7079
▁생명체	-7080
▁전문학교	-7081
ius	-7082
▁유출	-7083
▁크리스티	-7084
▁챌	-7085
▁특유	-7086
▁회화	-7087
itt	-7088
▁과목	-7089
▁스페인어	-7090
▁격렬	-7091
▁승차	-7092
▁Bla	-7093
▁오디오	-7094
▁CC	-7095
▁옐	-7096
▁Go	-7097
▁청와	-7098
▁후일	-7099
▁포수	-7100
▁협동	-7101
▁문제점	-7102
▁유소년	-7103
▁중국인	-7104
예프	-7105
수엘라	-7106
▁Will	-7107
▁모으	-7108
▁인산	-7109
▁제곱	-7110
▁승무원	-7111
▁에이스	-7112
어져	-7113
▁104	-7114
▁폴리스	-7115
▁매력	-7116
▁직책	-7117
▁향한	-7118
▁각본가	-7119
▁남양	-7120
▁호칭	-7121
▁자발	-7122
▁컸	-7123
▁카타	-7124
▁청와대	-7125
▁궁정	-7126
▁외곽	-7127
▁친왕	-7128
▁가르침	-7129
▁고가	-7130
▁착공	-7131
▁천사	-7132
▁토리	-7133
▁보스니아	-7134
▁뢰	-7135
▁민국	-7136
▁민영	-7137
▁섭취	-7138
▁청사	-7139
▁히데요시	-7140
상스	-7141
▁야간	-7142
▁차남	-7143
▁카탈	-7144
▁회견	-7145
▁난민	-7146
▁다운로드	-7147
▁베네수엘라	-7148
▁카트	-7149
▁박탈	-7150
▁반경	-7151
▁수평	-7152
▁순조	-7153
▁영장	-7154
▁상대방	-7155
▁증후군	-7156
소스	-7157
▁속성	-7158
▁골프	-7159
▁애틀	-7160
▁113	-7161
▁고베	-7162
▁시립	-7163
▁드라이브	-7164
▁동년	-7165
▁반격	-7166
▁For	-7167
▁최소한	-7168
집합	-7169
▁신칸센	-7170
▁유언	-7171
▁추격	-7172
▁118	-7173
▁단기	-7174
▁포괄	-7175
▁언론인	-7176
▁채무	-7177
▁인형	-7178
▁취재	-7179
▁해전	-7180
ics	-7181
▁밭	-7182
▁정밀	-7183
▁돌연	-7184
▁기금	-7185
▁마비	-7186
▁품종	-7187
▁이순	-7188
▁저명	-7189
▁즐기	-7190
▁퍼시픽	-7191
▁1890	-7192
▁고체	-7193
그라드	-7194
▁소닉	-7195
▁수산	-7196
▁팔레스	-7197
▁리메이크	-7198
▁펴	-7199
▁옥스	-7200
EN	-7201
▁유격	-7202
▁화살	-7203
▁노란색	-7204
▁삿	-7205
▁hPa	-7206
▁연도	-7207
▁엔지니어	-7208
enc	-7209
▁수동	-7210
구장	-7211
▁해역	-7212
▁최저	-7213
▁향후	-7214
대군	-7215
▁교장	-7216
▁추모	-7217
▁대주교	-7218
▁물러났	-7219
▁토요일	-7220
▁등재	-7221
▁총괄	-7222
▁부르크	-7223
▁시청자	-7224
팩트	-7225
▁공략	-7226
▁장성	-7227
▁치세	-7228
제프	-7229
플러	-7230
▁룰	-7231
▁청장	-7232
▁콜라	-7233
▁나가사키	-7234
ML	-7235
▁선원	-7236
▁이영	-7237
▁튀르	-7238
▁자마자	-7239
▁출입구	-7240
▁날짜	-7241
▁부과	-7242
▁이글	-7243
▁인격	-7244
▁정점	-7245
▁126	-7246
기니	-7247
▁가즈	-7248
▁광년	-7249
▁디스플레이	-7250
어지	-7251
▁sp	-7252
▁서서히	-7253
▁스타크래프트	-7254
▁진리	-7255
▁패스	-7256
▁레이저	-7257
▁슬라	-7258
▁시즈	-7259
▁여의	-7260
▁전례	-7261
▁피고	-7262
▁이원	-7263
▁기다리	-7264
▁대위	-7265
▁사리	-7266
▁일족	-7267
▁별자리	-7268
▁1902	-7269
▁번뇌	-7270
▁헐	-7271
▁사슬	-7272
▁석조	-7273
▁탐지	-7274
▁Ser	-7275
▁광해군	-7276
▁일찍이	-7277
▁진나라	-7278
▁출처	-7279
▁통근	-7280
▁얘	-7281
▁끌어	-7282
▁미주	-7283
▁프로토콜	-7284
▁프랭크	-7285
▁상장	-7286
▁오렌지	-7287
우라	-7288
▁명목	-7289
▁가져왔	-7290
row	-7291
▁교단	-7292
▁보잉	-7293
▁슬로바키아	-7294
서리	-7295
▁사절	-7296
▁태생	-7297
▁페어	-7298
▁숭배	-7299
▁이사장	-7300
▁꾀	-7301
▁브래	-7302
ene	-7303
▁부도	-7304
▁부재	-7305
▁자유당	-7306
▁르네상스	-7307
▁물자	-7308
▁유교	-7309
▁하얀	-7310
▁이민자	-7311
▁끊임	-7312
▁109	-7313
▁보통학교	-7314
올리	-7315
▁앞면	-7316
▁애틀랜	-7317
▁지나치	-7318
▁이인	-7319
마사	-7320
▁차기	-7321
자스	-7322
▁133	-7323
▁이이	-7324
▁오키나와	-7325
▁매출	-7326
AL	-7327
▁개찰구	-7328
▁팔레스타인	-7329
모어	-7330
▁상세	-7331
석기	-7332
▁간호	-7333
▁안장	-7334
▁챌린	-7335
▁홍수	-7336
▁버려	-7337
▁슈트	-7338
▁양상	-7339
▁캄보	-7340
▁존중	-7341
▁한동안	-7342
▁원하	-7343
▁주차	-7344
시티	-7345
▁남긴	-7346
▁서해	-7347
▁단점	-7348
▁여수	-7349
▁지장	-7350
▁1898	-7351
▁Christ	-7352
의자	-7353
창기	-7354
▁360	-7355
▁별칭	-7356
▁병역	-7357
▁신규	-7358
▁가르쳤	-7359
▁딩	-7360
▁달린	-7361
▁무려	-7362
▁갑작	-7363
▁기수	-7364
▁CPU	-7365
▁1901	-7366
▁성모	-7367
▁촉구	-7368
네스코	-7369
▁아사히	-7370
▁이틀	-7371
▁블루스	-7372
▁후지와	-7373
▁NG	-7374
▁따뜻	-7375
▁세션	-7376
▁입체	-7377
▁마인	-7378
▁버린	-7379
▁주지사	-7380
▁사우디아	-7381
▁튼	-7382
노부	-7383
▁Bar	-7384
▁수용체	-7385
▁나고	-7386
▁수성	-7387
▁첨가	-7388
행위	-7389
▁공자	-7390
베이터	-7391
악단	-7392
퍼니	-7393
원숭이	-7394
▁항공모	-7395
▁ar	-7396
▁역명	-7397
▁투르	-7398
▁일자리	-7399
▁하인리히	-7400
▁닭	-7401
▁낙선	-7402
▁스핀	-7403
▁카나	-7404
▁쿤	-7405
▁다중	-7406
▁머신	-7407
▁주축	-7408
▁건너가	-7409
▁셸	-7410
라이트	-7411
▁서사	-7412
▁어업	-7413
▁호프	-7414
▁남한	-7415
▁자민	-7416
▁III	-7417
▁암석	-7418
▁소실	-7419
▁쇼트	-7420
▁컬러	-7421
▁방침	-7422
▁캐스팅	-7423
▁볼리	-7424
▁Ac	-7425
▁Op	-7426
▁정말	-7427
▁해운	-7428
▁사이버	-7429
TA	-7430
▁트루	-7431
▁포도주	-7432
▁||	-7433
칠리아	-7434
▁창시	-7435
ward	-7436
▁아이템	-7437
▁트럼프	-7438
다드	-7439
▁둥근	-7440
▁명의	-7441
▁조리	-7442
▁네이버	-7443
▁건의	-7444
▁굉장	-7445
▁제네바	-7446
▁동력	-7447
▁신세	-7448
ife	-7449
▁관통	-7450
▁세미	-7451
▁줄여서	-7452
▁밀양	-7453
▁불명	-7454
▁유연	-7455
▁공직	-7456
▁추증	-7457
고속도로	-7458
화점	-7459
▁적자	-7460
ition	-7461
▁객관	-7462
▁죽였	-7463
▁진군	-7464
▁둘러싼	-7465
티움	-7466
▁황해	-7467
▁정치가	-7468
MS	-7469
▁장난	-7470
▁타르	-7471
▁Qu	-7472
▁교양	-7473
▁스터	-7474
▁북구	-7475
▁에디	-7476
▁여겼	-7477
▁전대	-7478
▁팜	-7479
라리	-7480
▁EC	-7481
▁리어	-7482
▁케네	-7483
▁상당수	-7484
▁문양	-7485
▁중순	-7486
▁an	-7487
▁시공	-7488
▁발해	-7489
▁나고야	-7490
▁외국어	-7491
▁원고	-7492
▁음원	-7493
▁조르	-7494
▁일어날	-7495
▁TO	-7496
토시	-7497
키지	-7498
▁132	-7499
▁유니폼	-7500
▁경보	-7501
▁허리	-7502
게이머	-7503
▁프로게이머	-7504
▁사우디아라비아	-7505
산면	-7506
▁윌리엄스	-7507
▁유네스코	-7508
▁자랐	-7509
▁124	-7510
▁초창기	-7511
▁동독	-7512
▁대역	-7513
▁앙리	-7514
▁마츠	-7515
▁TH	-7516
▁고발	-7517
▁김재	-7518
▁모스	-7519
▁성주	-7520
▁재미	-7521
▁조달	-7522
▁평일	-7523
▁프레스	-7524
노리	-7525
▁원자로	-7526
▁동위	-7527
▁며칠	-7528
▁영리	-7529
▁이바	-7530
▁122	-7531
▁협주곡	-7532
▁당일	-7533
▁생식	-7534
▁107	-7535
▁명백	-7536
▁요르	-7537
크리트	-7538
▁걱	-7539
노프	-7540
리즘	-7541
태우	-7542
hel	-7543
▁수군	-7544
▁Ste	-7545
▁카자흐스탄	-7546
▁AR	-7547
▁레바	-7548
▁무죄	-7549
▁발원	-7550
라이더	-7551
▁책임자	-7552
▁천문학자	-7553
트릭	-7554
▁통증	-7555
▁전함	-7556
▁공민	-7557
▁마약	-7558
▁미소	-7559
▁김영삼	-7560
▁고래	-7561
▁난다	-7562
▁누군	-7563
▁루프	-7564
▁성별	-7565
박스	-7566
생활	-7567
lay	-7568
▁멈추	-7569
▁도호쿠	-7570
▁전한다	-7571
▁우울	-7572
▁1903	-7573
▁대처	-7574
▁보완	-7575
▁1899	-7576
▁항공모함	-7577
▁수렴	-7578
▁탈환	-7579
라미	-7580
▁연패	-7581
▁부채	-7582
▁전두환	-7583
▁캄보디아	-7584
▁북위	-7585
▁비문	-7586
▁신속	-7587
▁함유	-7588
▁129	-7589
eta	-7590
▁교외	-7591
▁언더	-7592
▁좌절	-7593
▁집계	-7594
▁배터리	-7595
▁선구	-7596
▁심의	-7597
▁미토	-7598
▁패하	-7599
▁평야	-7600
▁이어받	-7601
▁강경	-7602
▁경부	-7603
▁도왔	-7604
▁시나리오	-7605
▁이어진다	-7606
▁엘리베이터	-7607
▁평범	-7608
▁누적	-7609
▁레전	-7610
▁복장	-7611
▁섭정	-7612
▁안티	-7613
▁상담	-7614
▁ISO	-7615
▁테니스	-7616
산리	-7617
▁토마	-7618
▁옴	-7619
어진	-7620
▁추상	-7621
▁가벼	-7622
ology	-7623
▁테스	-7624
차례	-7625
▁바퀴	-7626
▁소통	-7627
▁시오	-7628
붙이	-7629
▁종결	-7630
▁극장판	-7631
▁대외	-7632
▁번영	-7633
▁불편	-7634
▁지류	-7635
▁수용소	-7636
▁알프스	-7637
▁의상	-7638
▁중심부	-7639
▁라트비아	-7640
mer	-7641
▁수령	-7642
▁마하	-7643
▁부른	-7644
▁분광	-7645
▁풀려	-7646
▁협조	-7647
▁송나라	-7648
MA	-7649
▁취지	-7650
TS	-7651
추세	-7652
▁관람	-7653
▁모방	-7654
▁그램	-7655
▁든지	-7656
▁격투	-7657
▁김진	-7658
가와현	-7659
▁남동부	-7660
▁언제나	-7661
▁투르크	-7662
▁스러	-7663
▁온천	-7664
▁조반	-7665
▁풍경	-7666
▁양도	-7667
▁워너	-7668
▁무거운	-7669
ru	-7670
▁그렸	-7671
▁대군	-7672
▁오빠	-7673
추세츠	-7674
▁할리우드	-7675
▁매사추세츠	-7676
▁장려	-7677
▁134	-7678
니치	-7679
▁걱정	-7680
창군	-7681
▁석탑	-7682
▁미상	-7683
▁초과	-7684
▁WWE	-7685
▁지나가	-7686
▁데이비스	-7687
언스	-7688
▁소매	-7689
▁위임	-7690
▁후세	-7691
▁실린	-7692
▁후대	-7693
▁NBA	-7694
▁물리학자	-7695
온다	-7696
▁So	-7697
▁기장	-7698
▁합창	-7699
▁항소	-7700
▁International	-7701
▁휴전	-7702
▁One	-7703
▁스티브	-7704
▁우연히	-7705
▁여겨졌	-7706
▁해병대	-7707
루션	-7708
ink	-7709
▁북방	-7710
▁지혜	-7711
▁서울대	-7712
▁세계관	-7713
▁룽	-7714
▁동맥	-7715
▁휴식	-7716
▁Amer	-7717
▁삼진	-7718
▁후안	-7719
▁구조물	-7720
선스	-7721
▁케이스	-7722
▁냄	-7723
▁창고	-7724
져서	-7725
▁소환	-7726
▁Har	-7727
트리올	-7728
▁몬트리올	-7729
▁암시	-7730
▁추출	-7731
▁버린다	-7732
마현	-7733
▁기어	-7734
▁표명	-7735
ye	-7736
▁외교관	-7737
▁개관	-7738
▁장학	-7739
▁쫓겨	-7740
▁쉬운	-7741
▁토크	-7742
▁디비시온	-7743
▁느낀	-7744
▁승점	-7745
ames	-7746
▁민사	-7747
▁총사	-7748
▁믹스	-7749
▁바꿔	-7750
▁뉘	-7751
▁정전	-7752
▁컴퍼니	-7753
ans	-7754
▁NC	-7755
▁기인	-7756
▁가면	-7757
▁무제	-7758
▁여주	-7759
▁탐구	-7760
▁호세	-7761
▁htt	-7762
람회	-7763
평군	-7764
▁여지	-7765
▁유수	-7766
▁의뢰	-7767
▁해수	-7768
▁혈통	-7769
▁우루과이	-7770
▁전성기	-7771
▁창건	-7772
▁대포	-7773
▁잡아	-7774
▁충실	-7775
▁후한	-7776
▁나이지	-7777
▁소유자	-7778
▁신학자	-7779
▁나이지리아	-7780
▁매카	-7781
▁효력	-7782
▁넘어가	-7783
way	-7784
▁김수	-7785
▁토스	-7786
▁미즈	-7787
▁톈	-7788
▁도주	-7789
▁생전	-7790
▁Je	-7791
▁기습	-7792
ute	-7793
말라	-7794
▁편리	-7795
▁확진	-7796
▁사회학	-7797
▁벗어	-7798
▁라이선스	-7799
▁#	-7800
▁공모	-7801
▁꽤	-7802
▁중량	-7803
▁케네디	-7804
▁기요	-7805
▁방패	-7806
▁지냈으며	-7807
▁쓰인	-7808
▁아폴	-7809
▁에다	-7810
▁영동	-7811
▁초상화	-7812
erm	-7813
▁공채	-7814
▁껍질	-7815
▁석가	-7816
▁소나타	-7817
▁다녀	-7818
▁총대	-7819
▁고백	-7820
▁1897	-7821
▁호기	-7822
▁자기장	-7823
▁콘크리트	-7824
▁왓	-7825
먼드	-7826
▁그로	-7827
▁바치	-7828
▁인연	-7829
ream	-7830
▁아이슬	-7831
▁CS	-7832
▁어스	-7833
▁육지	-7834
▁탱크	-7835
▁Sou	-7836
▁쉐	-7837
▁왜성	-7838
▁운동장	-7839
▁패키지	-7840
ash	-7841
▁고민	-7842
▁저하	-7843
▁중의원	-7844
▁에스파냐	-7845
▁카이사르	-7846
▁원내	-7847
그로	-7848
▁배신	-7849
▁에우	-7850
▁훔	-7851
사기	-7852
▁진짜	-7853
▁침몰	-7854
▁바실	-7855
▁거느리	-7856
▁라파	-7857
▁막내	-7858
▁숨겨	-7859
▁신생	-7860
▁아종	-7861
무기	-7862
ata	-7863
▁RNA	-7864
▁레전드	-7865
항공	-7866
▁김태	-7867
▁마천	-7868
▁이식	-7869
▁이진	-7870
▁체르	-7871
▁하락	-7872
▁연세대	-7873
▁충남	-7874
▁쌍둥이	-7875
▁반박	-7876
▁상서	-7877
▁이를	-7878
▁정렬	-7879
▁지능	-7880
▁나쁜	-7881
▁정무	-7882
벌레	-7883
시로	-7884
▁둘레	-7885
▁서남	-7886
▁써서	-7887
▁일조	-7888
▁중위	-7889
▁아이슬란드	-7890
푸스	-7891
▁보일	-7892
▁원반	-7893
▁태수	-7894
pr	-7895
▁시그	-7896
PG	-7897
▁성숙	-7898
ta	-7899
▁들어왔	-7900
▁스페이스	-7901
▁ne	-7902
▁고령	-7903
▁어요	-7904
▁리버풀	-7905
▁부적	-7906
▁중소	-7907
▁옵션	-7908
▁폐위	-7909
▁탤	-7910
lic	-7911
▁만세	-7912
▁면허	-7913
▁계몽	-7914
▁법조	-7915
▁보리	-7916
▁파업	-7917
주의자	-7918
▁문학상	-7919
▁실시간	-7920
포트	-7921
▁코프	-7922
▁펑크	-7923
▁밟	-7924
▁도라	-7925
▁피츠	-7926
바이잔	-7927
포구	-7928
▁바뀐	-7929
▁스파르타	-7930
▁아랍어	-7931
▁인플	-7932
▁인재	-7933
▁아제르	-7934
▁알코올	-7935
▁횟	-7936
▁Ag	-7937
▁부천	-7938
▁성취	-7939
▁순천	-7940
▁우세	-7941
▁앓	-7942
▁Pa	-7943
하면	-7944
▁강과	-7945
▁목재	-7946
▁에티오	-7947
▁에티오피아	-7948
▁아제르바이잔	-7949
리에	-7950
▁루시	-7951
▁신기	-7952
▁귀중	-7953
▁선종	-7954
▁문재인	-7955
▁분비	-7956
▁코무네	-7957
▁깨달	-7958
▁박해	-7959
▁충전	-7960
▁혈관	-7961
▁일러	-7962
▁내려가	-7963
ark	-7964
▁낱말	-7965
▁치열	-7966
▁신중	-7967
▁해변	-7968
▁바라보	-7969
▁끓	-7970
▁치즈	-7971
ener	-7972
▁결혼식	-7973
▁신학교	-7974
▁축하	-7975
▁출토	-7976
▁김상	-7977
▁잦	-7978
▁도스	-7979
▁동당	-7980
▁드라	-7981
▁내외	-7982
▁병조	-7983
▁열대	-7984
▁파장	-7985
▁회고	-7986
▁십자가	-7987
랑카	-7988
▁업계	-7989
ement	-7990
▁전압	-7991
▁급격히	-7992
▁몰려	-7993
▁서머	-7994
▁바이오	-7995
▁1884	-7996
▁닝	-7997
▁치명	-7998
▁총선거	-7999
▁두루	-8000
▁신흥	-8001
ade	-8002
▁포격	-8003
lass	-8004
▁동로	-8005
▁한성부	-8006
▁겸하	-8007
▁가마쿠라	-8008
▁be	-8009
▁음료	-8010
▁즈음	-8011
▁천도	-8012
▁장거리	-8013
▁안드레	-8014
▁시외버스	-8015
▁멋	-8016
선거	-8017
▁개미	-8018
▁빠졌	-8019
▁퍼센트	-8020
▁돌리	-8021
▁원했	-8022
▁이광	-8023
▁구호	-8024
▁대제	-8025
▁어울	-8026
▁리비아	-8027
▁끌려	-8028
▁장미	-8029
▁생산량	-8030
▁펌	-8031
기지	-8032
▁현금	-8033
내셔널	-8034
▁공의회	-8035
▁인터내셔널	-8036
▁그날	-8037
▁Part	-8038
▁To	-8039
▁입지	-8040
▁후방	-8041
▁114	-8042
도바	-8043
▁롤링	-8044
▁이글스	-8045
▁파이어	-8046
▁Pe	-8047
▁미션	-8048
▁전했	-8049
▁할지	-8050
▁해소	-8051
▁제수	-8052
▁증진	-8053
que	-8054
▁산다	-8055
케이션	-8056
▁김포	-8057
▁병행	-8058
▁GDP	-8059
▁기업인	-8060
▁스트레스	-8061
▁순회	-8062
▁카리브	-8063
▁AD	-8064
▁서정	-8065
▁에버	-8066
▁청원	-8067
▁조연	-8068
제리	-8069
▁한쪽	-8070
▁고치	-8071
▁링컨	-8072
▁배수	-8073
▁남서부	-8074
▁봉쇄	-8075
▁께서	-8076
▁환영	-8077
▁동래	-8078
▁의약	-8079
▁전념	-8080
▁룡	-8081
나리	-8082
▁냉각	-8083
▁광물	-8084
▁추세	-8085
▁모른다	-8086
▁황태자	-8087
▁재현	-8088
▁축적	-8089
▁달했	-8090
▁횟수	-8091
▁덤	-8092
리니	-8093
ald	-8094
▁장안	-8095
베니아	-8096
▁이사회	-8097
▁역설	-8098
▁다룬다	-8099
▁트위터	-8100
▁고인	-8101
▁시바	-8102
▁나스	-8103
▁백색	-8104
▁오세	-8105
▁일화	-8106
we	-8107
▁내보	-8108
▁시골	-8109
▁휴스턴	-8110
EE	-8111
대신	-8112
▁닛폰	-8113
▁분당	-8114
▁탈당	-8115
▁마이너	-8116
치오	-8117
▁350	-8118
▁우라늄	-8119
▁치러진	-8120
▁Kore	-8121
▁슬로베니아	-8122
▁Gu	-8123
▁어원	-8124
▁스튜어트	-8125
▁서재	-8126
▁염기	-8127
▁호랑이	-8128
▁동상	-8129
▁되게	-8130
▁양주	-8131
▁나타낼	-8132
▁실리	-8133
데시	-8134
▁리우스	-8135
▁레일	-8136
▁한지	-8137
▁경연	-8138
▁리틀	-8139
▁교원	-8140
▁유죄	-8141
명사전	-8142
▁코믹스	-8143
바다	-8144
▁고수	-8145
▁마력	-8146
▁자아	-8147
▁단식	-8148
▁빨간색	-8149
▁베드	-8150
▁위탁	-8151
중국	-8152
▁격퇴	-8153
▁내린	-8154
▁명제	-8155
▁지폐	-8156
▁궁극	-8157
▁리뷰	-8158
▁반감	-8159
▁누군가	-8160
▁로열	-8161
▁입당	-8162
▁거론	-8163
릴라	-8164
페르	-8165
▁국사	-8166
▁유로파	-8167
은색	-8168
▁얘기	-8169
공신	-8170
글리	-8171
▁피에	-8172
▁col	-8173
IP	-8174
어버	-8175
▁개그	-8176
▁당주	-8177
▁최상위	-8178
▁차종	-8179
▁오노	-8180
▁나주	-8181
▁무상	-8182
▁바닷	-8183
▁범인	-8184
▁속했	-8185
▁가장자리	-8186
ng	-8187
▁약자	-8188
▁말리	-8189
▁붙였	-8190
▁모니터	-8191
▁유니버	-8192
▁BC	-8193
▁시선	-8194
▁히메	-8195
sk	-8196
▁그루	-8197
▁레논	-8198
▁마블	-8199
▁벌금	-8200
▁갇	-8201
고쿠	-8202
▁신념	-8203
▁청하	-8204
▁Char	-8205
유행	-8206
▁애덤	-8207
me	-8208
▁SE	-8209
▁향교	-8210
▁여당	-8211
▁잔류	-8212
▁그랑프리	-8213
▁대전광역시	-8214
누엘	-8215
▁다발	-8216
▁게르만	-8217
▁중성자	-8218
▁비잔티움	-8219
▁시칠리아	-8220
anc	-8221
▁지선	-8222
▁전라도	-8223
시피	-8224
▁영남	-8225
권자	-8226
▁가동	-8227
▁샘플	-8228
차기	-8229
▁설탕	-8230
▁실려	-8231
red	-8232
▁매달	-8233
▁시흥	-8234
▁여파	-8235
▁최악	-8236
회장	-8237
▁위쪽	-8238
▁다스리	-8239
▁브라우저	-8240
▁닷	-8241
▁나트	-8242
▁한족	-8243
▁효고	-8244
수리	-8245
▁단단	-8246
▁베스	-8247
▁왜냐	-8248
▁Dav	-8249
▁솟	-8250
▁성체	-8251
▁시가	-8252
rans	-8253
▁')	-8254
▁-)	-8255
▁너비	-8256
▁이에야스	-8257
AF	-8258
▁광학	-8259
▁몰아	-8260
▁시초	-8261
토모	-8262
▁나눌	-8263
래스카	-8264
▁갑작스	-8265
스틴	-8266
ict	-8267
▁AK	-8268
▁고소	-8269
▁사지	-8270
▁치아	-8271
▁호위	-8272
▁중추원	-8273
isc	-8274
▁대니	-8275
▁작센	-8276
▁주역	-8277
▁핸드	-8278
▁도장	-8279
▁Cor	-8280
▁차이점	-8281
▁규범	-8282
▁실전	-8283
▁브라더스	-8284
▁블라디미르	-8285
▁객체	-8286
▁상점	-8287
▁제갈	-8288
ject	-8289
▁다이아몬드	-8290
▁개원	-8291
▁극히	-8292
▁맥락	-8293
▁우위	-8294
블로	-8295
▁열정	-8296
▁Live	-8297
▁거행	-8298
▁낭만	-8299
▁확신	-8300
ower	-8301
▁햇	-8302
▁복선	-8303
▁아홉	-8304
▁펜실	-8305
▁풋볼	-8306
베이니아	-8307
▁공산주의자	-8308
▁펜실베이니아	-8309
▁뭉	-8310
▁이케	-8311
▁평의회	-8312
▁노부나가	-8313
▁신탁	-8314
▁플랜	-8315
타주	-8316
▁동점	-8317
▁SD	-8318
▁명령어	-8319
수소	-8320
포스	-8321
▁모이	-8322
▁오비	-8323
▁예시	-8324
▁제독	-8325
▁현저	-8326
드리아	-8327
▁정한	-8328
▁직면	-8329
▁관해서	-8330
타로	-8331
▁보인	-8332
▁유동	-8333
▁이산화	-8334
실록	-8335
▁가짜	-8336
▁오바	-8337
▁이긴	-8338
▁티스	-8339
▁어휘	-8340
▁누가	-8341
▁상공	-8342
▁상단	-8343
▁실장	-8344
란히	-8345
▁바리	-8346
그레이드	-8347
▁솜	-8348
거진	-8349
▁가죽	-8350
▁아벨	-8351
▁해밀	-8352
▁후사	-8353
▁클라우드	-8354
▁순교	-8355
▁입상	-8356
▁적당	-8357
▁침투	-8358
▁테이블	-8359
▁흔한	-8360
▁견제	-8361
▁수습	-8362
▁억압	-8363
▁업그레이드	-8364
▁나비	-8365
▁주주	-8366
▁해적	-8367
승지	-8368
▁김기	-8369
▁한스	-8370
니카	-8371
▁더글	-8372
▁방송사	-8373
▁도루	-8374
▁척추	-8375
▁트래	-8376
푸르트	-8377
▁다크	-8378
▁매입	-8379
▁사헌	-8380
▁친일인	-8381
▁친일인명사전	-8382
▁운하	-8383
▁테이프	-8384
▁pr	-8385
▁결선	-8386
▁구도	-8387
▁IBM	-8388
▁드문	-8389
▁못할	-8390
▁토모	-8391
▁is	-8392
▁감리	-8393
느러미	-8394
▁누나	-8395
▁마디	-8396
▁사육	-8397
▁스톡	-8398
▁토성	-8399
▁Don	-8400
▁들어간다	-8401
▁Sm	-8402
▁차장	-8403
▁충주	-8404
▁칭찬	-8405
▁131	-8406
▁맵	-8407
▁조종사	-8408
규모	-8409
▁부제	-8410
lect	-8411
▁with	-8412
타고	-8413
▁기질	-8414
▁비시	-8415
▁평원	-8416
▁평택	-8417
▁새겨져	-8418
야시	-8419
양함	-8420
▁언니	-8421
▁연쇄	-8422
▁워드	-8423
▁딕	-8424
▁1871	-8425
ble	-8426
▁산란	-8427
▁이세	-8428
▁입원	-8429
▁덧붙여	-8430
▁상반	-8431
▁받아들였	-8432
▁이관	-8433
▁국무총리	-8434
▁육체	-8435
▁통틀	-8436
▁플라이	-8437
마쓰	-8438
▁거북	-8439
▁뒷면	-8440
▁폭동	-8441
▁힘입	-8442
보기	-8443
승부	-8444
▁변이	-8445
▁아예	-8446
▁영의정	-8447
▁모았	-8448
▁비자	-8449
▁백화점	-8450
▁그동안	-8451
▁구릉	-8452
▁깨닫	-8453
▁행적	-8454
브리지	-8455
▁프랑수아	-8456
▁거쳤	-8457
▁관해	-8458
▁뜨거운	-8459
▁결함	-8460
▁대피	-8461
▁서진	-8462
▁Ind	-8463
▁SU	-8464
▁곡인	-8465
▁멜로디	-8466
▁별다른	-8467
아스	-8468
▁존속	-8469
▁주름	-8470
▁반도체	-8471
▁첼시	-8472
자치도	-8473
▁베어스	-8474
▁프로덕	-8475
▁제주특별	-8476
▁제주특별자치도	-8477
▁시뮬	-8478
▁사헌부	-8479
LS	-8480
▁고장	-8481
▁데모	-8482
▁소셜	-8483
▁늘어났	-8484
▁CR	-8485
▁춘추	-8486
▁라이브러리	-8487
▁요하	-8488
▁하워드	-8489
▁통치자	-8490
▁희생자	-8491
▁문화방송	-8492
▁경관	-8493
▁특집	-8494
▁플랫폼	-8495
마드	-8496
아이	-8497
▁극동	-8498
▁성사	-8499
▁한인	-8500
▁쳤	-8501
▁임용	-8502
▁제재	-8503
▁히사	-8504
▁116	-8505
MI	-8506
박쥐	-8507
▁빈곤	-8508
▁문구	-8509
▁상용	-8510
▁야쿠	-8511
▁키프로스	-8512
은이	-8513
▁Fe	-8514
▁Ke	-8515
▁근교	-8516
기업	-8517
▁CN	-8518
▁오해	-8519
▁War	-8520
▁다니엘	-8521
uro	-8522
▁우유	-8523
▁염색체	-8524
▁로이	-8525
▁페르디	-8526
▁므	-8527
▁구출	-8528
▁실체	-8529
▁화해	-8530
▁헥	-8531
▁보석	-8532
▁파인	-8533
▁누이	-8534
▁무어	-8535
ott	-8536
▁바스	-8537
▁고고학	-8538
▁블로그	-8539
▁왜냐하면	-8540
▁EU	-8541
▁수색	-8542
▁터치	-8543
▁CF	-8544
▁대표작	-8545
▁대학생	-8546
▁바른	-8547
▁이소	-8548
▁Em	-8549
▁거울	-8550
▁결코	-8551
▁느껴	-8552
▁비유	-8553
▁이화	-8554
▁과반	-8555
▁신주	-8556
▁을지	-8557
ail	-8558
lex	-8559
▁공천	-8560
▁담긴	-8561
▁리프	-8562
▁표적	-8563
▁태양계	-8564
▁공습	-8565
▁중합	-8566
▁할머니	-8567
법인	-8568
▁이윤	-8569
▁그만두	-8570
▁오프닝	-8571
▁일리노	-8572
▁1885	-8573
타나	-8574
▁관절	-8575
▁소규모	-8576
▁만남	-8577
▁세속	-8578
▁원숭이	-8579
irl	-8580
▁개종	-8581
▁양측	-8582
▁조부	-8583
▁하프	-8584
▁일리노이	-8585
▁황실	-8586
▁끄	-8587
▁눌	-8588
살이	-8589
▁국소	-8590
▁사업자	-8591
▁야구장	-8592
▁시베리아	-8593
▁재선	-8594
▁전년	-8595
▁우승자	-8596
조부	-8597
ank	-8598
▁IM	-8599
▁구해	-8600
▁노바	-8601
▁헤비	-8602
▁부당	-8603
▁키르	-8604
▁발라	-8605
시타	-8606
▁파란색	-8607
▁벵	-8608
▁종착	-8609
▁해고	-8610
HO	-8611
더슨	-8612
▁사모	-8613
▁포럼	-8614
▁후궁	-8615
▁1880	-8616
▁날씨	-8617
▁포터	-8618
▁매니저	-8619
▁러시아어	-8620
비나	-8621
▁글루	-8622
▁남원	-8623
▁신조	-8624
▁요건	-8625
▁응원	-8626
▁라이언	-8627
하시	-8628
▁성운	-8629
▁Ass	-8630
gh	-8631
백과	-8632
▁철회	-8633
▁횡단	-8634
▁타이거즈	-8635
대기	-8636
▁제프	-8637
▁게스트	-8638
▁군청	-8639
▁아부	-8640
▁천장	-8641
▁협박	-8642
▁돋	-8643
▁가축	-8644
▁뒤집	-8645
▁소원	-8646
▁모로코	-8647
리케인	-8648
▁분명히	-8649
▁신한	-8650
▁Day	-8651
▁Her	-8652
▁몬스터	-8653
▁창원시	-8654
▁그냥	-8655
▁빠진	-8656
▁Art	-8657
▁레바논	-8658
▁물리치	-8659
▁허리케인	-8660
▁킥	-8661
▁다항	-8662
▁왜곡	-8663
▁근원	-8664
▁기적	-8665
▁송시	-8666
▁칼라	-8667
▁굉장히	-8668
▁파이널	-8669
람쥐	-8670
▁신시	-8671
▁스트리	-8672
▁화장실	-8673
▁GP	-8674
▁증대	-8675
▁몰래	-8676
▁팔라	-8677
▁con	-8678
▁삼성전자	-8679
끼리	-8680
▁트윈스	-8681
바시	-8682
▁미라	-8683
▁바나	-8684
▁상표	-8685
▁처녀	-8686
▁키우	-8687
▁왔으며	-8688
▁릉	-8689
▁독일인	-8690
▁아미타	-8691
▁외야수	-8692
▁구와	-8693
▁심해	-8694
▁따른다	-8695
▁드로	-8696
▁생겨났	-8697
▁개교	-8698
▁케냐	-8699
▁계정	-8700
▁미세	-8701
▁용병	-8702
▁컴파	-8703
▁살아가	-8704
▁빌려	-8705
▁탐색	-8706
▁원로원	-8707
무스	-8708
▁나눠	-8709
▁담겨	-8710
▁맥주	-8711
▁몰리	-8712
▁스캔	-8713
▁여래	-8714
▁힘든	-8715
프레스	-8716
▁오피스	-8717
▁네이션스	-8718
▁대폭	-8719
▁공단	-8720
▁공수	-8721
▁교황청	-8722
urn	-8723
▁네스	-8724
▁진급	-8725
▁프로덕션	-8726
▁시위대	-8727
▁비르	-8728
▁브로드	-8729
ola	-8730
▁선비	-8731
▁인체	-8732
▁엿	-8733
▁보위	-8734
베르토	-8735
▁페르난	-8736
▁지평	-8737
▁알제리	-8738
▁신민	-8739
▁유저	-8740
▁루이지	-8741
▁물려받	-8742
▁아인슈타인	-8743
▁National	-8744
▁공백	-8745
▁타당	-8746
▁동아일보	-8747
▁요정	-8748
▁욕구	-8749
▁허위	-8750
▁희곡	-8751
▁신선	-8752
▁일방	-8753
▁드러났	-8754
▁스위치	-8755
▁가루	-8756
▁즉각	-8757
▁흔하	-8758
▁왕복	-8759
▁Gl	-8760
▁구절	-8761
▁미키	-8762
▁효종	-8763
OL	-8764
▁경신	-8765
▁극심	-8766
▁김경	-8767
▁안성	-8768
▁일가	-8769
▁춘천	-8770
▁투옥	-8771
▁폭행	-8772
▁주어지	-8773
▁니콜라	-8774
be	-8775
▁릿	-8776
▁공익	-8777
▁우호	-8778
fer	-8779
▁묘역	-8780
▁바우	-8781
▁주가	-8782
▁내려오	-8783
▁위키백과	-8784
▁리우	-8785
▁수축	-8786
▁경상도	-8787
▁찾아볼	-8788
▁라이너	-8789
▁이어진	-8790
▁Mo	-8791
▁미르	-8792
▁시어	-8793
▁뉴욕주	-8794
▁법무부	-8795
▁최대한	-8796
▁1860	-8797
▁둔다	-8798
▁힌두교	-8799
▁캉	-8800
▁오오	-8801
▁인문	-8802
▁GT	-8803
▁만성	-8804
▁민회	-8805
▁진공	-8806
▁체스	-8807
▁Res	-8808
▁무승부	-8809
▁아레나	-8810
▁1889	-8811
▁붐	-8812
▁거제	-8813
▁지미	-8814
▁촉매	-8815
▁필터	-8816
타리오	-8817
▁종로구	-8818
▁수련	-8819
▁사쿠라	-8820
▁줄무늬	-8821
▁부딪	-8822
▁마야	-8823
▁붙인	-8824
▁살리	-8825
▁드러머	-8826
위원	-8827
▁As	-8828
▁1800	-8829
▁동문	-8830
▁빙하	-8831
▁치안	-8832
▁일반인	-8833
▁교정	-8834
▁자택	-8835
port	-8836
▁더니	-8837
▁수법	-8838
▁발리	-8839
▁친일파	-8840
▁오사카부	-8841
산동	-8842
▁라오스	-8843
▁분기점	-8844
▁전자기	-8845
도리	-8846
▁뒤쪽	-8847
▁헤라	-8848
▁203	-8849
▁Can	-8850
▁연합회	-8851
▁유치원	-8852
▁조선일보	-8853
하키	-8854
▁승계	-8855
▁캐시	-8856
▁테레	-8857
▁느꼈	-8858
고래	-8859
eng	-8860
▁만일	-8861
▁컨셉	-8862
갈색	-8863
▁가군	-8864
▁김현	-8865
▁발병	-8866
▁세라	-8867
▁사이타	-8868
ler	-8869
▁탐사선	-8870
▁믹	-8871
▁희귀	-8872
▁교과서	-8873
▁곤란	-8874
▁카미	-8875
▁팔리	-8876
▁CON	-8877
▁제대	-8878
▁흠	-8879
▁나르	-8880
▁문예	-8881
▁풍자	-8882
▁흔들	-8883
▁sc	-8884
▁구이	-8885
▁봉건	-8886
▁포병	-8887
연합	-8888
▁무지	-8889
▁보트	-8890
▁이빨	-8891
▁후속작	-8892
▁디렉	-8893
▁만료	-8894
▁메커	-8895
▁종속	-8896
▁경찰청	-8897
▁Fl	-8898
▁se	-8899
▁동국	-8900
▁모친	-8901
▁센티	-8902
▁자음	-8903
▁증손	-8904
▁카롤	-8905
▁택시	-8906
▁Per	-8907
yc	-8908
▁GS	-8909
▁로그	-8910
▁성도	-8911
▁야마토	-8912
▁먼지	-8913
▁적분	-8914
▁뒷받침	-8915
▁발급	-8916
▁엔딩	-8917
▁지침	-8918
▁플러스	-8919
코딩	-8920
▁띤다	-8921
▁무성	-8922
▁화자	-8923
▁양키스	-8924
▁HT	-8925
나스	-8926
▁일컬	-8927
▁카를로스	-8928
린스	-8929
▁상해	-8930
▁목판	-8931
▁자선	-8932
▁초록	-8933
▁1870	-8934
포드	-8935
▁감자	-8936
▁냉전	-8937
▁말씀	-8938
▁웹툰	-8939
▁이남	-8940
▁방송인	-8941
▁그치	-8942
▁예고	-8943
▁우측	-8944
▁프랑크푸르트	-8945
▁성문	-8946
▁오크	-8947
▁판본	-8948
▁괴물	-8949
▁신약	-8950
ater	-8951
▁보증	-8952
▁이경	-8953
▁조세	-8954
▁지출	-8955
▁공민왕	-8956
▁승부차기	-8957
레기	-8958
셰비	-8959
▁영문	-8960
▁체크	-8961
▁학계	-8962
▁제압	-8963
▁팡	-8964
▁아랫	-8965
▁Dr	-8966
▁ID	-8967
▁나올	-8968
▁용이	-8969
조건	-8970
▁Fr	-8971
▁극작	-8972
▁채워	-8973
▁초월	-8974
▁박람회	-8975
바닥	-8976
올라	-8977
▁우파	-8978
▁캔자스	-8979
저지	-8980
▁핑크	-8981
▁간단히	-8982
▁발렌시아	-8983
oup	-8984
▁기각	-8985
▁리라	-8986
▁부피	-8987
▁이준	-8988
▁아래쪽	-8989
곡리	-8990
다지	-8991
속기	-8992
▁he	-8993
▁연합국	-8994
▁아카데미상	-8995
▁요동	-8996
▁들어온	-8997
▁체코슬로	-8998
▁체코슬로바키아	-8999
ins	-9000
▁승자	-9001
▁유년	-9002
▁해명	-9003
▁가나가와현	-9004
▁비리	-9005
▁태권	-9006
ican	-9007
▁알루미	-9008
▁사본	-9009
▁메커니즘	-9010
▁플라스틱	-9011
▁Black	-9012
▁단절	-9013
테르부르크	-9014
▁유방	-9015
▁혼동	-9016
스테	-9017
ual	-9018
▁기다	-9019
▁소관	-9020
▁키보드	-9021
▁각도	-9022
▁둥지	-9023
▁슈팅	-9024
▁Colle	-9025
▁구축함	-9026
롤라이나	-9027
▁sh	-9028
▁상사	-9029
▁뉴저지	-9030
단체	-9031
미사	-9032
▁물품	-9033
▁생략	-9034
▁호른	-9035
▁부여받	-9036
▁송시열	-9037
▁탤런트	-9038
▁핵무기	-9039
▁엥	-9040
▁우즈베	-9041
▁퐁	-9042
▁에미	-9043
▁파산	-9044
▁펠리	-9045
▁게이지	-9046
브레	-9047
▁강서	-9048
▁대거	-9049
▁염증	-9050
ings	-9051
▁른	-9052
▁기증	-9053
▁Pet	-9054
▁이드	-9055
▁이브	-9056
▁일생	-9057
▁도마뱀붙이	-9058
▁블랙홀	-9059
리안	-9060
▁대명	-9061
▁어렸	-9062
▁저주	-9063
▁나눈	-9064
치기	-9065
▁늘리	-9066
▁정주	-9067
▁브리지	-9068
▁220	-9069
톨레	-9070
▁갈래	-9071
▁Rec	-9072
▁크레이	-9073
▁School	-9074
▁관세	-9075
▁올라간다	-9076
▁이탈리아어	-9077
--	-9078
▁{	-9079
블리	-9080
▁고산	-9081
▁외모	-9082
▁코스타	-9083
▁합스부르크	-9084
▁학업	-9085
퍼런스	-9086
▁자연수	-9087
▁드라이버	-9088
uk	-9089
의장	-9090
헤이	-9091
▁ES	-9092
▁IN	-9093
▁돌격	-9094
▁스칼	-9095
덩이	-9096
마루	-9097
▁로우	-9098
▁공감	-9099
타니	-9100
▁온타리오	-9101
▁그래미	-9102
▁끌어들	-9103
▁날아	-9104
▁아담	-9105
▁카우	-9106
▁AG	-9107
▁자비	-9108
▁적도	-9109
▁퍼스	-9110
▁방사선	-9111
타리	-9112
▁사위	-9113
▁오라	-9114
▁혜택	-9115
▁퍼지	-9116
▁미생물	-9117
▁사상자	-9118
▁Mc	-9119
▁이순신	-9120
▁라이온즈	-9121
▁배후	-9122
▁달한다	-9123
▁아이오	-9124
▁at	-9125
▁생체	-9126
▁계열사	-9127
▁바오로	-9128
▁플래시	-9129
▁확실히	-9130
▁옆면	-9131
bo	-9132
▁도청	-9133
▁레온	-9134
able	-9135
▁경찰관	-9136
▁세이브	-9137
▁="	-9138
▁브뤼	-9139
▁비로소	-9140
개골	-9141
▁구경	-9142
▁프론	-9143
▁필사	-9144
form	-9145
▁검찰청	-9146
▁1868	-9147
러드	-9148
화물	-9149
▁이끈	-9150
▁입국	-9151
▁청춘	-9152
먼스	-9153
▁un	-9154
▁가드	-9155
▁관구	-9156
▁예조	-9157
▁원종	-9158
▁어려워	-9159
▁종점	-9160
▁축출	-9161
▁쾌속	-9162
▁밀집	-9163
▁서신	-9164
▁Rock	-9165
▁킴	-9166
ode	-9167
대원군	-9168
▁Mag	-9169
▁금요일	-9170
▁커뮤니케이션	-9171
▁수분	-9172
▁징계	-9173
▁요르단	-9174
▁총독부	-9175
▁트로이	-9176
▁깎	-9177
짓점	-9178
▁국영	-9179
▁내정	-9180
▁동행	-9181
▁폭포	-9182
▁장례식	-9183
ma	-9184
▁날카	-9185
▁레즈	-9186
▁통보	-9187
▁꼭짓점	-9188
▁필리프	-9189
▁BS	-9190
▁걸렸	-9191
교도	-9192
츠크	-9193
ini	-9194
▁군정	-9195
▁군중	-9196
▁내주	-9197
▁답변	-9198
▁워터	-9199
▁헬리	-9200
▁대변인	-9201
▁아리아	-9202
▁럼	-9203
▁CJ	-9204
▁숙청	-9205
▁어긋	-9206
▁일으킬	-9207
▁툰	-9208
▁감마	-9209
▁학기	-9210
na	-9211
▁민감	-9212
▁은데	-9213
▁바깥쪽	-9214
줄기	-9215
▁이타	-9216
▁가벼운	-9217
▁개인전	-9218
▁맘	-9219
▁컷	-9220
로이	-9221
▁공방	-9222
▁미루	-9223
▁바꾼	-9224
ner	-9225
▁갱신	-9226
▁카디	-9227
▁벽돌	-9228
▁진사	-9229
▁월요일	-9230
하루	-9231
▁고성	-9232
▁미노	-9233
▁소시	-9234
▁실망	-9235
▁정세	-9236
▁케임	-9237
▁의약품	-9238
▁클라이	-9239
▁맑	-9240
▁동정	-9241
▁역량	-9242
inc	-9243
oss	-9244
파이어	-9245
▁재상	-9246
▁시가지	-9247
레아	-9248
▁개소	-9249
▁볼프	-9250
▁익스프레스	-9251
▁닦	-9252
▁광둥	-9253
▁대부	-9254
▁토양	-9255
▁가신	-9256
▁서초	-9257
▁알루미늄	-9258
드르	-9259
▁성단	-9260
▁원천	-9261
문트	-9262
▁끼쳤	-9263
▁뇌물	-9264
▁반해	-9265
▁어른	-9266
▁체조	-9267
▁카카	-9268
▁하고	-9269
축구	-9270
▁남작	-9271
▁부설	-9272
▁중복	-9273
▁퇴임	-9274
▁공조	-9275
▁차가	-9276
▁천재	-9277
▁커지	-9278
▁퇴적	-9279
▁평정	-9280
▁따온	-9281
▁원본	-9282
▁황족	-9283
카가	-9284
vel	-9285
▁고쳐	-9286
▁공명	-9287
▁기니	-9288
▁헌정	-9289
▁화강	-9290
▁대서양	-9291
▁총사령	-9292
ution	-9293
▁소모	-9294
▁폭넓	-9295
▁기사단	-9296
▁맏	-9297
샤바	-9298
▁총칭	-9299
IG	-9300
▁마르티	-9301
▁창출	-9302
▁바티칸	-9303
▁구할	-9304
▁서자	-9305
▁연승	-9306
프레	-9307
▁게리	-9308
▁베니	-9309
▁호출	-9310
▁Ant	-9311
▁젊은이	-9312
▁프란츠	-9313
일으	-9314
▁김규	-9315
▁한테	-9316
▁불러일으	-9317
ett	-9318
▁암흑	-9319
▁중형	-9320
▁헬기	-9321
지스	-9322
▁본국	-9323
▁였음	-9324
▁워크	-9325
▁최강	-9326
▁Inst	-9327
▁방화	-9328
▁적혀	-9329
▁지인	-9330
▁김정일	-9331
▁안토니오	-9332
지붕	-9333
▁부스	-9334
▁첨단	-9335
▁대의원	-9336
변이	-9337
▁옹립	-9338
▁돌연변이	-9339
▁단축	-9340
▁양호	-9341
▁제인	-9342
▁하르	-9343
▁살펴보	-9344
▁오리콘	-9345
▁William	-9346
▁대출	-9347
▁매매	-9348
▁선행	-9349
▁아미노산	-9350
▁권장	-9351
▁크리스토퍼	-9352
▁남구	-9353
▁선도	-9354
▁속편	-9355
▁콕	-9356
닐라	-9357
▁이단	-9358
▁반지름	-9359
▁베네딕	-9360
▁성리학	-9361
크라	-9362
▁관제	-9363
▁재혼	-9364
▁연예인	-9365
▁웨스턴	-9366
진군	-9367
ole	-9368
▁Cr	-9369
▁대합	-9370
▁유라	-9371
▁자오	-9372
▁조립	-9373
▁아키타	-9374
▁제로	-9375
▁질소	-9376
▁민간인	-9377
렉스	-9378
▁갈릴	-9379
▁빌라	-9380
▁체류	-9381
▁티코	-9382
▁1883	-9383
▁구스	-9384
▁토미	-9385
▁윤치호	-9386
▁기슭	-9387
▁덮여	-9388
▁인명	-9389
▁1600	-9390
▁아시카가	-9391
uck	-9392
▁선배	-9393
▁악단	-9394
▁국내외	-9395
▁땄	-9396
▁JT	-9397
▁설교	-9398
▁유체	-9399
idae	-9400
▁두개골	-9401
▁스즈키	-9402
▁렐	-9403
카타	-9404
▁MB	-9405
▁제니	-9406
▁피오	-9407
▁"),	-9408
▁부작용	-9409
▁타임스	-9410
군다	-9411
▁어미	-9412
▁채소	-9413
▁기술자	-9414
▁Time	-9415
브르	-9416
▁뉴턴	-9417
▁원전	-9418
▁취업	-9419
▁들어갈	-9420
▁어류	-9421
▁컴백	-9422
▁종래	-9423
▁지옥	-9424
▁복합체	-9425
▁강희	-9426
▁추론	-9427
▁마운트	-9428
▁데르	-9429
▁사이토	-9430
▁청주시	-9431
▁강간	-9432
▁전속	-9433
▁터보	-9434
▁호르몬	-9435
▁슨	-9436
▁남미	-9437
▁독성	-9438
▁로비	-9439
▁삼촌	-9440
▁우회	-9441
▁특권	-9442
▁`	-9443
▁권총	-9444
▁외관	-9445
▁패널	-9446
▁스리랑카	-9447
▁병기	-9448
우트	-9449
▁괴롭	-9450
▁말미	-9451
▁연이	-9452
▁왕세	-9453
셰비키	-9454
▁사회당	-9455
보르	-9456
▁따왔	-9457
▁결핍	-9458
▁대패	-9459
▁던져	-9460
▁모서리	-9461
▁잃어버	-9462
▁륙	-9463
▁비주	-9464
▁절단	-9465
▁포획	-9466
▁갈리아	-9467
마이오스	-9468
▁꿀	-9469
▁구청	-9470
▁이겼	-9471
▁Life	-9472
▁공적	-9473
▁밝기	-9474
▁GO	-9475
▁복용	-9476
▁비타	-9477
▁안테	-9478
▁지우	-9479
▁매카트니	-9480
퀘어	-9481
▁직경	-9482
▁야마구치	-9483
두리	-9484
▁면제	-9485
▁본문	-9486
▁서류	-9487
▁페널	-9488
▁헌신	-9489
▁간선	-9490
▁시코	-9491
아웃	-9492
▁시범	-9493
▁회상	-9494
▁코끼리	-9495
ike	-9496
▁앵글	-9497
▁중산	-9498
▁1888	-9499
ane	-9500
▁통영	-9501
▁하단	-9502
▁머무르	-9503
▁옳	-9504
▁형조	-9505
▁Med	-9506
▁장기간	-9507
▁밍	-9508
▁빔	-9509
▁얽	-9510
▁광대	-9511
▁니코	-9512
▁양반	-9513
▁자작	-9514
▁페니	-9515
▁개막전	-9516
▁패밀리	-9517
▁동성애자	-9518
▁짱	-9519
황후	-9520
▁그랜	-9521
▁패했	-9522
▁스크립	-9523
▁폭격기	-9524
▁러시	-9525
▁수확	-9526
▁패한	-9527
▁피신	-9528
▁혐오	-9529
야마현	-9530
▁당한다	-9531
▁도카이	-9532
CC	-9533
글라	-9534
▁코카	-9535
▁구스타	-9536
sch	-9537
▁러셀	-9538
▁고트	-9539
▁곡물	-9540
▁예하	-9541
▁주부	-9542
▁주조	-9543
▁중생	-9544
▁분량	-9545
▁서유럽	-9546
▁셨	-9547
▁감행	-9548
▁돌기	-9549
▁에밀	-9550
▁정적	-9551
▁커널	-9552
▁화상	-9553
▁거주지	-9554
▁영국인	-9555
▁일렉트로	-9556
▁연봉	-9557
▁토끼	-9558
▁모리스	-9559
▁신원	-9560
▁사업가	-9561
▁1893	-9562
벤처	-9563
벨트	-9564
▁Of	-9565
▁동조	-9566
▁세비	-9567
▁이용자	-9568
▁지식인	-9569
▁어드벤처	-9570
기스	-9571
▁ph	-9572
▁봉안	-9573
사이드	-9574
▁아리스토	-9575
카미	-9576
포로	-9577
▁강변	-9578
▁끊임없이	-9579
▁예명	-9580
▁장벽	-9581
▁갈수록	-9582
▁그레고	-9583
▁케임브리지	-9584
쟁이	-9585
▁가야	-9586
▁들이	-9587
▁바빌	-9588
▁부를	-9589
▁홈구장	-9590
▁극한	-9591
▁김지	-9592
▁스턴	-9593
▁CEO	-9594
▁마스크	-9595
▁미하일	-9596
렉션	-9597
▁가까워	-9598
▁고양시	-9599
▁1882	-9600
▁얹	-9601
구르	-9602
▁농림	-9603
▁싸이	-9604
타이드	-9605
▁Robert	-9606
번스	-9607
▁앞쪽	-9608
ital	-9609
ony	-9610
▁두께	-9611
▁등기	-9612
▁산출	-9613
▁상트	-9614
▁스폰	-9615
▁유진	-9616
▁항쟁	-9617
스토랑	-9618
▁레스토랑	-9619
▁옥스퍼드	-9620
▁가옥	-9621
▁깃발	-9622
▁독서	-9623
tr	-9624
▁격자	-9625
▁중령	-9626
▁고속도	-9627
▁1892	-9628
▁미시시피	-9629
▁격차	-9630
▁소생	-9631
▁전방	-9632
▁채우	-9633
▁하리	-9634
니까	-9635
▁겁	-9636
레타	-9637
▁왼손	-9638
▁조수	-9639
▁보이스	-9640
▁나우	-9641
▁부가	-9642
▁간토	-9643
▁남매	-9644
▁함정	-9645
▁회관	-9646
▁와일드	-9647
af	-9648
그라	-9649
▁CM	-9650
▁빈도	-9651
▁아이스하키	-9652
▁가가	-9653
▁전위	-9654
▁카사	-9655
▁퇴역	-9656
IL	-9657
RO	-9658
de	-9659
▁검출	-9660
▁사간	-9661
▁상금	-9662
▁설화	-9663
▁숙주	-9664
▁전구	-9665
▁설립자	-9666
▁지도부	-9667
나미	-9668
▁건륭	-9669
▁천문대	-9670
▁포켓몬스터	-9671
▁발령	-9672
▁전염병	-9673
▁렘	-9674
▁대손	-9675
▁토시	-9676
타임	-9677
파르	-9678
▁미들	-9679
▁이현	-9680
▁체중	-9681
▁태극	-9682
▁사이타마현	-9683
▁기숙	-9684
▁리터	-9685
▁의자	-9686
▁자르	-9687
▁제치	-9688
▁히타	-9689
▁부회장	-9690
▁히로시	-9691
▁나갈	-9692
▁반군	-9693
▁성폭	-9694
▁꼭대기	-9695
▁제조업	-9696
틱스	-9697
▁농경	-9698
▁벨트	-9699
▁불신	-9700
▁서장	-9701
시즘	-9702
ven	-9703
▁범유행	-9704
▁지바현	-9705
▁대웅	-9706
▁응시	-9707
▁초원	-9708
▁세이부	-9709
▁겐지	-9710
▁마녀	-9711
▁임관	-9712
▁하동	-9713
▁화력	-9714
▁프톨레	-9715
▁효고현	-9716
▁프톨레마이오스	-9717
아일랜드	-9718
▁쿄	-9719
▁커스	-9720
▁코시	-9721
노미야	-9722
▁시네	-9723
▁입성	-9724
▁비행장	-9725
▁나노	-9726
▁잡혀	-9727
▁피고인	-9728
▁NE	-9729
▁습지	-9730
▁작물	-9731
▁이바라	-9732
디나	-9733
▁하비	-9734
▁슬라브	-9735
ral	-9736
▁기분	-9737
▁대치	-9738
▁보복	-9739
▁좌측	-9740
▁코코	-9741
▁하차	-9742
로우	-9743
▁서민	-9744
▁차르	-9745
▁참의	-9746
▁아폴로	-9747
▁해진다	-9748
개미	-9749
▁농부	-9750
▁보헤	-9751
▁남동생	-9752
▁소령	-9753
▁아치	-9754
▁임원	-9755
▁켈리	-9756
▁경작	-9757
▁우체	-9758
▁체력	-9759
▁케빈	-9760
▁아돌프	-9761
▁MHz	-9762
RA	-9763
산맥	-9764
히코	-9765
▁동형	-9766
▁사슴	-9767
테르담	-9768
omys	-9769
▁정해진	-9770
▁극대	-9771
▁뮤지션	-9772
▁카타르	-9773
▁각색	-9774
▁느리	-9775
▁퉁	-9776
▁난징	-9777
▁다름	-9778
▁섹스	-9779
▁열도	-9780
▁막시	-9781
▁연꽃	-9782
▁인질	-9783
▁즐겨	-9784
▁해밀턴	-9785
▁어둠	-9786
▁감수	-9787
▁고아	-9788
▁기저	-9789
▁정동	-9790
▁거래소	-9791
▁아마존	-9792
▁러시아군	-9793
▁광주광역시	-9794
▁Wal	-9795
▁히어로즈	-9796
FL	-9797
▁LP	-9798
▁검열	-9799
▁정변	-9800
▁주된	-9801
▁모티브	-9802
▁포스터	-9803
▁몫	-9804
▁초신	-9805
▁학대	-9806
▁전시회	-9807
▁점성술	-9808
ana	-9809
▁쌓았	-9810
▁축물	-9811
▁Mon	-9812
▁System	-9813
▁NAS	-9814
▁동네	-9815
▁매수	-9816
▁자크	-9817
▁표방	-9818
▁개화	-9819
▁불꽃	-9820
▁솔루션	-9821
방송공사	-9822
캐롤라이나	-9823
▁그릇	-9824
▁세네	-9825
▁웬	-9826
▁구형	-9827
▁서문	-9828
▁야시	-9829
▁회피	-9830
▁분수	-9831
▁퀘벡	-9832
▁소나무	-9833
▁교대	-9834
▁정성	-9835
ouse	-9836
▁알렉산드르	-9837
▁me	-9838
▁견인	-9839
▁교량	-9840
▁룩셈	-9841
▁마키	-9842
▁발기	-9843
▁해부	-9844
▁연대기	-9845
▁연산군	-9846
▁대구광역시	-9847
▁룩셈부르크	-9848
▁북아프리카	-9849
▁루카	-9850
▁요약	-9851
▁방글라	-9852
▁경제학자	-9853
▁방글라데시	-9854
▁썬	-9855
ino	-9856
▁선동	-9857
▁입각	-9858
▁하치	-9859
▁삿포로	-9860
▁도요토미	-9861
▁땃	-9862
ors	-9863
▁레슬링	-9864
▁언어학	-9865
▁Night	-9866
▁가려	-9867
▁기르	-9868
▁둥글	-9869
▁루타	-9870
▁무함	-9871
▁타케	-9872
▁미야기	-9873
▁브리튼	-9874
▁비석	-9875
레슬링	-9876
▁상트페	-9877
▁인프라	-9878
▁상트페테르부르크	-9879
▁냄새	-9880
▁정화	-9881
▁그다지	-9882
▁더욱이	-9883
다고	-9884
역학	-9885
▁이우	-9886
▁푸르	-9887
▁KIA	-9888
그룹	-9889
폴리	-9890
▁AN	-9891
▁소말	-9892
▁Tra	-9893
▁USS	-9894
▁시뮬레이션	-9895
▁광부	-9896
▁로저	-9897
▁호모	-9898
▁부의장	-9899
▁페널티	-9900
▁색채	-9901
▁트리플	-9902
대장	-9903
▁손꼽	-9904
▁THE	-9905
▁드레스	-9906
함수	-9907
▁리조	-9908
▁의결	-9909
▁스퀘어	-9910
▁연산자	-9911
▁낫	-9912
▁에콰	-9913
▁소방서	-9914
▁소수자	-9915
▁에콰도르	-9916
▁운수	-9917
▁토기	-9918
▁프로레슬링	-9919
▁감안	-9920
▁불린	-9921
▁시킴	-9922
▁오를	-9923
▁추첨	-9924
▁관광지	-9925
▁페르디난	-9926
펜하	-9927
▁Do	-9928
▁러스	-9929
▁수년	-9930
▁오쿠	-9931
▁제국주의	-9932
링턴	-9933
세기	-9934
▁노이	-9935
▁석회	-9936
▁정립	-9937
▁피겨	-9938
inal	-9939
지르	-9940
피어	-9941
▁어려서	-9942
▁유닉스	-9943
▁표기법	-9944
▁Music	-9945
그리	-9946
let	-9947
▁가역	-9948
▁애칭	-9949
▁파이터	-9950
▁파우	-9951
▁Bro	-9952
▁울산광역시	-9953
▁Jo	-9954
▁이병	-9955
베트남	-9956
▁레이더	-9957
루냐	-9958
▁두꺼	-9959
▁모은	-9960
▁원료	-9961
▁잘라	-9962
▁엇	-9963
rop	-9964
▁침체	-9965
▁교도소	-9966
▁미네소	-9967
▁버클리	-9968
▁김창	-9969
▁분출	-9970
▁정문	-9971
▁함선	-9972
▁부드러운	-9973
부리	-9974
▁EX	-9975
▁염소	-9976
▁바이킹	-9977
▁챌린지	-9978
▁아라비아	-9979
▁공리	-9980
▁실무	-9981
▁휴가	-9982
▁450	-9983
▁우루스	-9984
▁찰리	-9985
▁코믹	-9986
라이어	-9987
▁트로피	-9988
▁LA	-9989
▁울프	-9990
▁바르샤바	-9991
▁국보	-9992
▁군함	-9993
▁저렴	-9994
▁으려고	-9995
chn	-9996
▁일산	-9997
▁쯔	-9998
▁맥도	-9999
▁모모	-10000
▁벌인	-10001
▁직결	-10002
▁상응	-10003
▁태그	-10004
▁거짓말	-10005
자르	-10006
▁경성부	-10007
▁파라과이	-10008
▁음향	-10009
▁청산	-10010
▁그레이트	-10011
▁일러스트	-10012
▁크리스티안	-10013
크로	-10014
▁BM	-10015
▁쓰촨	-10016
▁되돌아	-10017
50	-10018
▁경과	-10019
▁사살	-10020
▁실버	-10021
▁입양	-10022
▁옥수수	-10023
▁Your	-10024
▁볼리비아	-10025
▁능선	-10026
▁동학	-10027
▁피아니스트	-10028
EL	-10029
▁가도	-10030
▁공고	-10031
▁마우	-10032
▁무로	-10033
▁무슨	-10034
▁정유	-10035
▁진료	-10036
테리아	-10037
▁공용어	-10038
▁대문	-10039
▁당연히	-10040
▁공관	-10041
▁관음	-10042
▁파벌	-10043
▁무너지	-10044
TP	-10045
▁GN	-10046
▁강대	-10047
▁노보	-10048
▁제리	-10049
▁스토어	-10050
아키	-10051
천리	-10052
▁간신	-10053
▁땃쥐	-10054
▁우치	-10055
네시	-10056
럴드	-10057
모스	-10058
▁김민	-10059
▁위스	-10060
▁팰	-10061
라기	-10062
히토	-10063
▁가환	-10064
▁모나	-10065
▁속주	-10066
▁아소	-10067
▁유대교	-10068
▁컨트리	-10069
▁산호	-10070
▁아닐	-10071
▁총대주교	-10072
도스	-10073
▁당수	-10074
▁물가	-10075
▁살라	-10076
▁상법	-10077
▁세키	-10078
▁취미	-10079
▁니카	-10080
▁대두	-10081
▁버마	-10082
▁상고	-10083
▁스텔	-10084
▁탄도	-10085
▁공황	-10086
▁천하	-10087
▁카스티	-10088
▁고토	-10089
▁성지	-10090
▁실재	-10091
▁요법	-10092
ific	-10093
▁240	-10094
▁Vol	-10095
▁중앙아시아	-10096
▁후쿠시마현	-10097
텍처	-10098
▁SL	-10099
▁깨끗	-10100
▁지녔	-10101
▁이성계	-10102
▁제작사	-10103
▁파이프	-10104
▁아키텍처	-10105
▁알렉산드리아	-10106
올로	-10107
▁qu	-10108
▁맞붙	-10109
▁".	-10110
▁밝힌	-10111
▁이건	-10112
▁양성자	-10113
▁High	-10114
▁번성	-10115
▁보강	-10116
▁청소	-10117
▁기념비	-10118
라이언트	-10119
교통	-10120
기념	-10121
▁Sk	-10122
▁달걀	-10123
▁자형	-10124
▁옮겨졌	-10125
▁콤팩트	-10126
▁토착종	-10127
토르	-10128
▁박지	-10129
▁활주	-10130
▁노태우	-10131
▁클라이언트	-10132
방울	-10133
어졌	-10134
▁데카	-10135
▁영등	-10136
▁1848	-10137
▁충청도	-10138
ave	-10139
▁ac	-10140
▁강철	-10141
▁공예	-10142
ions	-10143
▁극작가	-10144
가르	-10145
▁Im	-10146
▁도사	-10147
▁인디애나	-10148
▁함부르크	-10149
▁크롬	-10150
▁1891	-10151
▁광명	-10152
▁마카오	-10153
▁연기자	-10154
▁듀오	-10155
▁세바	-10156
▁나간다	-10157
▁새겨진	-10158
▁엘리트	-10159
ull	-10160
▁1886	-10161
▁더글러스	-10162
ris	-10163
▁단면	-10164
▁반전	-10165
▁이태	-10166
▁에디션	-10167
▁주어진다	-10168
▁례	-10169
그래	-10170
▁시야	-10171
▁유령	-10172
▁이북	-10173
▁카즈	-10174
▁폭로	-10175
▁둘러싸여	-10176
▁가열	-10177
▁명하	-10178
▁충북	-10179
▁청동기	-10180
▁비뉴	-10181
▁넘기	-10182
▁어로	-10183
▁진전	-10184
▁타지	-10185
▁어뢰	-10186
▁뻔	-10187
▁강동	-10188
▁팔레	-10189
▁그려진	-10190
곡동	-10191
처스	-10192
쿠버	-10193
▁DM	-10194
▁다를	-10195
▁조형	-10196
▁1887	-10197
고스	-10198
▁가계	-10199
▁그대	-10200
▁상경	-10201
▁버드	-10202
▁신축	-10203
▁여운	-10204
▁CBS	-10205
▁구마모토	-10206
▁얕	-10207
▁수료	-10208
▁시리	-10209
클레스	-10210
▁편집자	-10211
DA	-10212
그레	-10213
▁반공	-10214
▁약하	-10215
▁접수	-10216
▁조이	-10217
▁몰아내	-10218
▁앰	-10219
▁따랐	-10220
▁장원	-10221
▁피치	-10222
▁방사성	-10223
▁잡아먹	-10224
▁Star	-10225
▁텍사스주	-10226
ax	-10227
▁사적	-10228
▁역사가	-10229
▁마니	-10230
▁무명	-10231
▁브란	-10232
▁팟	-10233
▁극도	-10234
▁심화	-10235
▁종말	-10236
부르	-10237
▁마가	-10238
▁스님	-10239
▁싸워	-10240
테이션	-10241
▁가져오	-10242
▁도널드	-10243
▁홉	-10244
▁대관	-10245
▁장자	-10246
▁토요	-10247
▁쓰레기	-10248
▁페이스북	-10249
▁리히	-10250
▁인칭	-10251
▁현직	-10252
▁교육부	-10253
▁진행자	-10254
▁까닭	-10255
▁출석	-10256
해튼	-10257
▁농사	-10258
▁NGC	-10259
▁앨리스	-10260
▁씌	-10261
▁LC	-10262
▁그림자	-10263
▁사카이	-10264
▁Geor	-10265
▁륜	-10266
루아	-10267
▁관행	-10268
▁축조	-10269
▁프란체	-10270
▁Girl	-10271
니지	-10272
반구	-10273
▁단의	-10274
▁불타	-10275
▁적군	-10276
▁des	-10277
▁나란히	-10278
▁만주국	-10279
▁Comm	-10280
테면	-10281
▁IV	-10282
▁거처	-10283
▁광저우	-10284
▁이를테면	-10285
나우	-10286
▁북경	-10287
▁이룬	-10288
▁중공	-10289
▁브레이크	-10290
▁At	-10291
▁글래	-10292
▁카프	-10293
▁흥선	-10294
브리아	-10295
▁디트로	-10296
▁디트로이트	-10297
ym	-10298
▁온대	-10299
▁추종	-10300
▁포도당	-10301
파리	-10302
▁일간	-10303
▁전복	-10304
▁캐서	-10305
▁이주하	-10306
▁상가	-10307
▁안산	-10308
▁안치	-10309
▁입주	-10310
▁평민	-10311
ield	-10312
▁Eng	-10313
▁데스크	-10314
▁푸에르	-10315
▁애틀랜타	-10316
▁수녀	-10317
▁수중	-10318
▁일명	-10319
▁정관	-10320
▁치른	-10321
▁마르코	-10322
▁이동하	-10323
▁무함마드	-10324
▁궁중	-10325
▁메릴	-10326
▁한층	-10327
▁혀	-10328
미트	-10329
푸르	-10330
▁밀란	-10331
▁빈번	-10332
▁양육	-10333
▁용서	-10334
▁철폐	-10335
▁청색	-10336
▁취항	-10337
▁배우자	-10338
▁쓰시마	-10339
▁그렇지만	-10340
▁그리스인	-10341
푸아	-10342
▁대성당	-10343
▁올드	-10344
▁다항식	-10345
▁복소수	-10346
▁조반니	-10347
기구	-10348
▁의의	-10349
▁아나키	-10350
▁쟈	-10351
뜨렸	-10352
▁국유	-10353
▁신정	-10354
▁원격	-10355
▁재해	-10356
▁기관총	-10357
▁지방산	-10358
바른	-10359
▁워치	-10360
▁갤러리	-10361
▁일부분	-10362
▁스크립트	-10363
▁낮추	-10364
▁내성	-10365
▁대본	-10366
▁무술	-10367
▁안방	-10368
▁미주리	-10369
ative	-10370
포터	-10371
UC	-10372
질러	-10373
ger	-10374
▁발칸	-10375
▁아브	-10376
▁파병	-10377
▁줄거리	-10378
원장	-10379
▁연동	-10380
▁창의	-10381
▁Air	-10382
US	-10383
▁가볍	-10384
▁오락	-10385
▁이바라키	-10386
yd	-10387
▁보수당	-10388
▁아름답	-10389
▁시켰으며	-10390
its	-10391
▁라그	-10392
▁열심	-10393
▁통틀어	-10394
▁거뒀	-10395
▁광무	-10396
▁하타	-10397
스카르	-10398
▁레이싱	-10399
구역	-10400
▁김홍	-10401
▁수목	-10402
▁쿠니	-10403
ara	-10404
▁타협	-10405
▁확고	-10406
▁리프트	-10407
티넘	-10408
▁샌드	-10409
▁가브리	-10410
▁중공업	-10411
▁후반기	-10412
▁플래티넘	-10413
EM	-10414
사우	-10415
▁등용	-10416
▁피로	-10417
▁셜	-10418
▁교실	-10419
▁돌입	-10420
▁실적	-10421
▁SA	-10422
▁Up	-10423
▁구약	-10424
▁다나카	-10425
▁무조건	-10426
▁우상	-10427
▁자카	-10428
▁창시자	-10429
▁가산	-10430
▁도우	-10431
▁준주	-10432
▁헬륨	-10433
▁자세히	-10434
▁콘스탄티노폴리스	-10435
운다	-10436
으니	-10437
▁모호	-10438
▁애리	-10439
▁지성	-10440
▁징병	-10441
▁찬사	-10442
▁프레드	-10443
▁im	-10444
▁델타	-10445
▁영산	-10446
▁제왕	-10447
▁스타리그	-10448
▁준결승전	-10449
▁원더	-10450
▁일파	-10451
▁패럴	-10452
▁포식	-10453
▁된다면	-10454
▁삼국지	-10455
▁홍문관	-10456
▁다마	-10457
▁삼림	-10458
▁우물	-10459
▁지켰	-10460
▁콘솔	-10461
▁태백	-10462
ille	-10463
▁새로이	-10464
컨대	-10465
▁스노	-10466
▁다케다	-10467
▁1866	-10468
쩌둥	-10469
▁이득	-10470
▁소행성	-10471
▁마오쩌둥	-10472
▁무궁	-10473
▁신동	-10474
▁재난	-10475
▁테라	-10476
▁GB	-10477
▁다툼	-10478
▁델라	-10479
▁막스	-10480
▁명분	-10481
▁Good	-10482
▁부조	-10483
▁윤보	-10484
▁정맥	-10485
▁호의	-10486
텔레스	-10487
▁유권자	-10488
▁엮	-10489
▁루크	-10490
▁무스	-10491
▁민정	-10492
▁집결	-10493
▁선거법	-10494
▁클라크	-10495
콥터	-10496
▁도선	-10497
▁맹세	-10498
▁벽화	-10499
▁블리	-10500
▁자칭	-10501
▁현행	-10502
▁사무총장	-10503
가미	-10504
▁림프	-10505
▁왜구	-10506
▁해저	-10507
▁붙여진	-10508
▁갑옷	-10509
▁연못	-10510
▁의과	-10511
▁중서	-10512
▁칼뱅	-10513
vent	-10514
▁쥐과	-10515
▁1881	-10516
▁니콜라이	-10517
▁가네	-10518
▁로마인	-10519
▁리조트	-10520
에미	-10521
▁Kn	-10522
▁돌출	-10523
▁진수	-10524
▁타우	-10525
▁경쟁력	-10526
elf	-10527
ior	-10528
▁주이	-10529
air	-10530
▁갈리	-10531
▁르노	-10532
▁유료	-10533
▁호리	-10534
▁리더십	-10535
▁뉴클	-10536
▁로라	-10537
▁상기	-10538
▁소행	-10539
▁호응	-10540
▁int	-10541
▁매거진	-10542
▁맨해튼	-10543
사관학교	-10544
▁줘	-10545
여래	-10546
▁모인	-10547
▁안경	-10548
▁어리	-10549
▁이시카와	-10550
▁서리	-10551
▁이데	-10552
▁1876	-10553
▁DD	-10554
▁살려	-10555
▁세손	-10556
▁대웅전	-10557
ael	-10558
▁들려	-10559
하이오	-10560
▁카를로	-10561
▁오하이오	-10562
▁station	-10563
▁찐	-10564
▁-,	-10565
▁가오	-10566
▁공표	-10567
▁장제	-10568
▁타석	-10569
▁특색	-10570
▁티켓	-10571
erson	-10572
▁집정	-10573
▁Sci	-10574
▁실험실	-10575
▁아리스토텔레스	-10576
▁페미	-10577
▁합당	-10578
▁호스	-10579
▁내야수	-10580
▁자유민주당	-10581
▁네오	-10582
▁선장	-10583
▁후진	-10584
▁보헤미아	-10585
사업	-10586
▁불행	-10587
▁이모	-10588
▁ATP	-10589
▁흥선대원군	-10590
▁닫힌	-10591
▁매끄	-10592
▁심야	-10593
▁종양	-10594
▁줄여	-10595
▁겉보기	-10596
▁프라하	-10597
▁랍	-10598
니시	-10599
▁복권	-10600
▁페로	-10601
▁한국방송공사	-10602
▁넌	-10603
▁남용	-10604
▁마당	-10605
▁밀러	-10606
▁샌디	-10607
▁퍼포	-10608
▁동유럽	-10609
▁루돌프	-10610
uth	-10611
▁리만	-10612
▁아산	-10613
▁여권	-10614
▁강남구	-10615
불교	-10616
▁빛나	-10617
▁선우	-10618
▁다카라	-10619
▁단행본	-10620
▁미스터리	-10621
▁퍼포먼스	-10622
리언	-10623
▁기념관	-10624
▁생겨나	-10625
▁온다	-10626
▁자결	-10627
▁짐작	-10628
▁현감	-10629
▁법정동	-10630
▁우즈베키스탄	-10631
거래	-10632
▁아빠	-10633
▁보라	-10634
▁앞장	-10635
any	-10636
▁김제	-10637
▁비엔	-10638
▁표창	-10639
▁섀	-10640
▁감동	-10641
▁기성	-10642
▁드레	-10643
▁맞대	-10644
▁엄밀	-10645
▁정경	-10646
▁종파	-10647
▁넘어갔	-10648
▁였으므로	-10649
바흐	-10650
▁개항	-10651
▁동요	-10652
▁등극	-10653
▁라오	-10654
▁아데	-10655
▁을까	-10656
▁몸통	-10657
▁발각	-10658
▁소자	-10659
▁수교	-10660
▁마우스	-10661
▁정착지	-10662
▁일으킨다	-10663
산성	-10664
▁수심	-10665
▁연립	-10666
▁줄어	-10667
▁후작	-10668
자치시	-10669
▁from	-10670
▁특별자치시	-10671
▁vs	-10672
▁루비	-10673
▁본작	-10674
▁증인	-10675
▁마다가	-10676
▁과실	-10677
▁항원	-10678
▁Nor	-10679
▁Pol	-10680
▁토리노	-10681
▁뾰	-10682
멘스	-10683
▁공손	-10684
▁국악	-10685
▁만년	-10686
▁왕정	-10687
▁이완	-10688
▁전날	-10689
▁센고쿠	-10690
▁스트라이커	-10691
매매	-10692
▁강풍	-10693
▁압둘	-10694
▁총무	-10695
ange	-10696
공산	-10697
티시	-10698
▁끝났	-10699
▁문고	-10700
▁상연	-10701
▁카니	-10702
▁열린다	-10703
▁커리어	-10704
▁조인	-10705
▁스트라이크	-10706
▁낙동	-10707
▁약혼	-10708
▁호쿠	-10709
벨라	-10710
▁리보	-10711
▁모터스	-10712
▁쾰	-10713
▁보행	-10714
▁차용	-10715
▁쳐들	-10716
▁탁월	-10717
▁그레고리	-10718
▁Er	-10719
▁조지프	-10720
▁시즈오카	-10721
▁바트	-10722
▁용암	-10723
충류	-10724
▁결제	-10725
▁김병	-10726
▁말년	-10727
▁붙여졌	-10728
▁카탈루냐	-10729
▁가솔	-10730
▁흉노	-10731
▁내무부	-10732
난성	-10733
▁무척	-10734
▁위생	-10735
▁고추	-10736
▁고쿠	-10737
▁다테	-10738
▁배양	-10739
▁이점	-10740
▁포고	-10741
ator	-10742
▁고등교육	-10743
▁중원	-10744
▁투항	-10745
▁요제프	-10746
▁봉해	-10747
▁경질	-10748
▁신종	-10749
▁콘테	-10750
▁가이드	-10751
▁American	-10752
▁샐	-10753
▁낙하	-10754
▁난이	-10755
▁반역	-10756
▁평평	-10757
▁포착	-10758
▁Che	-10759
▁지지율	-10760
▁경인	-10761
▁정선	-10762
▁지로	-10763
▁마르틴	-10764
▁반란군	-10765
▁프랭클린	-10766
퍼슨	-10767
▁더비	-10768
▁배속	-10769
▁입수	-10770
▁중상	-10771
EG	-10772
▁헛	-10773
▁내면	-10774
▁동참	-10775
▁색소	-10776
▁생계	-10777
▁아이폰	-10778
▁볼셰비키	-10779
헌영	-10780
▁카바	-10781
면체	-10782
▁공약	-10783
▁급수	-10784
▁라디	-10785
▁유스	-10786
▁리모	-10787
▁상급	-10788
▁소울	-10789
▁실존	-10790
▁프롤	-10791
▁Out	-10792
▁대합실	-10793
▁유정	-10794
▁해리슨	-10795
▁Tour	-10796
사리	-10797
▁군산	-10798
▁제동	-10799
▁오로지	-10800
▁모용	-10801
▁정인	-10802
▁선보이	-10803
▁마르크스주의	-10804
맥스	-10805
홀름	-10806
▁벤치	-10807
▁정제	-10808
lin	-10809
▁메틸	-10810
▁유부	-10811
▁교통국	-10812
▁활주로	-10813
ww	-10814
▁AV	-10815
▁아날	-10816
▁재활	-10817
소통	-10818
▁도네	-10819
▁독창	-10820
▁듀얼	-10821
▁파나마	-10822
▁beta	-10823
십자	-10824
▁콜레	-10825
▁우왕	-10826
▁정국	-10827
▁대장군	-10828
▁올바른	-10829
▁화강암	-10830
▁나인	-10831
▁메라	-10832
▁문종	-10833
▁이장	-10834
▁마라톤	-10835
▁애리조	-10836
▁의사소통	-10837
▁괘	-10838
버리	-10839
▁가타	-10840
▁Super	-10841
▁걸린	-10842
▁모국	-10843
▁주지	-10844
▁Str	-10845
▁부드럽	-10846
▁인테르	-10847
▁Open	-10848
위성	-10849
▁시애	-10850
▁Sec	-10851
▁게릴라	-10852
▁분류군	-10853
▁성남시	-10854
▁아무것	-10855
▁투자자	-10856
▁1873	-10857
RT	-10858
▁예약	-10859
▁이반	-10860
▁수원시	-10861
▁러시아인	-10862
▁사운드트랙	-10863
LA	-10864
OV	-10865
지능	-10866
▁마차	-10867
▁우아	-10868
▁주화	-10869
▁호족	-10870
iver	-10871
▁대지진	-10872
▁올랐으며	-10873
▁인공지능	-10874
▁그레고리오	-10875
▁리마	-10876
▁본성	-10877
▁창문	-10878
▁Mic	-10879
▁Song	-10880
▁삼국사기	-10881
▁Korea	-10882
▁Li	-10883
▁구니	-10884
▁울리	-10885
▁멍	-10886
사와	-10887
▁신발	-10888
▁오로	-10889
▁중앙부	-10890
▁1861	-10891
▁다카라즈카	-10892
▁et	-10893
▁마에	-10894
▁주입	-10895
▁하류	-10896
▁동시대	-10897
▁프레이	-10898
▁괄	-10899
▁욕망	-10900
▁친분	-10901
▁바디	-10902
▁비늘	-10903
▁사탕	-10904
▁전산	-10905
▁칙령	-10906
▁프렌	-10907
▁시애틀	-10908
▁컴퓨팅	-10909
▁David	-10910
바오	-10911
틀리	-10912
▁각성	-10913
▁려던	-10914
▁슈테	-10915
▁퇴장	-10916
▁두려움	-10917
▁복음서	-10918
▁아키라	-10919
▁Wind	-10920
▁뉴클레오	-10921
RI	-10922
▁활발히	-10923
나드	-10924
미즈	-10925
▁ad	-10926
▁악보	-10927
▁출가	-10928
▁기병대	-10929
▁예수회	-10930
▁계시	-10931
▁이언	-10932
▁1872	-10933
▁낚	-10934
들여	-10935
▁관동	-10936
▁이송	-10937
▁충렬	-10938
▁카테	-10939
파이	-10940
▁전단	-10941
▁투여	-10942
ited	-10943
▁나트륨	-10944
▁1864	-10945
▁아케이드	-10946
▁정려	-10947
▁카터	-10948
▁Ber	-10949
▁오른손	-10950
▁후쿠오카현	-10951
▁슛	-10952
mun	-10953
▁야드	-10954
▁이규	-10955
▁비타민	-10956
▁후지와라노	-10957
▁쉴	-10958
거지	-10959
▁저격	-10960
▁세워져	-10961
▁신상	-10962
▁법조인	-10963
▁가의	-10964
▁관청	-10965
▁리비	-10966
▁전격	-10967
▁당내	-10968
▁오미	-10969
▁커플	-10970
▁케인	-10971
▁Des	-10972
▁꼽힌다	-10973
▁발라드	-10974
▁by	-10975
▁고든	-10976
▁아니하	-10977
▁우체국	-10978
▁NASA	-10979
▁광양	-10980
▁뾰족	-10981
▁이룩	-10982
▁하반	-10983
몰로지	-10984
▁이뤄졌	-10985
▁"-	-10986
▁브룩	-10987
▁ABC	-10988
▁Mac	-10989
▁1592	-10990
▁북아일랜드	-10991
▁마다가스카르	-10992
▁만장	-10993
▁정부군	-10994
▁골격	-10995
▁스태	-10996
▁제너	-10997
▁조례	-10998
▁앤더슨	-10999
amb	-11000
▁NP	-11001
▁배려	-11002
▁아스널	-11003
▁Mich	-11004
co	-11005
파크	-11006
▁감금	-11007
▁감싸	-11008
▁보성	-11009
▁원심	-11010
▁자생	-11011
▁지쿠	-11012
gu	-11013
▁소음	-11014
▁켈트	-11015
▁테일	-11016
▁교육청	-11017
▁시달리	-11018
▁브랜	-11019
▁조병	-11020
버러	-11021
▁경시	-11022
▁단과	-11023
▁불어	-11024
▁시종	-11025
▁향했	-11026
▁Pre	-11027
케이	-11028
▁오지	-11029
▁처하	-11030
▁MTV	-11031
▁어려웠	-11032
▁AI	-11033
▁간첩	-11034
▁로페	-11035
▁성실	-11036
▁는다면	-11037
▁댓	-11038
▁개개	-11039
▁분파	-11040
▁선천	-11041
▁수필	-11042
▁절정	-11043
▁해져	-11044
▁대사헌	-11045
▁보낸다	-11046
▁자란다	-11047
▁하노이	-11048
▁1878	-11049
▁떡	-11050
▁쾨	-11051
▁넷째	-11052
▁대중교통	-11053
▁유니버설	-11054
▁평안북도	-11055
▁쑤	-11056
▁조계	-11057
▁기관지	-11058
▁박헌영	-11059
▁헬리콥터	-11060
▁송신	-11061
▁아쿠	-11062
▁온갖	-11063
▁지청	-11064
▁총기	-11065
▁클러	-11066
▁팔렸	-11067
▁허드	-11068
▁주차장	-11069
▁평안남도	-11070
▁돌보	-11071
▁벤처	-11072
▁스로	-11073
▁시중	-11074
▁미군정	-11075
▁총사령관	-11076
▁볼트	-11077
▁의류	-11078
▁하키	-11079
▁나타냈	-11080
▁퍼스트	-11081
▁어군	-11082
체고	-11083
▁재질	-11084
▁준수	-11085
체고비나	-11086
▁1863	-11087
▁반성	-11088
▁이양	-11089
빌라이	-11090
▁세군다	-11091
▁해리스	-11092
aster	-11093
▁딥	-11094
▁라자	-11095
▁마술	-11096
▁수락	-11097
▁장대	-11098
▁진해	-11099
▁똑같이	-11100
▁마르쿠스	-11101
정리	-11102
▁영예	-11103
▁도피	-11104
▁섬세	-11105
▁1850	-11106
▁1865	-11107
▁궁궐	-11108
▁다투	-11109
▁대대로	-11110
▁윤보선	-11111
▁Best	-11112
▁Park	-11113
▁복식	-11114
▁블레	-11115
▁일당	-11116
▁가토	-11117
▁김옥	-11118
▁동이	-11119
▁리코	-11120
▁이겨	-11121
▁펌프	-11122
▁황도	-11123
페스트	-11124
▁가져온	-11125
▁알래스카	-11126
MP	-11127
▁리바	-11128
▁제노	-11129
▁센티미터	-11130
▁kt	-11131
▁김유	-11132
▁반하	-11133
▁성령	-11134
▁세븐	-11135
▁평형	-11136
▁가솔린	-11137
▁알렉스	-11138
ze	-11139
CAF	-11140
▁광도	-11141
▁도둑	-11142
▁사쿠	-11143
▁시부	-11144
▁펜싱	-11145
▁선구자	-11146
▁캐서린	-11147
▁나루	-11148
▁로리	-11149
▁메카	-11150
▁수염	-11151
▁시국	-11152
▁워커	-11153
▁올라갔	-11154
▁가늘	-11155
▁씨앗	-11156
▁조광	-11157
▁채취	-11158
다르	-11159
▁경호	-11160
▁이방	-11161
▁호크	-11162
▁헤르체고비나	-11163
▁취했	-11164
▁통용	-11165
▁브루스	-11166
▁상행	-11167
▁생선	-11168
▁수인	-11169
▁마닐라	-11170
▁미륵	-11171
▁민요	-11172
▁Red	-11173
▁www	-11174
ena	-11175
ery	-11176
▁김원	-11177
▁대국	-11178
▁불변	-11179
▁해남	-11180
▁비주얼	-11181
▁미야자키	-11182
▁느린	-11183
▁리옹	-11184
▁통역	-11185
▁피지	-11186
ella	-11187
▁Pla	-11188
▁신문사	-11189
▁Paul	-11190
▁우림	-11191
▁주임	-11192
▁타스	-11193
▁파문	-11194
▁사각형	-11195
▁사라진	-11196
▁솔로몬	-11197
▁1875	-11198
메다	-11199
무소	-11200
▁메뉴	-11201
▁무실	-11202
▁장시	-11203
▁숀	-11204
로쿠	-11205
삭스	-11206
▁하행	-11207
▁화기	-11208
▁Val	-11209
▁놀라운	-11210
▁스폰서	-11211
▁쿠빌라이	-11212
▁침묵	-11213
바야시	-11214
▁스톡홀름	-11215
▁James	-11216
▁노론	-11217
▁협업	-11218
▁화랑	-11219
▁비밀리	-11220
▁컬렉션	-11221
지기	-11222
▁ab	-11223
▁상어	-11224
▁소프	-11225
▁파손	-11226
▁휴게	-11227
▁만화가	-11228
▁쓰여진	-11229
▁그저	-11230
▁오클랜드	-11231
ux	-11232
▁대각	-11233
▁샤프	-11234
▁유목	-11235
▁창녕	-11236
▁초빙	-11237
▁노미야	-11238
▁케플러	-11239
테인	-11240
▁루키	-11241
▁분과	-11242
▁스가	-11243
▁정거	-11244
▁하시	-11245
01	-11246
▁맷	-11247
테쓰	-11248
▁급여	-11249
▁메일	-11250
▁부다	-11251
▁자제	-11252
▁전무	-11253
▁총애	-11254
▁Dream	-11255
마리	-11256
으로	-11257
▁목회	-11258
▁그래도	-11259
▁내려졌	-11260
▁튀르크	-11261
ations	-11262
들이	-11263
▁별세	-11264
▁이렇	-11265
▁즐길	-11266
▁쿠퍼	-11267
▁로렌스	-11268
▁아나톨	-11269
▁용인시	-11270
▁벅	-11271
▁경희	-11272
▁모차	-11273
▁이의	-11274
▁매직	-11275
▁정종	-11276
ough	-11277
코토	-11278
▁관문	-11279
▁로트	-11280
▁웨인	-11281
▁전담	-11282
▁철종	-11283
▁무궁화	-11284
▁왕세자	-11285
▁국수	-11286
▁제물	-11287
기념물	-11288
사고	-11289
▁RS	-11290
▁맞춘	-11291
▁비야	-11292
▁라이더	-11293
▁요지	-11294
▁지오	-11295
▁치환	-11296
공산당	-11297
국사	-11298
러지	-11299
려서	-11300
도르프	-11301
▁알파벳	-11302
▁플라톤	-11303
ros	-11304
▁강령	-11305
▁격리	-11306
▁국당	-11307
▁어쩔	-11308
▁찬양	-11309
▁칼럼	-11310
▁IOC	-11311
▁노동력	-11312
▁동물원	-11313
▁밴쿠버	-11314
▁여배우	-11315
▁gr	-11316
▁강렬	-11317
▁대법관	-11318
▁소피아	-11319
▁요시다	-11320
메스	-11321
ows	-11322
▁다윈	-11323
▁몽고	-11324
▁시합	-11325
▁경영자	-11326
▁천왕	-11327
▁동대문	-11328
▁친위대	-11329
▁Instit	-11330
▁샀	-11331
플로	-11332
▁방콕	-11333
▁전래	-11334
▁브레이	-11335
▁카메룬	-11336
▁프랜차	-11337
▁아름다움	-11338
▁라서	-11339
▁무작	-11340
▁위그	-11341
▁종식	-11342
▁한신	-11343
▁아이즈	-11344
에미리트	-11345
▁아랍에미리트	-11346
li	-11347
할시	-11348
eck	-11349
▁tr	-11350
▁루체	-11351
▁메스	-11352
▁문경	-11353
▁신지	-11354
▁학설	-11355
▁김정은	-11356
▁테무르	-11357
▁야마가타	-11358
▁함경남도	-11359
▁앗	-11360
▁고생	-11361
▁트릭	-11362
▁Bre	-11363
▁장학금	-11364
▁정의당	-11365
▁방치	-11366
▁슈타	-11367
▁익숙	-11368
미스	-11369
▁불참	-11370
▁연정	-11371
▁유의	-11372
▁케라	-11373
덴부르크	-11374
▁사서	-11375
▁시노	-11376
▁재팬	-11377
▁타일	-11378
▁레이크	-11379
제품	-11380
통일	-11381
rag	-11382
ype	-11383
▁로크	-11384
▁합친	-11385
▁거주자	-11386
▁클린턴	-11387
▁프랜차이즈	-11388
▁싣	-11389
▁미셸	-11390
▁박종	-11391
▁슬픔	-11392
관계	-11393
▁끼치	-11394
▁절망	-11395
▁직통	-11396
▁카지	-11397
▁테리	-11398
▁목요일	-11399
▁1867	-11400
▁프랑스인	-11401
▁강해	-11402
▁김규식	-11403
▁바이트	-11404
사상	-11405
ety	-11406
▁감상	-11407
▁삽화	-11408
▁카툰	-11409
▁스트로	-11410
yr	-11411
▁결별	-11412
▁퇴직	-11413
▁화약	-11414
▁방어선	-11415
▁튀니지	-11416
▁중퇴	-11417
▁블로	-11418
▁헬싱	-11419
raph	-11420
▁210	-11421
▁안테나	-11422
▁타이베이	-11423
▁플로리다주	-11424
▁이븐	-11425
▁빅토르	-11426
▁생존자	-11427
▁김형	-11428
▁실권	-11429
▁황소	-11430
▁다람쥐	-11431
▁죽인	-11432
▁쾰른	-11433
▁가브리엘	-11434
덕왕	-11435
▁메소	-11436
▁제명	-11437
▁글로브	-11438
▁타이어	-11439
▁펩	-11440
▁대영	-11441
▁수로	-11442
▁Cal	-11443
▁Mor	-11444
▁시네마	-11445
▁프랑스령	-11446
원수	-11447
▁나아	-11448
▁넘치	-11449
▁비대	-11450
▁정형	-11451
▁항체	-11452
illa	-11453
▁1869	-11454
▁King	-11455
▁즘	-11456
▁쿡	-11457
▁Sw	-11458
▁가혹	-11459
▁당연	-11460
▁로키	-11461
▁법관	-11462
▁차출	-11463
▁EBS	-11464
▁에이즈	-11465
환경	-11466
▁구두	-11467
▁역도	-11468
▁폐렴	-11469
▁가맹	-11470
▁냐는	-11471
▁매트	-11472
▁잠정	-11473
▁파도	-11474
▁하야	-11475
▁예컨대	-11476
▁아날로그	-11477
▁기전	-11478
▁너머	-11479
▁아츠	-11480
▁용액	-11481
▁자란	-11482
▁총통	-11483
▁티아	-11484
▁열심히	-11485
▁천연기념물	-11486
ney	-11487
▁왕권	-11488
▁치과	-11489
▁카피	-11490
▁펠트	-11491
▁330	-11492
석탑	-11493
치히	-11494
▁NT	-11495
▁연한	-11496
▁장단	-11497
▁쥐속	-11498
▁API	-11499
▁나타낸	-11500
▁스타트	-11501
▁소말리아	-11502
▁라흐	-11503
▁척도	-11504
▁평창	-11505
▁Thom	-11506
EP	-11507
부로	-11508
수스	-11509
▁부각	-11510
▁장흥	-11511
▁전전	-11512
층석탑	-11513
▁케이프	-11514
▁극우	-11515
▁불량	-11516
▁송도	-11517
▁실정	-11518
▁탄약	-11519
▁해독	-11520
▁위나라	-11521
▁잇따	-11522
▁절벽	-11523
▁탑신	-11524
▁판례	-11525
▁후배	-11526
▁간신히	-11527
▁다저스	-11528
▁도교	-11529
▁생긴다	-11530
▁엔트리	-11531
▁https	-11532
▁구실	-11533
▁니혼	-11534
▁러서	-11535
▁사방	-11536
▁애정	-11537
▁야외	-11538
▁칸국	-11539
▁대성전	-11540
▁오바마	-11541
▁Po	-11542
▁글러	-11543
▁모욕	-11544
▁소중	-11545
▁야전	-11546
▁재외	-11547
▁종자	-11548
▁추리	-11549
▁유격수	-11550
▁슬하	-11551
▁부르고	-11552
▁제퍼슨	-11553
▁찾아내	-11554
▁클레이	-11555
▁Club	-11556
▁Heart	-11557
▁CG	-11558
▁김선	-11559
▁유선	-11560
▁탄자	-11561
▁특전	-11562
▁화순	-11563
블랜드	-11564
테이너	-11565
▁검은색	-11566
▁서대문	-11567
▁초신성	-11568
▁프랜시스	-11569
▁가고	-11570
▁라리	-11571
▁보로	-11572
▁플리	-11573
▁예정자	-11574
히트	-11575
▁걸어	-11576
▁모세	-11577
▁영유	-11578
▁응급	-11579
▁징수	-11580
▁처지	-11581
▁캐리	-11582
▁형질	-11583
▁Ang	-11584
▁정치학	-11585
▁토스카	-11586
▁클리블랜드	-11587
리코	-11588
바나	-11589
ari	-11590
▁개헌	-11591
▁모셔	-11592
▁져서	-11593
▁크라이	-11594
OP	-11595
▁모의	-11596
▁연말	-11597
▁예의	-11598
▁원통	-11599
▁이터	-11600
▁드러냈	-11601
▁스카우트	-11602
칼리	-11603
▁겹쳐	-11604
▁공존	-11605
▁볼로	-11606
▁수복	-11607
▁SNS	-11608
▁긴테쓰	-11609
▁서재필	-11610
천면	-11611
▁설문	-11612
▁포털	-11613
▁폭파	-11614
▁개구리	-11615
▁대리인	-11616
▁예선전	-11617
▁가로지르	-11618
▁국한	-11619
▁모금	-11620
▁소극	-11621
▁여유	-11622
메이카	-11623
▁해상도	-11624
▁자메이카	-11625
▁늙	-11626
▁담보	-11627
▁드미	-11628
▁비추	-11629
▁카네	-11630
▁브루클린	-11631
▁챙	-11632
정원	-11633
▁감찰	-11634
▁검정	-11635
▁무네	-11636
▁세습	-11637
▁유혹	-11638
▁음절	-11639
▁초고	-11640
▁레이트	-11641
▁1830	-11642
▁고딕	-11643
▁삼중	-11644
▁외치	-11645
▁최선	-11646
▁패러디	-11647
▁필립스	-11648
▁타수	-11649
ray	-11650
▁++	-11651
▁암스	-11652
▁편향	-11653
▁교통부	-11654
천동	-11655
▁동진	-11656
▁드루	-11657
▁모하	-11658
▁앙골	-11659
▁트렌	-11660
▁메이커	-11661
유예	-11662
트르	-11663
▁바꿀	-11664
바이트	-11665
▁기차역	-11666
AI	-11667
휴일	-11668
app	-11669
▁격추	-11670
▁피리	-11671
▁타이거스	-11672
▁감성	-11673
▁다우	-11674
▁수양	-11675
▁은거	-11676
▁함자	-11677
네그로	-11678
▁적외선	-11679
▁1862	-11680
놀이	-11681
▁코소	-11682
▁농산물	-11683
▁명확히	-11684
▁헤이안	-11685
▁부르고뉴	-11686
애미	-11687
▁OB	-11688
▁거미	-11689
▁로버	-11690
▁서임	-11691
▁시몬	-11692
▁파일럿	-11693
▁Euro	-11694
▁마이애미	-11695
▁알렉산드로스	-11696
▁구내	-11697
▁산둥	-11698
▁농어	-11699
▁모빌	-11700
▁벌여	-11701
▁치유	-11702
▁현황	-11703
파니아	-11704
나마	-11705
▁성화	-11706
▁휩쓸	-11707
▁Act	-11708
▁라인업	-11709
▁부총리	-11710
ensis	-11711
▁뇨	-11712
대표	-11713
▁베트	-11714
▁순종	-11715
▁이회	-11716
▁청룡	-11717
▁City	-11718
AE	-11719
▁깜	-11720
▁묘비	-11721
▁비준	-11722
▁송출	-11723
▁정작	-11724
▁마법사	-11725
▁시코쿠	-11726
▁Rich	-11727
▁모차르트	-11728
▁캅	-11729
에몽	-11730
▁도래	-11731
▁독도	-11732
▁모색	-11733
▁묻혔	-11734
RE	-11735
워하	-11736
▁일리	-11737
해살이	-11738
▁오리온	-11739
▁comp	-11740
gan	-11741
▁공양	-11742
▁릴리	-11743
▁마땅	-11744
▁미친	-11745
▁바꿨	-11746
▁스텝	-11747
▁와라	-11748
cess	-11749
▁280	-11750
▁정거장	-11751
▁>	-11752
▁놈	-11753
어내	-11754
▁시크	-11755
▁플랑크	-11756
암동	-11757
▁관상	-11758
▁리베	-11759
▁사역	-11760
▁Mer	-11761
▁콘테스트	-11762
▁누렸	-11763
▁업자	-11764
▁총격	-11765
▁기숙사	-11766
▁자치주	-11767
메니	-11768
▁명소	-11769
웨이트	-11770
▁구금	-11771
▁벨리	-11772
▁양심	-11773
▁천거	-11774
▁편견	-11775
▁경전철	-11776
ision	-11777
▁올림피아	-11778
나기	-11779
▁사쓰	-11780
▁안녕	-11781
▁칼슘	-11782
▁320	-11783
▁리믹스	-11784
▁테네시	-11785
▁피라미	-11786
▁활동가	-11787
▁그라운드	-11788
▁엑스박스	-11789
▁프란체스코	-11790
▁sy	-11791
▁럭비	-11792
▁해태	-11793
▁나타날	-11794
ek	-11795
합성	-11796
▁요충	-11797
▁자서	-11798
▁시트콤	-11799
▁흐른다	-11800
▁연극배우	-11801
oo	-11802
신문	-11803
▁경복	-11804
▁끝날	-11805
▁다치	-11806
▁메디치	-11807
▁간사	-11808
▁모어	-11809
▁방대	-11810
▁평판	-11811
▁이치현	-11812
▁박테리아	-11813
▁톡	-11814
망디	-11815
제이	-11816
▁객차	-11817
▁무형	-11818
▁참사	-11819
berg	-11820
▁부원군	-11821
▁히브리	-11822
▁Tw	-11823
▁츄	-11824
▁문단	-11825
▁오만	-11826
▁스트리밍	-11827
▁율리우스	-11828
▁가락	-11829
▁든다	-11830
▁톱니	-11831
▁허정	-11832
▁지배자	-11833
의사	-11834
▁as	-11835
▁남해	-11836
▁몰타	-11837
▁열강	-11838
▁주계	-11839
▁추존	-11840
▁타현	-11841
▁파란	-11842
▁헤일	-11843
위원회	-11844
▁공휴일	-11845
▁달라지	-11846
▁드디어	-11847
▁NS	-11848
▁Rh	-11849
▁가중	-11850
▁유희	-11851
▁자명	-11852
▁Let	-11853
▁유적지	-11854
▁일본국	-11855
▁카스티야	-11856
수원	-11857
▁고쳤	-11858
▁리본	-11859
▁사설	-11860
▁악어	-11861
▁천국	-11862
▁치카	-11863
▁특화	-11864
▁저지대	-11865
▁쿠웨이트	-11866
▁가쿠	-11867
▁고노	-11868
▁어찌	-11869
▁에이전	-11870
▁이뤄지	-11871
▁굴절	-11872
▁내걸	-11873
▁무언	-11874
▁수위	-11875
▁스칸	-11876
▁실록	-11877
▁적료	-11878
▁힘썼	-11879
atch	-11880
uss	-11881
▁AL	-11882
▁검거	-11883
▁공파	-11884
▁관례	-11885
▁김광	-11886
▁신곡	-11887
▁OST	-11888
▁경주시	-11889
▁프로리그	-11890
지부	-11891
▁가우	-11892
▁산시	-11893
▁접종	-11894
▁1874	-11895
eb	-11896
▁부평	-11897
▁초안	-11898
▁함량	-11899
▁TBS	-11900
▁섰	-11901
피언	-11902
▁리카	-11903
▁Inc	-11904
▁유아기	-11905
▁관계없이	-11906
lation	-11907
▁Af	-11908
▁추력	-11909
▁다이쇼	-11910
▁마천루	-11911
▁말미암	-11912
카리	-11913
▁관용	-11914
▁레오폴	-11915
▁공소	-11916
▁노면	-11917
▁백두	-11918
▁심문	-11919
▁요절	-11920
▁Min	-11921
▁마이어	-11922
▁봇	-11923
▁바그너	-11924
레시	-11925
▁Sa	-11926
▁랴오	-11927
▁말단	-11928
▁아메	-11929
▁초콜	-11930
▁형벌	-11931
▁신도비	-11932
▁프린스	-11933
▁가고시마	-11934
BI	-11935
▁거란	-11936
▁국교	-11937
▁숙부	-11938
▁포토	-11939
▁김인	-11940
▁꼽히	-11941
▁맞춤	-11942
▁선명	-11943
work	-11944
▁지상파	-11945
za	-11946
▁성악	-11947
▁약해	-11948
▁조교	-11949
▁베이시스트	-11950
▁찢	-11951
말로	-11952
▁ML	-11953
▁귀신	-11954
▁마켓	-11955
▁사민	-11956
▁실증	-11957
▁씨족	-11958
▁여사	-11959
▁카카오	-11960
▁어시스트	-11961
번뇌	-11962
▁리사	-11963
▁부양	-11964
▁서산	-11965
▁시켜서	-11966
▁통신사	-11967
▁나카무라	-11968
ero	-11969
▁댄서	-11970
▁배드	-11971
▁비정	-11972
▁요격	-11973
▁키예프	-11974
▁4000	-11975
▁갈아	-11976
▁국외	-11977
▁금호	-11978
▁라기	-11979
▁무르	-11980
▁부교	-11981
▁외과	-11982
▁차선	-11983
▁몬테네그로	-11984
▁멧	-11985
▁녹화	-11986
▁달랐	-11987
▁봉인	-11988
▁심부	-11989
▁재편	-11990
스트리	-11991
▁...	-11992
▁가져다	-11993
▁단체전	-11994
▁미토콘	-11995
▁프란치	-11996
▁미토콘드리아	-11997
▁베어	-11998
▁부합	-11999
▁안개	-12000
▁케르	-12001
▁국제법	-12002
BL	-12003
▁엣	-12004
▁남산	-12005
▁배달	-12006
▁양보	-12007
▁제위	-12008
▁집정관	-12009
동자	-12010
▁김준	-12011
▁도키	-12012
▁백과	-12013
▁서태	-12014
▁엔드	-12015
▁합치	-12016
▁황색	-12017
마르크	-12018
▁연장전	-12019
▁왕건	-12020
▁중수	-12021
▁큐브	-12022
▁해치	-12023
▁iOS	-12024
▁방사능	-12025
▁몹	-12026
▁도박	-12027
▁회귀	-12028
스탄불	-12029
ular	-12030
▁이스탄불	-12031
ha	-12032
▁촐	-12033
ula	-12034
▁국철	-12035
▁램프	-12036
▁톈진	-12037
▁만난다	-12038
▁영원히	-12039
▁위구르	-12040
▁카스트	-12041
▁찔	-12042
브로	-12043
iew	-12044
▁아와	-12045
▁증폭	-12046
▁항만	-12047
로이드	-12048
▁뮐	-12049
워서	-12050
클레	-12051
풀이	-12052
▁계주	-12053
▁예종	-12054
▁위로	-12055
▁대원군	-12056
▁마누엘	-12057
▁중소기업	-12058
▁GM	-12059
▁tv	-12060
▁성곽	-12061
▁절감	-12062
▁절제	-12063
▁도자기	-12064
천사	-12065
▁Hol	-12066
▁뛰어났	-12067
▁졌으나	-12068
gy	-12069
▁DF	-12070
▁글꼴	-12071
▁기해	-12072
▁느낄	-12073
▁대북	-12074
▁반포	-12075
ling	-12076
▁일리노이주	-12077
돌이	-12078
amm	-12079
▁고의	-12080
▁모건	-12081
▁소외	-12082
▁커서	-12083
▁사회민주당	-12084
▁기이	-12085
▁사치	-12086
▁산성	-12087
▁서스	-12088
▁후예	-12089
▁인플레이션	-12090
프로	-12091
▁바젤	-12092
▁이메	-12093
▁중엽	-12094
▁230	-12095
▁College	-12096
RS	-12097
▁간략	-12098
▁모범	-12099
▁바지	-12100
▁AKB	-12101
▁부상자	-12102
▁줄기세포	-12103
▁늪	-12104
bur	-12105
▁김명	-12106
▁모라	-12107
▁접합	-12108
▁카세	-12109
▁한림	-12110
▁함양	-12111
▁페트로	-12112
▁Great	-12113
림픽	-12114
사카	-12115
센스	-12116
▁공성	-12117
▁배트	-12118
▁유서	-12119
▁타락	-12120
▁가면라이더	-12121
란토	-12122
▁수식	-12123
▁안무	-12124
▁위조	-12125
▁진로	-12126
▁마이크로	-12127
OU	-12128
▁공무	-12129
▁구독	-12130
▁그릴	-12131
▁긴밀	-12132
▁토트	-12133
▁Lou	-12134
CACAF	-12135
▁CONCACAF	-12136
ody	-12137
▁공영	-12138
▁덮개	-12139
▁때려	-12140
▁분사	-12141
▁선대	-12142
▁접한	-12143
▁준장	-12144
▁앤드루	-12145
▁여의도	-12146
▁피라미드	-12147
▁건전	-12148
▁유러	-12149
▁콜럼	-12150
▁시멘트	-12151
▁댈	-12152
por	-12153
▁Lo	-12154
▁라르	-12155
▁라바	-12156
▁주선	-12157
▁히토	-12158
▁270	-12159
▁LED	-12160
▁유러피언	-12161
▁노프	-12162
▁잠깐	-12163
▁독수리	-12164
▁동맹국	-12165
▁시켜야	-12166
▁영화상	-12167
▁메릴랜드	-12168
▁Michael	-12169
▁니키	-12170
▁리즈	-12171
▁부류	-12172
▁사림	-12173
▁습윤	-12174
▁점포	-12175
▁친족	-12176
▁피드	-12177
▁접어들	-12178
▁과테	-12179
▁만점	-12180
▁발상	-12181
▁소사	-12182
▁1200	-12183
▁고속버스	-12184
▁과테말라	-12185
대사	-12186
erv	-12187
▁근사	-12188
▁현은	-12189
대교	-12190
식성	-12191
헤드	-12192
▁머스	-12193
▁산요	-12194
▁임정	-12195
▁주심	-12196
▁260	-12197
▁낙동강	-12198
▁란트	-12199
▁사수	-12200
▁아유	-12201
▁온난	-12202
▁재일	-12203
▁조니	-12204
▁천천	-12205
▁이와테	-12206
▁Mart	-12207
거스	-12208
▁권역	-12209
▁치하	-12210
▁평지	-12211
▁표정	-12212
나갔	-12213
프턴	-12214
▁수다	-12215
추부사	-12216
클리드	-12217
▁뛰어들	-12218
▁컨트롤러	-12219
▁프로그래머	-12220
▁en	-12221
▁te	-12222
▁국공	-12223
▁최진	-12224
▁캐롤	-12225
▁대표자	-12226
▁뫼	-12227
▁요양	-12228
자동	-12229
▁대마	-12230
▁마셜	-12231
▁우시	-12232
프랑크	-12233
▁끝난다	-12234
▁스캔들	-12235
▁천천히	-12236
포시	-12237
▁남군	-12238
▁동적	-12239
▁은혜	-12240
▁JTBC	-12241
▁보수주의	-12242
▁패럴림픽	-12243
사태	-12244
정동	-12245
ope	-12246
▁마테	-12247
▁유공	-12248
▁종군	-12249
▁Rev	-12250
지아	-12251
▁KO	-12252
▁기량	-12253
▁박성	-12254
▁아이언	-12255
▁삼층석탑	-12256
캐슬	-12257
oid	-12258
▁단결	-12259
▁맡기	-12260
▁외래	-12261
▁하급	-12262
▁항우	-12263
▁흩어져	-12264
▁콥	-12265
▁거성	-12266
▁도출	-12267
▁어파	-12268
▁바스크	-12269
▁비서관	-12270
▁탄자니아	-12271
▁선봉	-12272
▁군사력	-12273
▁산스크	-12274
▁원산지	-12275
▁클라우	-12276
▁1879	-12277
▁산스크리트	-12278
▁쪼	-12279
▁TC	-12280
▁급증	-12281
▁리트	-12282
▁피할	-12283
▁미친다	-12284
xt	-12285
▁u	-12286
▁나간	-12287
▁바쳤	-12288
▁천주	-12289
▁로마자	-12290
▁세비야	-12291
▁어울리	-12292
▁제우스	-12293
▁야마모토	-12294
스기	-12295
팡이	-12296
▁밸리	-12297
▁종영	-12298
▁올리브	-12299
워스	-12300
▁무과	-12301
▁범행	-12302
▁연희	-12303
▁월터	-12304
▁정반	-12305
▁욱	-12306
▁훙	-12307
▁고로	-12308
▁딜런	-12309
▁모던	-12310
▁서면	-12311
▁앞선	-12312
▁하남	-12313
▁선진국	-12314
▁프레데	-12315
▁호스트	-12316
▁잃어버린	-12317
관리	-12318
▁기세	-12319
▁플러	-12320
▁흥분	-12321
▁wh	-12322
▁남방	-12323
▁셀레	-12324
▁았었	-12325
▁재래	-12326
▁화엄	-12327
▁공식전	-12328
▁스테파	-12329
▁하노버	-12330
▁해안선	-12331
ublic	-12332
▁Associ	-12333
화문	-12334
▁배아	-12335
▁병자	-12336
▁우한	-12337
▁정월	-12338
▁너무나	-12339
▁대단히	-12340
▁Inter	-12341
▁놓인	-12342
▁다듬	-12343
티모어	-12344
▁떠난다	-12345
▁체인지	-12346
▁노르망디	-12347
▁떨어진다	-12348
라니	-12349
아나	-12350
▁부름	-12351
▁시속	-12352
▁직속	-12353
▁뉴캐슬	-12354
▁로드리	-12355
▁연구회	-12356
▁쵸	-12357
자루	-12358
▁막판	-12359
▁봉화	-12360
▁즐거	-12361
▁하코	-12362
▁우울증	-12363
▁프로모	-12364
비크	-12365
셔주	-12366
▁데드	-12367
▁떠오르	-12368
▁경위	-12369
▁단속	-12370
▁마트	-12371
▁사비	-12372
▁안드	-12373
▁여도	-12374
데라	-12375
▁게끔	-12376
▁서귀	-12377
▁위함	-12378
▁은신	-12379
라이드	-12380
▁750	-12381
▁알아보	-12382
▁어긋나	-12383
yp	-12384
업자	-12385
▁주창	-12386
ates	-12387
▁도로는	-12388
▁치러졌	-12389
▁상관없이	-12390
▁와이번스	-12391
▁코스타리카	-12392
▁기쁨	-12393
▁미미	-12394
▁왕궁	-12395
▁프루	-12396
▁Bab	-12397
▁그랜트	-12398
▁다이어	-12399
▁북유럽	-12400
▁시간대	-12401
▁쳐들어	-12402
▁패트릭	-12403
▁맬	-12404
현동	-12405
▁능동	-12406
▁떠올	-12407
▁류큐	-12408
▁송파	-12409
▁외형	-12410
▁태후	-12411
▁혼다	-12412
▁App	-12413
▁단조	-12414
▁당뇨	-12415
▁우월	-12416
▁204	-12417
▁걸쳐서	-12418
▁무실점	-12419
▁스칼라	-12420
마주	-12421
화학	-12422
▁잔인	-12423
▁피크	-12424
웍스	-12425
▁결핵	-12426
▁노현	-12427
▁대도	-12428
▁비토	-12429
▁양수	-12430
▁자수	-12431
▁첼로	-12432
▁타로	-12433
▁루이지애나	-12434
▁세련	-12435
▁원군	-12436
▁정령	-12437
▁파푸아	-12438
▁미수	-12439
▁장덕	-12440
▁하의	-12441
▁1877	-12442
▁미나모토	-12443
NG	-12444
라고	-12445
히사	-12446
▁극락	-12447
▁신입	-12448
▁심근	-12449
▁대나무	-12450
▁법원장	-12451
▁레드삭스	-12452
▁관목	-12453
▁단정	-12454
▁뒤이	-12455
▁무서	-12456
▁반기	-12457
▁속력	-12458
▁지극	-12459
▁민병대	-12460
▁보너스	-12461
▁성매매	-12462
▁지닌다	-12463
▁달라진다	-12464
OD	-12465
다운	-12466
▁Ev	-12467
▁습관	-12468
▁저조	-12469
BT	-12470
uch	-12471
▁직행	-12472
▁산티아	-12473
▁}	-12474
▁랙	-12475
▁버터	-12476
▁상록	-12477
▁에른	-12478
▁우연	-12479
▁항로	-12480
▁공화정	-12481
▁대상자	-12482
▁Stud	-12483
▁줌	-12484
어사	-12485
용차	-12486
우회	-12487
▁교의	-12488
▁스루	-12489
▁장녀	-12490
▁캐피	-12491
▁학장	-12492
▁허블	-12493
▁후유	-12494
▁서바이	-12495
net	-12496
▁SH	-12497
▁복종	-12498
▁코리	-12499
▁키워	-12500
▁사이먼	-12501
▁생리학	-12502
▁Mi	-12503
▁새우	-12504
펜하겐	-12505
▁부르주	-12506
▁천안시	-12507
▁Phil	-12508
▁코펜하겐	-12509
▁사학	-12510
▁식스	-12511
▁전보	-12512
▁학력	-12513
▁헬레	-12514
▁달아났	-12515
▁라파엘	-12516
▁Center	-12517
▁가했	-12518
▁대차	-12519
▁조롱	-12520
▁줄리	-12521
▁아브라	-12522
▁토마토	-12523
▁싼	-12524
나오	-12525
▁기와	-12526
▁바울	-12527
▁에로	-12528
▁우산	-12529
▁지르	-12530
▁코네	-12531
▁신주쿠	-12532
▁앙골라	-12533
▁전반기	-12534
▁네이션스컵	-12535
ization	-12536
시노	-12537
▁대인	-12538
▁수력	-12539
▁트램	-12540
▁숨기	-12541
▁슬램	-12542
▁조영	-12543
▁할인	-12544
▁해피	-12545
▁내세우	-12546
▁판소리	-12547
▁고온	-12548
▁규탄	-12549
▁금전	-12550
▁대좌	-12551
▁매킨	-12552
▁북군	-12553
▁상국	-12554
▁헤어	-12555
▁휘말	-12556
▁비해서	-12557
▁암스테르담	-12558
위안	-12559
창호	-12560
oun	-12561
ura	-12562
▁각료	-12563
▁교직	-12564
▁군벌	-12565
▁라카	-12566
▁문무	-12567
▁미성	-12568
▁옮긴	-12569
▁유생	-12570
▁종신	-12571
▁서사시	-12572
네임	-12573
▁격려	-12574
▁교인	-12575
▁최영	-12576
▁헌장	-12577
▁San	-12578
▁다스렸	-12579
▁신세계	-12580
▁가와사키	-12581
토프	-12582
▁교부	-12583
▁보름	-12584
▁증오	-12585
▁Wii	-12586
▁둘러싸인	-12587
▁컨테이너	-12588
▁번갈	-12589
▁보령	-12590
▁부왕	-12591
▁성동	-12592
▁염려	-12593
▁족보	-12594
span	-12595
▁Fri	-12596
RC	-12597
▁갚	-12598
융합	-12599
▁덴쇼	-12600
▁발동	-12601
▁배분	-12602
▁백악	-12603
▁방위군	-12604
▁브뤼셀	-12605
▁파충류	-12606
퍼레이션	-12607
▁대승불교	-12608
▁사천	-12609
▁정정	-12610
▁에스페	-12611
du	-12612
▁배기	-12613
▁산물	-12614
▁소아	-12615
▁재앙	-12616
▁피우	-12617
▁니가타	-12618
▁노스캐롤라이나	-12619
▁샨	-12620
세유	-12621
▁관악	-12622
▁김윤	-12623
▁마요	-12624
▁가라앉	-12625
▁보여준	-12626
▁파시즘	-12627
▁핵융합	-12628
▁Stre	-12629
▁유클리드	-12630
▁덱	-12631
걸이	-12632
내리	-12633
▁고마	-12634
▁군데	-12635
▁레트	-12636
▁생모	-12637
▁자재	-12638
▁한문	-12639
▁데이브	-12640
▁1840	-12641
▁남하	-12642
▁당할	-12643
▁번창	-12644
▁진한	-12645
▁형용	-12646
▁초콜릿	-12647
▁요하네스	-12648
▁HP	-12649
▁동산	-12650
▁순차	-12651
▁원활	-12652
▁일각	-12653
▁일괄	-12654
▁현도	-12655
▁무작위	-12656
레반	-12657
▁가닥	-12658
▁거세	-12659
▁병마	-12660
▁형편	-12661
▁덩어리	-12662
▁MA	-12663
▁동포	-12664
▁쌍대	-12665
▁유우	-12666
▁이니	-12667
▁퍼즐	-12668
▁덧붙였	-12669
▁세네갈	-12670
▁스탠드	-12671
등식	-12672
▁결사	-12673
▁겹치	-12674
▁꿈꾸	-12675
▁약사	-12676
▁추서	-12677
▁출동	-12678
▁글래스	-12679
▁아라곤	-12680
▁윗부분	-12681
▁Mark	-12682
▁무안	-12683
▁었었	-12684
▁파편	-12685
▁헤로	-12686
▁장로교	-12687
▁미야기현	-12688
국적	-12689
▁라시	-12690
▁위력	-12691
▁co	-12692
▁워즈	-12693
▁픽셀	-12694
▁Met	-12695
▁이용객	-12696
▁해결책	-12697
▁관현악단	-12698
▁함경북도	-12699
▁농지	-12700
▁무색	-12701
▁무수	-12702
▁발목	-12703
▁Way	-12704
▁다이빙	-12705
▁박자	-12706
▁반동	-12707
▁정했	-12708
▁컨설	-12709
루이스	-12710
▁Sun	-12711
▁Tom	-12712
▁생겨난	-12713
디나비아	-12714
▁스칸디나비아	-12715
상어	-12716
셀러	-12717
▁꾀하	-12718
▁전세	-12719
▁제단	-12720
▁Mod	-12721
▁지리학	-12722
누마	-12723
▁UC	-12724
▁노후	-12725
▁밀레	-12726
▁온화	-12727
▁카마	-12728
▁한큐	-12729
▁Hen	-12730
▁피의자	-12731
▁Gener	-12732
버른	-12733
▁본체	-12734
▁오아	-12735
▁전락	-12736
▁수요일	-12737
▁포르노	-12738
▁후원자	-12739
▁1859	-12740
에고	-12741
▁등등	-12742
▁시비	-12743
▁요충지	-12744
▁프린스턴	-12745
▁냥	-12746
▁백악기	-12747
oot	-12748
▁거지	-12749
▁닉슨	-12750
▁물결	-12751
▁사안	-12752
▁전학	-12753
▁조슈	-12754
▁파열	-12755
▁결과물	-12756
▁도카이도	-12757
▁단말	-12758
▁받들	-12759
▁오디	-12760
▁수량	-12761
▁수열	-12762
▁우두	-12763
▁추억	-12764
▁칭송	-12765
▁음악원	-12766
▁정보원	-12767
▁지켜보	-12768
sy	-12769
열차	-12770
▁생도	-12771
▁샤이	-12772
▁스콜	-12773
▁연회	-12774
▁유식	-12775
▁교육자	-12776
▁바로크	-12777
▁장난감	-12778
▁폐기물	-12779
▁날카로운	-12780
▁도미니카	-12781
▁Record	-12782
▁렛	-12783
익스	-12784
▁강행	-12785
▁내분	-12786
▁식용	-12787
▁월트	-12788
▁위촉	-12789
▁켄트	-12790
▁급속히	-12791
▁내린다	-12792
▁자서전	-12793
▁좌의정	-12794
▁트리오	-12795
▁Blue	-12796
▁마르세유	-12797
▁산티아고	-12798
▁과잉	-12799
▁넬슨	-12800
▁성원	-12801
▁스모	-12802
▁광복군	-12803
▁주계열	-12804
▁반주	-12805
▁보낼	-12806
▁심포	-12807
▁로빈슨	-12808
DS	-12809
홍색	-12810
▁지층	-12811
▁홀리	-12812
▁루체른	-12813
▁철저히	-12814
▁텔레콤	-12815
▁대청	-12816
▁박상	-12817
▁양대	-12818
▁유족	-12819
▁탈취	-12820
토리코	-12821
▁Win	-12822
▁우의정	-12823
▁녕	-12824
협회	-12825
▁PL	-12826
▁라니	-12827
▁촉발	-12828
▁평했	-12829
ated	-12830
▁안티오	-12831
▁크리에이	-12832
▁괌	-12833
▁문집	-12834
▁미츠	-12835
▁생리	-12836
▁철강	-12837
▁한미	-12838
▁Dan	-12839
▁유학자	-12840
▁줄리아	-12841
라호	-12842
mus	-12843
▁소동	-12844
▁유영	-12845
▁이아	-12846
▁천수	-12847
▁포츠	-12848
▁해왕	-12849
urus	-12850
▁Bus	-12851
▁몰도바	-12852
▁해안가	-12853
▁허드슨	-12854
▁복음주의	-12855
▁Award	-12856
▁'-	-12857
▁랭크	-12858
▁마구	-12859
▁어는	-12860
▁이봉	-12861
▁장병	-12862
▁정몽	-12863
▁출자	-12864
레스트	-12865
▁per	-12866
▁정읍	-12867
▁휴게소	-12868
ren	-12869
▁가극	-12870
▁가부	-12871
▁단군	-12872
▁접해	-12873
▁카와	-12874
▁화장품	-12875
▁굶	-12876
▁세분	-12877
▁시안	-12878
▁웃음	-12879
▁휴양	-12880
▁녹색당	-12881
▁베이커	-12882
▁생성물	-12883
▁푸에르토리코	-12884
GM	-12885
게임	-12886
꿈치	-12887
▁네티	-12888
▁높였	-12889
▁버진	-12890
▁순례	-12891
▁의령	-12892
▁짐승	-12893
민스터	-12894
▁기업가	-12895
▁부다페스트	-12896
▁과시	-12897
▁노사	-12898
▁러일	-12899
▁피셔	-12900
브리드	-12901
▁멜버른	-12902
▁민영화	-12903
▁오스틴	-12904
▁장애물	-12905
히드	-12906
▁동향	-12907
▁소대	-12908
▁한번	-12909
▁어웨이	-12910
▁프리스	-12911
▁픽처스	-12912
▁cont	-12913
▁내무	-12914
▁외상	-12915
▁집착	-12916
▁갈라져	-12917
OW	-12918
공주	-12919
슈타	-12920
▁기뻐	-12921
▁하구	-12922
▁황산	-12923
▁빌바오	-12924
▁오스트리	-12925
▁포르투갈어	-12926
16	-12927
FF	-12928
▁운임	-12929
▁조셉	-12930
▁쿼크	-12931
▁그만큼	-12932
▁으려는	-12933
나파	-12934
론자	-12935
플린	-12936
ret	-12937
▁공대	-12938
▁까마	-12939
▁도상	-12940
▁라미	-12941
▁명인	-12942
▁자진	-12943
▁주성	-12944
▁기원후	-12945
▁롬바르	-12946
▁로얄	-12947
▁미아	-12948
▁재결	-12949
▁점검	-12950
▁톰슨	-12951
▁퍼졌	-12952
▁Big	-12953
▁Cap	-12954
▁하이브리드	-12955
▁목욕	-12956
▁취한	-12957
▁볼로냐	-12958
▁코소보	-12959
▁계량	-12960
▁정진	-12961
▁피핀	-12962
▁550	-12963
▁Rad	-12964
▁USB	-12965
▁von	-12966
▁왔으나	-12967
▁제갈량	-12968
▁육군사관학교	-12969
그마	-12970
몬트	-12971
▁귀속	-12972
▁옥타	-12973
▁650	-12974
▁무언가	-12975
▁셰익스	-12976
▁이바지	-12977
▁셰익스피어	-12978
▁취해	-12979
▁더블린	-12980
▁슌	-12981
▁대덕	-12982
▁레프	-12983
▁입헌	-12984
▁측량	-12985
▁들어섰	-12986
▁아세틸	-12987
▁야쿠르트	-12988
▁간혹	-12989
▁고집	-12990
▁높여	-12991
▁해부학	-12992
도라	-12993
▁RT	-12994
▁대주	-12995
▁어의	-12996
▁재발	-12997
▁펀드	-12998
리카락	-12999
atic	-13000
▁연출가	-13001
▁머리카락	-13002
서스	-13003
쓰기	-13004
타입	-13005
▁LS	-13006
▁장래	-13007
irst	-13008
▁스탠리	-13009
▁보루	-13010
▁Not	-13011
▁Sing	-13012
▁상정	-13013
▁세요	-13014
▁익명	-13015
▁조현	-13016
▁편안	-13017
▁흡사	-13018
▁Ver	-13019
▁사상가	-13020
▁역사학	-13021
▁유전학	-13022
서니	-13023
▁공안	-13024
▁불분	-13025
▁페트	-13026
▁Kar	-13027
▁차세대	-13028
▁중앙은행	-13029
▁Mr	-13030
▁구획	-13031
▁니켈	-13032
▁대진	-13033
▁리튬	-13034
▁요괴	-13035
▁자궁	-13036
▁풍습	-13037
▁함흥	-13038
▁발사체	-13039
▁TS	-13040
▁김승	-13041
▁새긴	-13042
▁정재	-13043
ning	-13044
▁밝혀진	-13045
▁쇠고기	-13046
▁제이슨	-13047
바리	-13048
ila	-13049
▁내일	-13050
▁대접	-13051
▁경계선	-13052
▁데일리	-13053
▁지붕돌	-13054
히메	-13055
lor	-13056
▁"'	-13057
▁AU	-13058
▁분단	-13059
▁스마	-13060
▁피사	-13061
▁GNU	-13062
▁동맹군	-13063
▁서해안	-13064
▁주니치	-13065
▁돌아다니	-13066
▁씻	-13067
▁촛	-13068
▁점거	-13069
▁지면	-13070
▁침례	-13071
▁헌터	-13072
▁대명사	-13073
▁외무부	-13074
▁교향악단	-13075
▁프리미엄	-13076
▁데미	-13077
▁켄터	-13078
▁이즈미	-13079
▁펠리페	-13080
▁아오모리	-13081
여객	-13082
ien	-13083
olf	-13084
▁눈치	-13085
▁배리	-13086
▁여호	-13087
▁청계	-13088
▁출혈	-13089
▁호아	-13090
▁매끄러운	-13091
비언	-13092
상시	-13093
타케	-13094
호란	-13095
▁SV	-13096
▁견디	-13097
▁당황	-13098
▁애인	-13099
▁오클라호	-13100
aj	-13101
oy	-13102
북구	-13103
EST	-13104
▁과연	-13105
▁바비	-13106
▁배역	-13107
▁전수	-13108
▁침대	-13109
▁기념일	-13110
▁애덤스	-13111
▁인공위성	-13112
▁길드	-13113
▁박수	-13114
▁합하	-13115
ship	-13116
▁사단장	-13117
▁데스크톱	-13118
▁온타리오주	-13119
▁웨스트민스터	-13120
▁가독	-13121
▁끝냈	-13122
▁보정	-13123
▁악곡	-13124
▁자릿	-13125
▁조공	-13126
▁호대	-13127
▁AB	-13128
▁강당	-13129
▁고스	-13130
▁리에	-13131
▁유머	-13132
▁재차	-13133
▁Fre	-13134
본부	-13135
ese	-13136
▁di	-13137
▁단국	-13138
▁라즈	-13139
▁손녀	-13140
▁약점	-13141
▁일설	-13142
▁차츰	-13143
ival	-13144
▁사절단	-13145
▁합창단	-13146
▁Ever	-13147
▁니콜라스	-13148
unction	-13149
▁마린	-13150
▁무단	-13151
▁소용	-13152
▁열전	-13153
▁김옥균	-13154
▁대표단	-13155
▁데니스	-13156
▁케이크	-13157
▁라가	-13158
▁마타	-13159
▁성기	-13160
▁오메	-13161
▁Hot	-13162
▁금나라	-13163
▁수차례	-13164
▁Back	-13165
▁돗	-13166
▁견고	-13167
▁도이	-13168
▁사영	-13169
▁영월	-13170
▁완결	-13171
▁유포	-13172
▁축전	-13173
▁항생	-13174
▁개체군	-13175
▁교토부	-13176
▁난이도	-13177
▁넷플	-13178
▁두각	-13179
▁아다	-13180
▁잔디	-13181
▁추이	-13182
ason	-13183
▁문자열	-13184
▁서초구	-13185
▁피닉스	-13186
▁넷플릭스	-13187
▁BL	-13188
▁거칠	-13189
▁기밀	-13190
▁몰랐	-13191
▁에반	-13192
▁유다	-13193
▁코난	-13194
▁IMF	-13195
▁Int	-13196
▁고려대	-13197
▁참모총장	-13198
▁Group	-13199
▁Techn	-13200
▁곶	-13201
▁핏	-13202
▁남송	-13203
▁놓이	-13204
▁배운	-13205
▁주먹	-13206
▁황자	-13207
▁고인돌	-13208
▁레이디	-13209
▁스테인	-13210
▁해운대	-13211
독립	-13212
콘신	-13213
aut	-13214
▁불경	-13215
▁용품	-13216
▁이황	-13217
▁국정원	-13218
▁위스콘신	-13219
▁지나간다	-13220
▁프란시스코	-13221
우에	-13222
▁기운	-13223
▁매리	-13224
▁신진	-13225
▁암모	-13226
▁양파	-13227
▁이항	-13228
▁자립	-13229
▁전권	-13230
▁청자	-13231
▁용의자	-13232
▁클리어	-13233
비츠	-13234
▁광선	-13235
▁리퍼	-13236
▁수하	-13237
▁죄수	-13238
▁경영학	-13239
▁발전기	-13240
▁뭐	-13241
▁강성	-13242
▁고흥	-13243
▁물류	-13244
▁바시	-13245
▁변종	-13246
▁스런	-13247
▁제창	-13248
▁터지	-13249
▁NAT	-13250
▁스포르	-13251
▁아무리	-13252
▁셴	-13253
꼬리	-13254
철수	-13255
▁남조	-13256
▁도약	-13257
▁선인	-13258
▁압록	-13259
▁포화	-13260
▁하임	-13261
itch	-13262
uman	-13263
▁WHO	-13264
▁국제선	-13265
▁뛰어넘	-13266
로폰	-13267
지리	-13268
▁간직	-13269
▁배척	-13270
▁사키	-13271
▁안나	-13272
▁애초	-13273
▁앤디	-13274
▁불분명	-13275
▁순양함	-13276
▁켄터키	-13277
▁경의	-13278
▁공판	-13279
▁혼혈	-13280
▁대금	-13281
▁아목	-13282
▁충무	-13283
▁파커	-13284
▁Are	-13285
▁봉우리	-13286
▁볼티모어	-13287
▁꽂	-13288
▁PP	-13289
▁구한	-13290
▁기스	-13291
▁미칠	-13292
▁원유	-13293
▁점진	-13294
▁중개	-13295
▁타시	-13296
▁피카	-13297
미디어	-13298
▁논리학	-13299
▁바람직	-13300
▁집행유예	-13301
▁프란치스코	-13302
▁Charles	-13303
▁깁	-13304
▁낙양	-13305
▁아님	-13306
▁양력	-13307
▁대니얼	-13308
▁라이프치히	-13309
▁로만	-13310
▁짐바	-13311
▁행방	-13312
▁관현악	-13313
▁전주시	-13314
▁경색	-13315
▁광자	-13316
▁오하	-13317
▁위계	-13318
▁협연	-13319
▁you	-13320
▁평안도	-13321
▁브릿	-13322
▁Tri	-13323
▁이뤄진	-13324
▁펠릭스	-13325
브웨	-13326
▁상한	-13327
▁온건	-13328
▁강화도	-13329
▁코스트	-13330
▁Hell	-13331
▁서주	-13332
▁오일	-13333
▁유능	-13334
▁의례	-13335
▁직계	-13336
▁혈압	-13337
▁UTC	-13338
▁간사이	-13339
XX	-13340
▁납부	-13341
▁필명	-13342
▁내보내	-13343
▁대공국	-13344
▁화요일	-13345
▁브리티시	-13346
티에	-13347
osa	-13348
▁TR	-13349
▁구슬	-13350
▁도성	-13351
▁면모	-13352
▁별장	-13353
▁부파	-13354
▁음운	-13355
오르크	-13356
▁Sal	-13357
▁Jose	-13358
▁에른스트	-13359
▁카르타고	-13360
▁프레임워크	-13361
▁경무	-13362
▁금산	-13363
▁비지	-13364
▁주세	-13365
▁특사	-13366
▁아카이	-13367
티노	-13368
폭탄	-13369
▁노랑	-13370
▁왕관	-13371
▁직사	-13372
▁해냈	-13373
▁개정안	-13374
▁황해도	-13375
ka	-13376
▁사내	-13377
▁얼룩	-13378
▁여고	-13379
▁열려	-13380
▁타리	-13381
▁퇴위	-13382
▁홀딩	-13383
▁환관	-13384
▁로이드	-13385
HC	-13386
▁겟	-13387
▁펫	-13388
쇼프	-13389
▁기고	-13390
▁반죽	-13391
▁축성	-13392
▁로스쿨	-13393
▁프랑코	-13394
▁무로마치	-13395
▁에스페란토	-13396
▁Institute	-13397
by	-13398
▁백업	-13399
▁Rem	-13400
▁보좌관	-13401
▁colspan	-13402
ll	-13403
▁@	-13404
▁싹	-13405
▁애완	-13406
▁청도	-13407
▁Reg	-13408
▁게시판	-13409
너드	-13410
▁그란	-13411
▁불사	-13412
▁송환	-13413
▁아드	-13414
▁한중	-13415
▁강서구	-13416
▁다시금	-13417
▁로맨틱	-13418
▁컨텐츠	-13419
▁뒤따	-13420
▁서예	-13421
▁에픽	-13422
▁베이비	-13423
▁전해졌	-13424
▁베르나르	-13425
▁여성주의	-13426
▁유니버스	-13427
▁핼	-13428
둘기	-13429
워즈	-13430
▁제철	-13431
▁코사	-13432
▁필연	-13433
▁근거지	-13434
▁업로드	-13435
▁하이퍼	-13436
of	-13437
▁뱃	-13438
들러	-13439
▁관우	-13440
▁발의	-13441
▁작중	-13442
▁조제	-13443
▁축산	-13444
▁포탄	-13445
▁절도사	-13446
olution	-13447
▁관성	-13448
▁다행	-13449
▁Pat	-13450
▁화학자	-13451
태평	-13452
▁강세	-13453
▁갖춰	-13454
▁베일	-13455
▁신대	-13456
▁토이	-13457
▁현미	-13458
▁기획사	-13459
▁슈퍼컵	-13460
▁두려워하	-13461
▁우에스기	-13462
▁am	-13463
▁군관	-13464
▁들리	-13465
▁레버	-13466
▁마애	-13467
▁스윙	-13468
▁스투	-13469
▁외환	-13470
▁정촌	-13471
▁조심	-13472
▁지법	-13473
▁서기관	-13474
▁축구팀	-13475
▁카운트	-13476
▁갯	-13477
ste	-13478
▁깃털	-13479
▁버티	-13480
▁산책	-13481
▁습득	-13482
▁열릴	-13483
▁완수	-13484
▁이범	-13485
▁Sam	-13486
▁보조금	-13487
▁사간원	-13488
▁케이트	-13489
▁도라에몽	-13490
하임	-13491
▁몰두	-13492
▁부에	-13493
▁석불	-13494
▁전미	-13495
▁친밀	-13496
▁스파이더	-13497
플레	-13498
▁급히	-13499
▁성산	-13500
▁가해자	-13501
▁브래드	-13502
▁장제스	-13503
▁This	-13504
err	-13505
▁도하	-13506
▁만날	-13507
▁발산	-13508
▁이례	-13509
▁천마	-13510
▁타구	-13511
▁페더	-13512
▁홈즈	-13513
르타뉴	-13514
변속기	-13515
▁밀가루	-13516
▁브르타뉴	-13517
▁붕어	-13518
▁이산	-13519
▁장전	-13520
▁페스	-13521
▁격투기	-13522
▁쩐	-13523
러진	-13524
리드	-13525
▁복위	-13526
▁오대	-13527
▁이호	-13528
▁토목	-13529
▁라고도	-13530
▁사쓰마	-13531
▁제조사	-13532
암리	-13533
친왕	-13534
cus	-13535
▁구강	-13536
▁낚시	-13537
▁벌레	-13538
▁위시	-13539
▁페오	-13540
▁피어	-13541
▁알아내	-13542
▁후세인	-13543
▁유라시아	-13544
▁처방	-13545
aint	-13546
▁재판관	-13547
▁레인저스	-13548
▁아지	-13549
▁임계	-13550
▁차수	-13551
▁황폐	-13552
▁흘리	-13553
▁이메일	-13554
▁초록색	-13555
니파	-13556
쿠르	-13557
▁섞여	-13558
▁죽임	-13559
▁흡연	-13560
▁노르드	-13561
▁펜실베이니아주	-13562
탄올	-13563
▁객원	-13564
▁내포	-13565
▁농축	-13566
▁이은	-13567
ball	-13568
▁Serv	-13569
▁노아	-13570
▁영정	-13571
▁용해	-13572
▁위패	-13573
▁으리	-13574
▁이누	-13575
▁컴필	-13576
▁태우	-13577
로니아	-13578
▁Net	-13579
▁대전차	-13580
▁컴필레이션	-13581
OT	-13582
bs	-13583
▁매진	-13584
▁무자	-13585
▁삼척	-13586
▁조소	-13587
▁팔린	-13588
▁피처	-13589
▁두꺼운	-13590
▁모멘트	-13591
▁범죄자	-13592
press	-13593
▁가로질러	-13594
▁재단법인	-13595
단위	-13596
▁공시	-13597
▁나마	-13598
▁맥아	-13599
▁미식	-13600
▁일진	-13601
▁착취	-13602
ional	-13603
▁구르	-13604
▁선율	-13605
▁영덕	-13606
▁단거리	-13607
ey	-13608
께끼	-13609
▁경매	-13610
▁아흐	-13611
▁울릉	-13612
▁장쑤	-13613
▁조개	-13614
▁태아	-13615
▁특기	-13616
▁행정동	-13617
▁수수께끼	-13618
▁렙	-13619
데자	-13620
▁구시	-13621
▁독주	-13622
▁산기	-13623
▁원상	-13624
부아르	-13625
▁Bel	-13626
▁그나마	-13627
데자네이	-13628
▁아틀레틱	-13629
ci	-13630
▁고이	-13631
▁긴키	-13632
▁아어	-13633
▁양조	-13634
▁이력	-13635
▁저해	-13636
▁정예	-13637
▁채굴	-13638
▁처해	-13639
▁효자	-13640
▁도망치	-13641
▁포항시	-13642
▁푹	-13643
다오	-13644
큐어	-13645
ama	-13646
rid	-13647
▁CV	-13648
▁근래	-13649
▁김치	-13650
▁로브	-13651
▁스기	-13652
▁시문	-13653
▁Ear	-13654
▁벗어난	-13655
▁수나라	-13656
▁제작진	-13657
▁교통사고	-13658
▁대종	-13659
▁버러	-13660
▁아자	-13661
▁죽여	-13662
▁Sim	-13663
▁서포터	-13664
▁낭만주의	-13665
광성	-13666
▁AA	-13667
▁뒤늦	-13668
▁마나	-13669
▁아디	-13670
▁여타	-13671
바도르	-13672
▁좌표계	-13673
▁가르시아	-13674
▁펭	-13675
▁빅뱅	-13676
▁승단	-13677
▁영사	-13678
▁치우	-13679
▁현판	-13680
ural	-13681
▁짐바브웨	-13682
▁프로모션	-13683
▁거꾸	-13684
▁경마	-13685
▁야망	-13686
▁여건	-13687
▁Alb	-13688
▁경복궁	-13689
▁까마귀	-13690
▁따라가	-13691
▁오일러	-13692
▁이성질	-13693
ility	-13694
▁게오르크	-13695
▁광업	-13696
▁청량	-13697
▁패권	-13698
▁아이콘	-13699
▁화성시	-13700
▁삐	-13701
▁경도	-13702
▁공법	-13703
▁나름	-13704
▁볼넷	-13705
▁조장	-13706
▁주고	-13707
른베르크	-13708
▁1858	-13709
로니	-13710
▁괴로	-13711
▁투하	-13712
▁교구장	-13713
▁2023	-13714
데자네이루	-13715
▁Light	-13716
▁리우데자네이루	-13717
보리	-13718
성경	-13719
유사	-13720
▁구치	-13721
▁대의	-13722
▁동창	-13723
▁저우	-13724
▁Wil	-13725
▁네티즌	-13726
▁안산시	-13727
QL	-13728
클럽	-13729
▁FK	-13730
▁구문	-13731
▁반점	-13732
▁실각	-13733
▁자코	-13734
▁재벌	-13735
▁달아나	-13736
▁위안부	-13737
▁Thomas	-13738
MC	-13739
▁무고	-13740
▁쓰루	-13741
▁제르	-13742
▁후미	-13743
▁흑백	-13744
▁Off	-13745
▁비스타	-13746
▁우간다	-13747
▁이어주	-13748
네트	-13749
두르	-13750
분열	-13751
▁살짝	-13752
▁스몰	-13753
▁스킬	-13754
▁채색	-13755
▁다국적	-13756
▁카이로	-13757
▁Association	-13758
짜기	-13759
▁용감	-13760
▁탐험가	-13761
ION	-13762
▁과다	-13763
▁납작	-13764
▁발포	-13765
▁선양	-13766
▁전과	-13767
▁코모	-13768
▁공방전	-13769
▁로베르	-13770
▁보안법	-13771
▁삼각주	-13772
▁홈경기	-13773
▁기통	-13774
▁다목	-13775
▁섹션	-13776
▁영암	-13777
▁유무	-13778
▁칭했	-13779
▁반대파	-13780
▁슈타인	-13781
▁유기체	-13782
▁버섯	-13783
▁버크	-13784
▁증식	-13785
▁도르트	-13786
▁종착역	-13787
▁'.	-13788
▁George	-13789
예술	-13790
▁계보	-13791
▁부두	-13792
▁비싼	-13793
▁섬기	-13794
▁기후현	-13795
▁참의원	-13796
▁트로트	-13797
즐리	-13798
▁RC	-13799
▁관내	-13800
▁양현	-13801
▁잔해	-13802
▁전교	-13803
▁탄산	-13804
▁페인	-13805
▁Tim	-13806
▁걸린다	-13807
▁운전자	-13808
▁재판부	-13809
▁요리토모	-13810
들였	-13811
비안	-13812
▁도제	-13813
▁발톱	-13814
▁원동	-13815
▁자판	-13816
▁조준	-13817
▁증세	-13818
▁직관	-13819
▁초전	-13820
▁촌은	-13821
▁활자	-13822
▁경종	-13823
▁던졌	-13824
▁인제	-13825
▁코호	-13826
▁페라	-13827
19	-13828
왕후	-13829
테이	-13830
▁맡겼	-13831
▁박진	-13832
▁사변	-13833
▁성자	-13834
▁여진족	-13835
▁인해서	-13836
▁조선왕	-13837
▁편집장	-13838
▁남베트남	-13839
미니	-13840
▁거룩	-13841
▁라드	-13842
▁바인	-13843
▁소라	-13844
▁열렬	-13845
▁인위	-13846
▁통지	-13847
▁한창	-13848
▁해병	-13849
올로기	-13850
▁205	-13851
▁공연장	-13852
▁기동전	-13853
▁이데올로기	-13854
게스	-13855
▁다닌	-13856
▁라크	-13857
▁리키	-13858
▁진원	-13859
▁진흙	-13860
▁코마	-13861
▁키릴	-13862
▁파직	-13863
▁편제	-13864
▁평탄	-13865
▁계승자	-13866
▁앤서니	-13867
▁움직일	-13868
▁Gold	-13869
디언	-13870
자원	-13871
▁네모	-13872
▁배지	-13873
▁카레	-13874
▁파랑	-13875
▁목적지	-13876
▁선제골	-13877
▁클레멘스	-13878
ya	-13879
▁괜	-13880
▁경량	-13881
▁슈고	-13882
▁왕성	-13883
▁응하	-13884
▁재고	-13885
▁필하	-13886
▁유전체	-13887
▁작품상	-13888
▁증조부	-13889
▁Free	-13890
▁아우구스	-13891
▁씬	-13892
ita	-13893
▁고모	-13894
▁떠날	-13895
▁스킴	-13896
▁헌납	-13897
▁감리교	-13898
▁조선소	-13899
▁드미트리	-13900
▁상파	-13901
▁에마	-13902
▁정황	-13903
▁통폐	-13904
▁필두	-13905
솔리니	-13906
▁대리석	-13907
▁중공군	-13908
▁두드러지	-13909
▁샴	-13910
▁군세	-13911
▁너스	-13912
▁신봉	-13913
▁알맞	-13914
▁햇빛	-13915
▁거꾸로	-13916
▁여학생	-13917
▁부르주아	-13918
▁세르게이	-13919
▁스테이트	-13920
▁피츠버그	-13921
▁극찬	-13922
▁앞세	-13923
▁유태	-13924
▁카슈	-13925
▁Cla	-13926
▁부분군	-13927
▁사업소	-13928
▁충렬왕	-13929
▁키르기스	-13930
LE	-13931
▁감추	-13932
▁거스	-13933
▁에프	-13934
▁처한	-13935
▁커졌	-13936
▁쿠라	-13937
▁파기	-13938
▁야구단	-13939
▁q	-13940
지오	-13941
▁꺼내	-13942
▁내림	-13943
▁삼존	-13944
▁승상	-13945
▁킹스	-13946
eder	-13947
▁고려사	-13948
▁관련자	-13949
▁쑨	-13950
디슨	-13951
▁카야	-13952
▁탁구	-13953
▁갔으며	-13954
▁신석기	-13955
▁후쿠이	-13956
▁Ap	-13957
▁굴복	-13958
▁머니	-13959
▁세레	-13960
▁스톰	-13961
▁엇갈	-13962
▁토트넘	-13963
▁Jean	-13964
▁트레이닝	-13965
▁Champ	-13966
▁미나모토노	-13967
활약	-13968
▁Kh	-13969
▁부전	-13970
▁시원	-13971
▁아편	-13972
▁에치	-13973
▁잡히	-13974
▁Sil	-13975
▁숨겨진	-13976
바인	-13977
con	-13978
▁걸작	-13979
▁경건	-13980
▁란스	-13981
▁res	-13982
▁스코어	-13983
▁자외선	-13984
itz	-13985
▁김연	-13986
▁머무	-13987
▁위즈	-13988
▁파파	-13989
▁판관	-13990
▁휩싸	-13991
▁경쟁자	-13992
▁라치오	-13993
▁맹활약	-13994
▁조나라	-13995
▁끔	-13996
클라	-13997
▁나뭇	-13998
▁단서	-13999
▁분경	-14000
▁소작	-14001
▁악당	-14002
▁연행	-14003
▁올레	-14004
▁윤석	-14005
▁End	-14006
▁백악관	-14007
▁승용차	-14008
▁올리버	-14009
직경	-14010
oul	-14011
▁사나	-14012
▁청송	-14013
▁캐치	-14014
▁합금	-14015
ency	-14016
▁공통점	-14017
▁통폐합	-14018
go	-14019
바지	-14020
포타	-14021
▁대담	-14022
▁세간	-14023
▁열쇠	-14024
▁클릭	-14025
▁CIA	-14026
▁당선자	-14027
▁손잡이	-14028
▁시직경	-14029
▁하얀색	-14030
비오	-14031
▁곱셈	-14032
▁명부	-14033
▁복역	-14034
▁음주	-14035
▁줄일	-14036
▁1856	-14037
▁댓글	-14038
▁루나	-14039
▁에바	-14040
▁오자	-14041
▁워킹	-14042
▁이거	-14043
▁일지	-14044
▁206	-14045
▁Alex	-14046
▁세계유산	-14047
▁컴파일러	-14048
▁DB	-14049
▁XP	-14050
▁기미	-14051
▁내재	-14052
▁중랑	-14053
▁자릿수	-14054
포타미아	-14055
earch	-14056
▁매사추세츠주	-14057
▁메소포타미아	-14058
▁교제	-14059
▁반항	-14060
▁사교	-14061
스코트	-14062
▁Cro	-14063
▁Mat	-14064
▁아닌가	-14065
▁일본식	-14066
▁타타르	-14067
▁가두	-14068
▁건널	-14069
▁마모	-14070
▁뽑혔	-14071
▁용사	-14072
▁조경	-14073
▁코뮌	-14074
▁호크스	-14075
▁스케이트	-14076
매김	-14077
코타	-14078
▁강우	-14079
▁도산	-14080
▁러닝	-14081
▁보류	-14082
▁부실	-14083
▁오구	-14084
▁체내	-14085
▁튼튼	-14086
ush	-14087
▁매스	-14088
▁시르	-14089
▁중고	-14090
▁충당	-14091
▁꿰	-14092
▁콧	-14093
▁그랬	-14094
▁금고	-14095
▁도도	-14096
▁세단	-14097
▁접전	-14098
▁주저	-14099
▁청각	-14100
▁취향	-14101
▁과반수	-14102
▁터뜨리	-14103
▁헤라클레스	-14104
린트	-14105
▁당과	-14106
▁보직	-14107
▁온두	-14108
▁지경	-14109
ness	-14110
▁독립군	-14111
▁프론트	-14112
해살이풀	-14113
▁온두라스	-14114
▁프라이즈	-14115
슬레	-14116
코르	-14117
▁국부	-14118
▁방공	-14119
▁복직	-14120
▁유타	-14121
▁증발	-14122
▁쿼터	-14123
▁하스	-14124
▁Mil	-14125
▁하반기	-14126
라이어티	-14127
▁Soci	-14128
번에	-14129
퇴근	-14130
▁야심	-14131
▁원제	-14132
▁장신	-14133
▁정명	-14134
▁타도	-14135
▁트란	-14136
▁센다이	-14137
▁용산구	-14138
▁1700	-14139
▁6000	-14140
▁베스트셀러	-14141
니크	-14142
루크	-14143
▁괄호	-14144
▁로니	-14145
▁복싱	-14146
▁서거	-14147
▁신해	-14148
▁입술	-14149
▁최장	-14150
▁해시	-14151
▁sub	-14152
▁바이어	-14153
▁베네딕토	-14154
▁버라이어티	-14155
yt	-14156
▁가명	-14157
▁가비	-14158
▁두어	-14159
▁옹주	-14160
▁자행	-14161
▁직물	-14162
▁토라	-14163
▁380	-14164
▁모나코	-14165
▁포식자	-14166
▁무솔리니	-14167
▁자리매김	-14168
세다	-14169
▁구부	-14170
▁라다	-14171
▁레비	-14172
▁산수	-14173
▁순항	-14174
▁항문	-14175
▁Die	-14176
▁들어올	-14177
▁출입문	-14178
느리	-14179
쿠니	-14180
▁나빠	-14181
▁사커	-14182
▁앞둔	-14183
▁푸아	-14184
▁다가오	-14185
▁생화학	-14186
▁잼	-14187
뜨려	-14188
훈장	-14189
▁과격	-14190
▁메츠	-14191
▁묻혀	-14192
▁버펄	-14193
▁엘런	-14194
▁와이드	-14195
▁해석학	-14196
▁1812	-14197
▁고등학생	-14198
▁페르난도	-14199
▁엡	-14200
입자	-14201
젤로	-14202
▁Bu	-14203
▁해지	-14204
태평양	-14205
▁마르셀	-14206
▁지질학	-14207
▁구스타프	-14208
▁미네소타	-14209
▁Trans	-14210
▁나사	-14211
▁단자	-14212
▁레아	-14213
▁성수	-14214
▁아타	-14215
▁증강	-14216
▁발가락	-14217
▁출퇴근	-14218
▁심리학자	-14219
▁코퍼레이션	-14220
니티	-14221
▁병과	-14222
▁알폰	-14223
▁오우	-14224
▁전리	-14225
▁천상	-14226
▁흐루	-14227
▁액세스	-14228
▁Jack	-14229
▁아이디얼	-14230
메드	-14231
▁Ca	-14232
▁고국	-14233
▁의용	-14234
▁종업	-14235
▁지탱	-14236
▁칭기	-14237
▁쿠로	-14238
▁티저	-14239
▁705	-14240
▁게임기	-14241
▁본거지	-14242
▁슬로건	-14243
수단	-14244
으면	-14245
일치	-14246
▁교지	-14247
▁뷰티	-14248
▁요즘	-14249
▁출세	-14250
rich	-14251
▁가리켜	-14252
▁레인저	-14253
▁언론사	-14254
▁김희	-14255
▁다닐	-14256
▁상의	-14257
▁성가	-14258
▁오트	-14259
▁인승	-14260
▁자폐	-14261
▁작년	-14262
▁토로	-14263
뉴기니	-14264
▁보살상	-14265
era	-14266
fin	-14267
vin	-14268
▁북대	-14269
▁아델	-14270
▁오즈	-14271
▁완비	-14272
▁천지	-14273
urch	-14274
▁Arm	-14275
▁외교부	-14276
▁입법부	-14277
▁1801	-14278
▁Soul	-14279
▁중등	-14280
ague	-14281
▁다이스	-14282
▁승정원	-14283
▁압록강	-14284
▁치료법	-14285
▁8000	-14286
▁매립	-14287
▁적발	-14288
▁절약	-14289
▁환율	-14290
▁였음을	-14291
▁치료제	-14292
효소	-14293
▁뉴런	-14294
▁모반	-14295
▁모신	-14296
▁연달	-14297
▁청문	-14298
▁패해	-14299
▁der	-14300
리쿠	-14301
▁SO	-14302
▁계좌	-14303
▁모조	-14304
▁베풀	-14305
▁상선	-14306
▁이별	-14307
▁취할	-14308
▁후드	-14309
▁마그네	-14310
▁히타치	-14311
평리	-14312
ops	-14313
▁넘겼	-14314
▁배향	-14315
▁변모	-14316
▁부군	-14317
▁위헌	-14318
▁조어	-14319
▁God	-14320
▁무사히	-14321
▁세인트루이스	-14322
TE	-14323
거나	-14324
퉁이	-14325
RNA	-14326
▁가든	-14327
▁급성	-14328
▁새뮤	-14329
▁앵커	-14330
▁영천	-14331
▁잔존	-14332
▁잠실	-14333
▁추후	-14334
▁연주회	-14335
▁폼페이	-14336
루엔	-14337
▁경지	-14338
▁닌자	-14339
▁모닝	-14340
▁악명	-14341
▁국민회	-14342
▁수비대	-14343
▁창립자	-14344
attle	-14345
▁후지와라	-14346
▁법전	-14347
▁부추	-14348
▁어우	-14349
▁종묘	-14350
▁체하	-14351
▁탐정	-14352
▁터빈	-14353
▁사보이	-14354
▁루스벨트	-14355
DI	-14356
▁낡	-14357
las	-14358
▁수이	-14359
▁자정	-14360
ocial	-14361
네오	-14362
▁PA	-14363
▁더러	-14364
▁에겐	-14365
▁유익	-14366
▁참패	-14367
▁야마다	-14368
▁저지른	-14369
▁캐스트	-14370
▁대강	-14371
▁무도	-14372
▁위법	-14373
▁256	-14374
▁게오르	-14375
▁줄어든	-14376
▁칭기즈	-14377
▁1857	-14378
ham	-14379
▁김천	-14380
▁다량	-14381
▁동자	-14382
▁민물	-14383
▁손님	-14384
▁쇼크	-14385
▁현무	-14386
ters	-14387
▁Street	-14388
ca	-14389
els	-14390
▁Du	-14391
▁글렌	-14392
▁네임	-14393
▁사소	-14394
▁지문	-14395
▁토키	-14396
타나베	-14397
▁dis	-14398
▁쥘	-14399
진구	-14400
▁삭스	-14401
▁양면	-14402
▁지그	-14403
▁친화	-14404
▁하라	-14405
▁향기	-14406
선거구	-14407
▁거쳐서	-14408
▁사무국	-14409
▁주고받	-14410
▁행해졌	-14411
▁싯	-14412
인구	-14413
▁%(	-14414
▁에트	-14415
▁오보	-14416
▁옥시	-14417
▁유망	-14418
▁타임즈	-14419
▁썩	-14420
렌스	-14421
질렀	-14422
▁강호	-14423
▁렉스	-14424
▁미지	-14425
▁생길	-14426
▁서한	-14427
▁솔라	-14428
▁심정	-14429
▁조시	-14430
▁지체	-14431
▁관심사	-14432
▁인지도	-14433
▁United	-14434
▁콜드	-14435
▁튜브	-14436
▁협곡	-14437
▁She	-14438
▁유니언	-14439
▁1854	-14440
▁West	-14441
▁석가모니	-14442
▁파시스트	-14443
▁가방	-14444
▁공상	-14445
▁처치	-14446
가르트	-14447
▁Bad	-14448
▁팔꿈치	-14449
▁형용사	-14450
▁Miss	-14451
티컷	-14452
▁AF	-14453
▁모함	-14454
▁미인	-14455
▁블러	-14456
▁숙소	-14457
▁승하	-14458
▁우마	-14459
▁잠입	-14460
▁포대	-14461
oman	-14462
▁서스펜	-14463
▁스트림	-14464
▁오르간	-14465
▁인산화	-14466
▁이와테현	-14467
▁코네티컷	-14468
zy	-14469
▁간판	-14470
▁과자	-14471
▁율리	-14472
▁이강	-14473
▁적정	-14474
▁전멸	-14475
▁수시로	-14476
▁연예계	-14477
▁NATO	-14478
▁남양주시	-14479
15	-14480
지로	-14481
▁승지	-14482
▁시진	-14483
▁청년회	-14484
PA	-14485
ude	-14486
▁기묘	-14487
▁명상	-14488
▁엘라	-14489
▁오름	-14490
▁오산	-14491
atus	-14492
▁도르트문트	-14493
▁아우구스투스	-14494
▁샵	-14495
▁국호	-14496
▁그럴	-14497
▁베라	-14498
▁초음	-14499
▁하중	-14500
▁보컬리스트	-14501
VA	-14502
펠러	-14503
ule	-14504
▁객실	-14505
▁꼬마	-14506
▁수레	-14507
▁위도	-14508
▁임하	-14509
▁철자	-14510
▁홍성	-14511
▁갈라지	-14512
▁변한다	-14513
▁새뮤얼	-14514
▁스테이	-14515
▁조각상	-14516
▁With	-14517
르바	-14518
방향	-14519
▁미학	-14520
▁시역	-14521
▁심상	-14522
▁이달	-14523
▁입시	-14524
▁향신	-14525
▁시티즌	-14526
▁회고록	-14527
▁마스코트	-14528
니오	-14529
동맹	-14530
der	-14531
▁고난	-14532
▁마티	-14533
▁병단	-14534
▁에두	-14535
▁왓슨	-14536
변수	-14537
정보	-14538
▁계엄	-14539
▁교동	-14540
▁국인	-14541
▁스에	-14542
▁자켓	-14543
▁모국어	-14544
▁차가운	-14545
▁프라임	-14546
▁Elect	-14547
▁Europe	-14548
▁쿰	-14549
달마	-14550
알라	-14551
▁도발	-14552
▁루즈	-14553
▁린다	-14554
▁발자	-14555
▁유화	-14556
▁징집	-14557
▁파주	-14558
▁화음	-14559
플레잉	-14560
▁항아리	-14561
▁1798	-14562
▁롤플레잉	-14563
▁아나톨리아	-14564
▁꾸며	-14565
▁리차	-14566
▁매도	-14567
▁신의	-14568
▁여정	-14569
▁저축	-14570
▁라이스	-14571
▁적십자	-14572
▁제너럴	-14573
ittle	-14574
▁1815	-14575
▁Richard	-14576
킨슨	-14577
▁등단	-14578
▁몸돌	-14579
▁유미	-14580
▁릴레이	-14581
▁발기인	-14582
▁보리스	-14583
▁파주시	-14584
티야	-14585
▁간결	-14586
▁논하	-14587
▁번개	-14588
▁풀리	-14589
야누스	-14590
▁불가피	-14591
▁홀딩스	-14592
▁국세	-14593
▁변증	-14594
▁und	-14595
▁신기록	-14596
▁이브스	-14597
▁HTML	-14598
▁고찰	-14599
▁리브	-14600
▁변질	-14601
▁실사	-14602
▁최하	-14603
mann	-14604
aceae	-14605
▁트라야누스	-14606
나주	-14607
블릿	-14608
▁--	-14609
▁곡면	-14610
▁귀인	-14611
▁서위	-14612
▁수급	-14613
▁안기	-14614
▁정박	-14615
▁참수	-14616
▁행군	-14617
▁Sum	-14618
▁됐으나	-14619
▁장로회	-14620
▁1855	-14621
▁에이전트	-14622
빌리	-14623
참찬	-14624
▁Ju	-14625
▁ON	-14626
▁it	-14627
▁사주	-14628
▁연중	-14629
▁예프	-14630
▁완만	-14631
▁을사	-14632
▁이야	-14633
리아스	-14634
▁도망쳤	-14635
▁종업원	-14636
▁탈레반	-14637
▁페르디난트	-14638
ird	-14639
▁당당	-14640
▁당파	-14641
▁도봉	-14642
▁생몰	-14643
▁영미	-14644
▁지석	-14645
▁처장	-14646
▁칸트	-14647
▁토록	-14648
▁허목	-14649
▁대교구	-14650
▁와세다	-14651
▁인코딩	-14652
▁플러그	-14653
▁협동조합	-14654
▁inter	-14655
던트	-14656
에스	-14657
▁근방	-14658
▁지린	-14659
▁포탑	-14660
▁라면서	-14661
▁북조선	-14662
▁What	-14663
▁괜찮	-14664
▁금색	-14665
▁니케	-14666
▁헌병	-14667
드라마	-14668
▁웨이브	-14669
▁코트디	-14670
▁코트디부아르	-14671
HD	-14672
▁WC	-14673
▁nm	-14674
▁강진	-14675
▁서지	-14676
▁숙박	-14677
▁시우	-14678
▁완도	-14679
▁제천	-14680
▁중용	-14681
▁침식	-14682
▁횡령	-14683
▁강력히	-14684
▁다비드	-14685
▁반대편	-14686
▁억제제	-14687
▁유엔군	-14688
러져	-14689
▁구아	-14690
▁무가	-14691
▁부풀	-14692
▁키즈	-14693
▁팔작	-14694
▁표절	-14695
▁현과	-14696
▁Ger	-14697
▁1839	-14698
▁캣	-14699
뛰기	-14700
렐라	-14701
혈구	-14702
ipp	-14703
▁농성	-14704
▁닛산	-14705
▁실렸	-14706
▁지아	-14707
▁지요	-14708
▁차림	-14709
▁휘발	-14710
니언	-14711
르카	-14712
▁걸프	-14713
▁라벨	-14714
▁상동	-14715
▁서점	-14716
▁폐허	-14717
세우스	-14718
▁Ben	-14719
▁다마스	-14720
▁낯	-14721
니코	-14722
▁균일	-14723
▁기판	-14724
▁동거	-14725
▁봉수	-14726
▁세토	-14727
▁오시	-14728
▁이선	-14729
▁판명	-14730
▁경희대	-14731
▁박영효	-14732
▁백과사전	-14733
▁친선경기	-14734
ee	-14735
▁밧	-14736
더지	-14737
▁kW	-14738
▁어선	-14739
▁조서	-14740
▁포니	-14741
▁히노	-14742
▁708	-14743
▁가르쳐	-14744
▁운동량	-14745
▁위너스	-14746
yle	-14747
▁노브	-14748
▁단수	-14749
▁몹시	-14750
▁베오	-14751
▁불로	-14752
▁앨라	-14753
▁원한	-14754
▁진언	-14755
▁현악	-14756
▁열역학	-14757
▁항생제	-14758
▁쇼트트랙	-14759
▁프랑스와	-14760
사화	-14761
och	-14762
▁농가	-14763
▁밸브	-14764
▁벵골	-14765
▁사귀	-14766
▁텐서	-14767
▁건륭제	-14768
▁안동시	-14769
▁쿠르드	-14770
▁Play	-14771
▁South	-14772
▁서아프리카	-14773
타스	-14774
▁NA	-14775
▁나일	-14776
▁능가	-14777
▁머큐	-14778
▁안식	-14779
▁원사	-14780
▁후면	-14781
▁시니어	-14782
▁Just	-14783
▁마을버스	-14784
▁와타나베	-14785
▁시즈오카현	-14786
▁군자	-14787
▁노란	-14788
▁세가	-14789
▁열반	-14790
▁투신	-14791
▁amp	-14792
▁바닷물	-14793
▁트레일	-14794
▁페르미	-14795
북면	-14796
▁KS	-14797
▁강인	-14798
▁무비	-14799
▁사와	-14800
▁절친	-14801
▁표출	-14802
▁회유	-14803
▁돌아갈	-14804
▁예비역	-14805
▁이노우에	-14806
▁trans	-14807
UN	-14808
▁둠	-14809
▁볶	-14810
조사	-14811
▁냐고	-14812
▁앨리	-14813
▁일선	-14814
▁당뇨병	-14815
▁대항전	-14816
▁시마즈	-14817
▁1789	-14818
GA	-14819
ij	-14820
할린	-14821
▁거사	-14822
▁멋진	-14823
▁면직	-14824
▁빈민	-14825
▁어촌	-14826
▁촛불	-14827
▁최남	-14828
▁해킹	-14829
합중국	-14830
▁Nat	-14831
▁김성수	-14832
▁사생활	-14833
레타리아	-14834
ental	-14835
▁프롤레타리아	-14836
▁cc	-14837
▁유골	-14838
▁내려와	-14839
▁ha	-14840
▁340	-14841
▁Mad	-14842
▁부적절	-14843
▁스테판	-14844
리아누스	-14845
iness	-14846
▁믈	-14847
미쓰	-14848
use	-14849
▁그물	-14850
▁대목	-14851
▁레티	-14852
▁성대	-14853
▁티모	-14854
▁데뷔작	-14855
▁진주시	-14856
▁http	-14857
▁뮈	-14858
▁뵈	-14859
▁툼	-14860
내티	-14861
넌트	-14862
▁규율	-14863
▁동종	-14864
▁로큰	-14865
▁사하	-14866
▁숙련	-14867
▁온실	-14868
▁질투	-14869
▁칼륨	-14870
▁Sur	-14871
▁중생대	-14872
▁컴파일	-14873
▁신시내티	-14874
▁안드레아	-14875
단지	-14876
전선	-14877
▁금동	-14878
▁대타	-14879
▁집어	-14880
▁Bra	-14881
▁How	-14882
▁제프리	-14883
▁출판물	-14884
ks	-14885
발트	-14886
▁래리	-14887
▁바덴	-14888
▁자처	-14889
▁공학자	-14890
▁받침돌	-14891
▁변광성	-14892
▁크루즈	-14893
▁플루토	-14894
▁다이노스	-14895
▁삼국유사	-14896
벤션	-14897
프랑	-14898
▁도적	-14899
▁문정	-14900
▁삭감	-14901
▁손목	-14902
▁영락	-14903
▁친한	-14904
▁고성군	-14905
▁담당자	-14906
▁프로테	-14907
두사	-14908
뮬러	-14909
▁가곡	-14910
▁독살	-14911
▁행보	-14912
▁209	-14913
▁다면서	-14914
▁스피커	-14915
▁정해져	-14916
▁필사본	-14917
OK	-14918
세키	-14919
ars	-14920
▁슬리	-14921
▁웨어	-14922
▁인대	-14923
▁착각	-14924
▁광둥성	-14925
▁로큰롤	-14926
▁예언자	-14927
▁저널리스트	-14928
▁겨루	-14929
▁라라	-14930
▁몸체	-14931
▁비료	-14932
▁청취	-14933
▁구단주	-14934
▁반감기	-14935
▁패스트	-14936
▁대한항공	-14937
▁콜럼버스	-14938
▁클러스터	-14939
▁목동	-14940
▁봉하	-14941
▁은밀	-14942
▁자부	-14943
▁자질	-14944
▁젠더	-14945
▁중견	-14946
▁축일	-14947
절도사	-14948
▁NHL	-14949
▁사하라	-14950
ga	-14951
▁챈	-14952
▁Lu	-14953
▁길러	-14954
▁다자	-14955
▁루피	-14956
▁브렌	-14957
▁새겼	-14958
▁용수	-14959
▁댈러스	-14960
▁보유자	-14961
▁야마나	-14962
▁접미사	-14963
▁핸드볼	-14964
▁팻	-14965
▁VS	-14966
▁구타	-14967
▁단역	-14968
▁미에	-14969
▁민심	-14970
▁사각	-14971
▁수만	-14972
▁슈투	-14973
▁야수	-14974
▁캐슬	-14975
▁퇴단	-14976
ones	-14977
▁MSL	-14978
▁Und	-14979
▁사라져	-14980
▁스케치	-14981
▁앨라배	-14982
▁원자핵	-14983
화당	-14984
irt	-14985
umb	-14986
▁늘려	-14987
▁비키	-14988
▁산청	-14989
▁염화	-14990
▁치사	-14991
▁키로	-14992
스타인	-14993
▁mod	-14994
▁네이트	-14995
▁데이트	-14996
▁소학교	-14997
▁호소카와	-14998
▁아나키스트	-14999
자드	-15000
▁국력	-15001
▁기조	-15002
▁바투	-15003
▁복부	-15004
▁시의	-15005
▁자루	-15006
▁출품	-15007
▁키드	-15008
▁통찰	-15009
▁수도회	-15010
▁영유권	-15011
▁학술지	-15012
▁됩	-15013
▁결말	-15014
▁교파	-15015
▁변해	-15016
▁봉황	-15017
▁싫어	-15018
▁임종	-15019
▁잉크	-15020
▁316	-15021
▁사대부	-15022
▁사이즈	-15023
크라테스	-15024
▁미합중국	-15025
▁아비달마	-15026
▁White	-15027
▁썰	-15028
방군	-15029
▁KN	-15030
▁송진	-15031
▁밝혀져	-15032
▁아이젠	-15033
▁합성어	-15034
▁헤르만	-15035
▁흔들리	-15036
order	-15037
▁1400	-15038
▁남아시아	-15039
▁오프라인	-15040
▁코호몰로지	-15041
▁Company	-15042
10	-15043
▁궐	-15044
arm	-15045
▁ft	-15046
▁다비	-15047
▁미끄	-15048
▁볼록	-15049
▁빅터	-15050
▁빌드	-15051
▁심플	-15052
▁연화	-15053
▁Lee	-15054
LC	-15055
산부	-15056
▁MM	-15057
▁로잔	-15058
▁어사	-15059
▁자유형	-15060
▁1851	-15061
▁켐	-15062
▁가모	-15063
▁어부	-15064
▁요도	-15065
▁첩보	-15066
▁헤겔	-15067
▁Pop	-15068
▁리스본	-15069
▁허베이	-15070
▁브로드웨이	-15071
▁Sn	-15072
▁이목	-15073
▁조비	-15074
▁후루	-15075
▁개그맨	-15076
▁부여군	-15077
▁유년기	-15078
▁1814	-15079
▁Hist	-15080
▁Franc	-15081
▁Windows	-15082
▁CT	-15083
▁거시	-15084
▁북벌	-15085
▁셔틀	-15086
▁승률	-15087
▁텍스	-15088
▁토유	-15089
▁획기	-15090
▁EMI	-15091
▁머큐리	-15092
▁며느리	-15093
▁캐스터	-15094
▁1849	-15095
▁Road	-15096
▁FS	-15097
▁불복	-15098
▁불쾌	-15099
▁세무	-15100
▁외척	-15101
▁키트	-15102
▁강대국	-15103
▁내세웠	-15104
▁미카엘	-15105
▁핵분열	-15106
다발	-15107
마디	-15108
▁막강	-15109
▁매듭	-15110
▁양궁	-15111
▁욕계	-15112
▁웍스	-15113
▁직렬	-15114
▁폴라	-15115
▁푸드	-15116
▁하수	-15117
▁이랜드	-15118
▁풀려났	-15119
▁팔작지붕	-15120
▁라이베리아	-15121
정사	-15122
제비	-15123
▁결여	-15124
▁기린	-15125
▁아칸	-15126
▁입히	-15127
▁자취	-15128
▁집사	-15129
▁충칭	-15130
▁푸틴	-15131
▁혼잡	-15132
▁골짜기	-15133
▁상반기	-15134
▁즐거움	-15135
▁호흡기	-15136
▁데카르트	-15137
▁Sound	-15138
센터	-15139
양이	-15140
▁bl	-15141
▁맡겨	-15142
▁모체	-15143
▁성품	-15144
▁순식	-15145
▁유구	-15146
▁지치	-15147
▁패킷	-15148
▁고분군	-15149
▁레코딩	-15150
▁여객기	-15151
▁조각가	-15152
▁Long	-15153
▁조선왕조	-15154
▁관위	-15155
▁모사	-15156
▁모티	-15157
▁법제	-15158
▁상과	-15159
▁시시	-15160
▁시온	-15161
▁염두	-15162
▁의복	-15163
▁터너	-15164
▁지하역	-15165
▁찾아와	-15166
▁채권자	-15167
▁최성기	-15168
▁그린란드	-15169
▁경화	-15170
▁심소	-15171
▁양군	-15172
▁열악	-15173
▁이심	-15174
▁노르만	-15175
▁일부러	-15176
▁콜린스	-15177
▁크메르	-15178
▁함경도	-15179
▁혼합물	-15180
중추부사	-15181
▁사무라이	-15182
▁걸음	-15183
▁골라	-15184
▁구례	-15185
▁넘버	-15186
▁엘레	-15187
▁유자	-15188
▁활기	-15189
▁베르타	-15190
▁세미나	-15191
▁주나라	-15192
더링	-15193
▁나쁘	-15194
▁박원	-15195
▁유이	-15196
▁재화	-15197
▁출국	-15198
▁취직	-15199
▁키리	-15200
루엔자	-15201
▁머물러	-15202
▁1846	-15203
ump	-15204
unk	-15205
▁교서	-15206
▁다룰	-15207
▁열세	-15208
▁일차	-15209
▁패치	-15210
▁펼친	-15211
▁tvN	-15212
▁바나나	-15213
▁아우르	-15214
▁프레슬리	-15215
▁브란덴부르크	-15216
고르	-15217
몽골	-15218
욕장	-15219
위치	-15220
▁내란	-15221
▁유림	-15222
▁저그	-15223
▁컵스	-15224
▁타이탄	-15225
▁1820	-15226
▁일렉트릭	-15227
▁비스마르크	-15228
구나	-15229
▁Ha	-15230
▁구세	-15231
▁기한	-15232
▁꽃잎	-15233
▁여럿	-15234
▁재회	-15235
▁정실	-15236
▁나리타	-15237
▁내세워	-15238
▁로타르	-15239
▁수백만	-15240
▁케이드	-15241
▁신한은행	-15242
▁조선공산당	-15243
EA	-15244
▁메드	-15245
▁상식	-15246
▁수역	-15247
▁시제	-15248
▁연해	-15249
▁이질	-15250
▁정글	-15251
▁출격	-15252
▁피질	-15253
▁Tor	-15254
▁게임즈	-15255
▁노벨상	-15256
▁힐베르트	-15257
14	-15258
▁du	-15259
▁동탁	-15260
▁로시	-15261
▁베크	-15262
▁보그	-15263
▁소박	-15264
▁외면	-15265
▁콜린	-15266
▁투니	-15267
레이트	-15268
▁NBC	-15269
▁가이아	-15270
▁사나이	-15271
▁재미있	-15272
▁서바이벌	-15273
▁개표	-15274
▁겸직	-15275
▁니까	-15276
▁닉스	-15277
▁바늘	-15278
▁쌍성	-15279
▁오도	-15280
▁뉴기니	-15281
▁물려주	-15282
▁엑스포	-15283
▁올라오	-15284
▁인플루엔자	-15285
▁일렉트로닉	-15286
▁탬	-15287
▁기공	-15288
▁면담	-15289
▁박재	-15290
▁박찬	-15291
▁변혁	-15292
▁양서	-15293
▁유충	-15294
▁평방	-15295
이치로	-15296
rown	-15297
▁Max	-15298
▁공군기지	-15299
인산	-15300
ram	-15301
▁의정	-15302
▁중남	-15303
▁형주	-15304
▁앨버트	-15305
▁외계인	-15306
▁항공편	-15307
▁Over	-15308
▁SR	-15309
▁뮐러	-15310
▁바보	-15311
▁바쿠	-15312
▁쏟아	-15313
▁영수	-15314
▁율법	-15315
▁충신	-15316
▁반정부	-15317
▁종사자	-15318
▁흐루쇼프	-15319
▁땀	-15320
▁가뭄	-15321
▁라프	-15322
▁미켈	-15323
▁타밀	-15324
▁208	-15325
▁Gra	-15326
▁마포구	-15327
ection	-15328
▁넥센	-15329
▁두뇌	-15330
▁리시	-15331
▁리크	-15332
▁모란	-15333
▁불려	-15334
▁선상	-15335
▁신병	-15336
▁이길	-15337
▁타쿠	-15338
ring	-15339
▁지나친	-15340
▁못했으며	-15341
▁Island	-15342
ady	-15343
▁디나	-15344
▁상환	-15345
▁외할	-15346
▁유카	-15347
▁직교	-15348
▁토바	-15349
▁KTX	-15350
▁비둘기	-15351
▁요금소	-15352
▁Project	-15353
날레	-15354
▁극소	-15355
▁등산	-15356
▁부관	-15357
▁워스	-15358
▁이카	-15359
over	-15360
▁Rob	-15361
▁순식간	-15362
ality	-15363
▁바이마르	-15364
▁컨퍼런스	-15365
▁파푸아뉴기니	-15366
윽고	-15367
징어	-15368
▁국화	-15369
▁문체	-15370
▁발착	-15371
▁서약	-15372
▁서클	-15373
▁자존	-15374
▁절충	-15375
▁학급	-15376
▁해질	-15377
▁헤더	-15378
에이고	-15379
▁235	-15380
▁간호사	-15381
▁됩니다	-15382
▁앤드류	-15383
▁이윽고	-15384
▁샌디에이고	-15385
시게	-15386
찬성	-15387
테랑	-15388
▁사부	-15389
▁산신	-15390
reat	-15391
▁스케일	-15392
▁친환경	-15393
사유	-15394
▁격하	-15395
▁구루	-15396
▁생생	-15397
alth	-15398
▁준다는	-15399
▁지하철역	-15400
▁뉘른베르크	-15401
시대	-15402
엽수	-15403
황색	-15404
▁AE	-15405
▁개기	-15406
▁문관	-15407
▁세일	-15408
▁스팀	-15409
▁족장	-15410
▁쿠마	-15411
▁클랜	-15412
▁포자	-15413
플로러	-15414
▁선거인	-15415
▁모자이크	-15416
▁페널티킥	-15417
▁익스플로러	-15418
HS	-15419
IR	-15420
▁HS	-15421
▁계룡	-15422
▁선체	-15423
▁양지	-15424
▁올릴	-15425
▁자네	-15426
▁조동	-15427
▁지령	-15428
▁Young	-15429
20	-15430
led	-15431
▁su	-15432
▁교감	-15433
▁내릴	-15434
▁마흐	-15435
▁사탄	-15436
▁에리	-15437
▁왕래	-15438
▁원단	-15439
▁쫓아	-15440
▁추축	-15441
▁패망	-15442
▁해트	-15443
▁명성황후	-15444
▁오토바이	-15445
이에	-15446
▁광배	-15447
▁날려	-15448
▁싸울	-15449
▁원점	-15450
플렉스	-15451
▁미시간	-15452
▁알폰소	-15453
▁North	-15454
놀드	-15455
oon	-15456
▁엄지	-15457
▁위크	-15458
▁이룰	-15459
▁잔혹	-15460
▁207	-15461
▁Roy	-15462
▁팍	-15463
양구	-15464
▁골절	-15465
▁교명	-15466
▁망치	-15467
▁Aut	-15468
▁오스카	-15469
▁파라오	-15470
부대	-15471
크리	-15472
▁날리	-15473
▁대류	-15474
▁방울	-15475
▁수마	-15476
▁시찰	-15477
▁야권	-15478
▁여대	-15479
▁용지	-15480
▁클라리	-15481
▁해준다	-15482
▁1852	-15483
▁퀄	-15484
곡면	-15485
르산	-15486
▁낭비	-15487
▁루도	-15488
▁모치	-15489
▁실상	-15490
▁아쉬	-15491
▁추계	-15492
슬라프	-15493
▁장갑차	-15494
▁Land	-15495
링겐	-15496
▁무능	-15497
▁백조	-15498
▁버트	-15499
▁수증	-15500
▁원문	-15501
▁레스터	-15502
▁베르나	-15503
▁사학자	-15504
▁테두리	-15505
▁토요타	-15506
▁특별법	-15507
▁프리츠	-15508
▁만장일치	-15509
대전	-15510
데기	-15511
화경	-15512
▁고제	-15513
▁레크	-15514
▁로사	-15515
▁바야	-15516
▁소포	-15517
▁에코	-15518
▁향수	-15519
ally	-15520
▁Bur	-15521
▁송파구	-15522
▁펼쳐져	-15523
박사	-15524
ple	-15525
▁교훈	-15526
▁노원	-15527
▁더빙	-15528
▁레몬	-15529
▁메모	-15530
▁Dig	-15531
▁맥아더	-15532
▁시미즈	-15533
▁집단군	-15534
ada	-15535
▁거머	-15536
▁목장	-15537
▁진이	-15538
▁특공	-15539
ther	-15540
▁게이밍	-15541
▁쇼핑몰	-15542
▁에이지	-15543
▁이론가	-15544
▁가졌으며	-15545
▁모니터링	-15546
▁애틀랜틱	-15547
▁House	-15548
UR	-15549
연구	-15550
▁김두	-15551
▁로보	-15552
▁마레	-15553
▁부끄	-15554
▁합체	-15555
▁Top	-15556
▁시달렸	-15557
▁표트르	-15558
▁현미경	-15559
▁뉴멕시코	-15560
▁켜	-15561
작전	-15562
gen	-15563
▁교관	-15564
▁빨라	-15565
▁스펙	-15566
▁안팎	-15567
▁애착	-15568
▁장조	-15569
▁종가	-15570
▁키타	-15571
▁고생물	-15572
▁컨벤션	-15573
사우루스	-15574
▁7000	-15575
▁알프레드	-15576
▁우두머리	-15577
의식	-15578
hem	-15579
▁em	-15580
▁맞물	-15581
▁방학	-15582
▁스택	-15583
▁아뢰	-15584
▁아킬	-15585
▁썼으며	-15586
▁매킨토시	-15587
▁Grand	-15588
▁뉴클레오타이드	-15589
구니	-15590
범죄	-15591
▁MT	-15592
▁동군	-15593
▁양양	-15594
▁의주	-15595
▁플랑	-15596
▁나치오	-15597
▁성폭행	-15598
▁튀어나	-15599
▁1853	-15600
▁영등포구	-15601
FS	-15602
▁돌렸	-15603
▁묶여	-15604
▁비옥	-15605
▁생원	-15606
▁성행	-15607
▁이끼	-15608
▁익산	-15609
▁자백	-15610
▁찌르	-15611
ME	-15612
▁벳	-15613
▁샷	-15614
수염	-15615
▁Jr	-15616
▁순찰	-15617
▁추운	-15618
▁침범	-15619
▁포천	-15620
▁화소	-15621
▁라스트	-15622
▁매디슨	-15623
▁이주민	-15624
▁프리드	-15625
▁바빌로니아	-15626
HL	-15627
iet	-15628
▁강습	-15629
▁말려	-15630
▁실명	-15631
▁아연	-15632
▁양극	-15633
▁자위	-15634
▁코로	-15635
▁개화파	-15636
▁농어촌	-15637
▁물러난	-15638
▁크라운	-15639
모음	-15640
비에	-15641
unt	-15642
▁남단	-15643
▁반론	-15644
▁법규	-15645
▁상설	-15646
▁제방	-15647
▁집전	-15648
▁에히메	-15649
▁여수시	-15650
▁League	-15651
소문	-15652
우주	-15653
▁로바	-15654
▁불태	-15655
▁석기	-15656
▁방문객	-15657
vis	-15658
▁나토	-15659
▁몰수	-15660
▁문맥	-15661
▁볼드	-15662
▁행선	-15663
▁오리엔	-15664
▁타일러	-15665
▁테크놀	-15666
바퀴	-15667
▁BB	-15668
▁갈비	-15669
▁서안	-15670
▁우표	-15671
▁윤휴	-15672
▁스케줄	-15673
▁이회창	-15674
▁중앙선	-15675
▁통계학	-15676
▁페드로	-15677
▁결전	-15678
▁고요	-15679
▁농담	-15680
▁박용	-15681
▁카츠	-15682
▁파고	-15683
▁흥원	-15684
▁ATC	-15685
▁되풀이	-15686
▁향신료	-15687
▁휴대폰	-15688
▁오하이오주	-15689
▁Joseph	-15690
▁고을	-15691
▁기마	-15692
▁다쓰	-15693
▁수당	-15694
▁안톤	-15695
▁일삼	-15696
▁충동	-15697
ford	-15698
▁225	-15699
▁310	-15700
▁니트	-15701
▁바쳐	-15702
▁예멘	-15703
▁외손	-15704
▁하지	-15705
▁802	-15706
▁Ann	-15707
▁글러브	-15708
▁기생충	-15709
▁김해시	-15710
▁보호법	-15711
▁랠	-15712
▁탔	-15713
▁DO	-15714
▁디바	-15715
▁발판	-15716
▁배워	-15717
▁엔젤	-15718
▁카보	-15719
▁페레	-15720
▁365	-15721
▁강희제	-15722
▁금강산	-15723
▁안양시	-15724
▁책임지	-15725
▁1795	-15726
보내	-15727
탄두	-15728
▁갇혀	-15729
▁마조	-15730
▁병렬	-15731
▁아끼	-15732
▁월화	-15733
▁퇴치	-15734
▁표제	-15735
▁뉴올리	-15736
▁원주시	-15737
▁사이언스	-15738
CO	-15739
장조	-15740
▁끔찍	-15741
▁서체	-15742
▁쇼팽	-15743
▁차명	-15744
▁커리	-15745
▁화염	-15746
▁370	-15747
▁돌고래	-15748
▁파르티아	-15749
▁Hy	-15750
▁교화	-15751
▁소량	-15752
▁스펜	-15753
▁안중	-15754
▁위트	-15755
▁호적	-15756
amil	-15757
▁게이초	-15758
▁사할린	-15759
▁클레오	-15760
▁Beat	-15761
▁레닌주의	-15762
▁버밍	-15763
▁암수	-15764
▁잔여	-15765
▁타파	-15766
▁호이	-15767
▁화승	-15768
▁가로막	-15769
▁가져가	-15770
▁고스트	-15771
▁채무자	-15772
▁천도교	-15773
▁합병증	-15774
큐슈	-15775
▁라임	-15776
▁리나	-15777
▁모피	-15778
▁복속	-15779
▁품목	-15780
▁par	-15781
▁공주시	-15782
▁농경지	-15783
▁생몰년	-15784
▁테오도	-15785
▁1847	-15786
▁Enter	-15787
▁Power	-15788
▁Society	-15789
▁텅	-15790
재판	-15791
▁모션	-15792
▁왜군	-15793
▁요직	-15794
▁탄수	-15795
▁하강	-15796
▁DOS	-15797
▁Hel	-15798
▁카디널	-15799
ather	-15800
▁띈	-15801
생산	-15802
▁경합	-15803
▁공석	-15804
▁미첼	-15805
▁석권	-15806
▁쳐서	-15807
▁볼프강	-15808
▁손꼽히	-15809
▁멕	-15810
뜨린	-15811
▁갑각	-15812
▁느슨	-15813
▁소피	-15814
▁자키	-15815
▁정오	-15816
▁에세이	-15817
▁인류학	-15818
▁주거지	-15819
▁1844	-15820
▁레지스터	-15821
▁뜰	-15822
ker	-15823
▁군복	-15824
▁놓치	-15825
▁사미	-15826
▁여포	-15827
▁420	-15828
▁오릭스	-15829
rit	-15830
▁경순	-15831
▁벤츠	-15832
▁빨강	-15833
▁선별	-15834
▁실효	-15835
▁창구	-15836
▁한민	-15837
▁기울이	-15838
▁알아차	-15839
▁통계청	-15840
▁1792	-15841
▁샤르	-15842
▁이가	-15843
▁제지	-15844
▁카파	-15845
▁캐논	-15846
▁캠벨	-15847
▁호그	-15848
▁가환환	-15849
▁빼앗기	-15850
▁전해져	-15851
▁트레인	-15852
▁킷	-15853
구스	-15854
다보	-15855
▁보디	-15856
▁설리	-15857
▁애기	-15858
▁애드	-15859
▁축복	-15860
▁헤센	-15861
▁후회	-15862
▁APG	-15863
▁아니면	-15864
▁에스컬	-15865
▁재결합	-15866
▁1793	-15867
▁에스컬레이터	-15868
과학	-15869
▁KB	-15870
▁로디	-15871
▁로컬	-15872
▁리온	-15873
▁마늘	-15874
▁배당	-15875
▁베다	-15876
▁산문	-15877
▁싸운	-15878
▁치킨	-15879
▁툴루	-15880
▁하층	-15881
공화당	-15882
▁고분자	-15883
▁로저스	-15884
▁1803	-15885
▁갑작스럽	-15886
▁병자호란	-15887
▁민주공화당	-15888
보당	-15889
▁결장	-15890
▁생년	-15891
▁선과	-15892
▁아노	-15893
▁여관	-15894
▁옥사	-15895
▁외삼	-15896
▁확충	-15897
▁Get	-15898
▁안창호	-15899
▁중앙아메리카	-15900
▁군도	-15901
▁놓였	-15902
▁되살	-15903
▁떨쳤	-15904
▁무찌	-15905
▁방탄	-15906
▁변성	-15907
▁싱크	-15908
▁청중	-15909
▁퇴출	-15910
▁효모	-15911
▁바뀐다	-15912
▁콘라트	-15913
▁통신망	-15914
▁페르시	-15915
무장	-15916
시험	-15917
쿠사	-15918
티지	-15919
▁"|	-15920
▁YG	-15921
▁리자	-15922
▁블랑	-15923
▁사드	-15924
▁안겨	-15925
▁인스	-15926
▁준동	-15927
로그램	-15928
록대부	-15929
▁Mem	-15930
▁글리세	-15931
▁대수학	-15932
▁사무관	-15933
▁Peter	-15934
▁system	-15935
▁밋	-15936
민당	-15937
▁베티	-15938
▁소르	-15939
▁우디	-15940
▁정강	-15941
▁정승	-15942
▁CoA	-15943
▁한국군	-15944
▁미주리주	-15945
건설	-15946
▁나기	-15947
▁백자	-15948
그래피	-15949
ison	-15950
▁목표물	-15951
▁사다리	-15952
▁순교자	-15953
▁예배당	-15954
▁불러일으켰	-15955
IVE	-15956
▁IR	-15957
▁배반	-15958
▁소인	-15959
▁예식	-15960
▁으러	-15961
▁이희	-15962
▁차오	-15963
▁통솔	-15964
▁헌종	-15965
폴리탄	-15966
▁꽃차례	-15967
▁달린다	-15968
▁로스트	-15969
▁오리건	-15970
▁Bill	-15971
▁바그다드	-15972
▁여우원숭이	-15973
▁메트로폴리탄	-15974
레도	-15975
블릭	-15976
▁경내	-15977
▁금정	-15978
▁발광	-15979
▁비싸	-15980
▁에레	-15981
▁콘티	-15982
▁함장	-15983
세데스	-15984
▁리그컵	-15985
▁알칼리	-15986
▁여러분	-15987
▁자격증	-15988
▁항공대	-15989
ander	-15990
▁1836	-15991
▁class	-15992
▁메르세데스	-15993
고사	-15994
구미	-15995
날드	-15996
▁가세	-15997
▁북측	-15998
▁솜씨	-15999
▁은폐	-16000
▁피살	-16001
해방군	-16002
▁Dis	-16003
▁MIT	-16004
▁고다이	-16005
▁베르트	-16006
▁석회암	-16007
▁순천시	-16008
▁저질렀	-16009
▁멀티미디어	-16010
▁인민해방군	-16011
남면	-16012
ida	-16013
▁나시	-16014
▁도안	-16015
▁리타	-16016
▁실은	-16017
▁오니	-16018
▁중일	-16019
▁체로	-16020
▁투사	-16021
▁평하	-16022
▁북극점	-16023
▁정치국	-16024
GB	-16025
▁감축	-16026
▁곡식	-16027
▁근세	-16028
▁네브	-16029
▁노카	-16030
▁모교	-16031
▁어학	-16032
▁유틸	-16033
▁처칠	-16034
▁템플	-16035
▁다녀왔	-16036
▁환승역	-16037
▁유틸리티	-16038
▁Little	-16039
▁둑	-16040
신저	-16041
▁Da	-16042
▁공문	-16043
▁도형	-16044
▁뒤덮	-16045
▁무예	-16046
▁박경	-16047
▁쓰일	-16048
▁억울	-16049
▁이홍	-16050
▁장정	-16051
▁정언	-16052
▁카로	-16053
▁타나	-16054
▁휴일	-16055
▁엘비스	-16056
▁트럼펫	-16057
▁오아시스	-16058
기아	-16059
보라	-16060
yth	-16061
▁던전	-16062
▁라울	-16063
▁분별	-16064
▁에노	-16065
▁이만	-16066
▁동아리	-16067
▁맥스웰	-16068
▁브루크	-16069
▁슈미트	-16070
▁그레이엄	-16071
▁fl	-16072
▁가창	-16073
▁권익	-16074
▁동호	-16075
▁의인	-16076
▁아놀드	-16077
▁테트라	-16078
▁파스칼	-16079
간지	-16080
라르	-16081
세서	-16082
악산	-16083
출력	-16084
▁라지	-16085
▁미러	-16086
▁용맹	-16087
▁짝수	-16088
▁펭귄	-16089
▁Jul	-16090
▁동남쪽	-16091
▁이케다	-16092
▁찾아오	-16093
▁Rain	-16094
▁Year	-16095
▁엔지니어링	-16096
둘러	-16097
어류	-16098
lam	-16099
▁논증	-16100
▁도끼	-16101
▁뚜껑	-16102
▁소노	-16103
▁예금	-16104
▁이한	-16105
▁net	-16106
▁게이오	-16107
▁교육학	-16108
▁데이빗	-16109
▁로버츠	-16110
▁앞바다	-16111
▁잠비아	-16112
▁저스틴	-16113
ny	-16114
▁벚	-16115
▁펙	-16116
▁MD	-16117
▁강국	-16118
▁견습	-16119
▁근위	-16120
▁도보	-16121
▁로망	-16122
▁미트	-16123
▁산조	-16124
▁추밀	-16125
▁푸젠	-16126
▁올라와	-16127
17	-16128
방스	-16129
섬유	-16130
텐셜	-16131
투리	-16132
▁달콤	-16133
▁세스	-16134
▁오인	-16135
▁지카	-16136
▁철기	-16137
▁풀백	-16138
▁Cup	-16139
▁사망률	-16140
▁정해졌	-16141
▁카리스	-16142
irect	-16143
▁글로브상	-16144
▁두드러진	-16145
▁몽고메리	-16146
▁로드리게스	-16147
계약	-16148
히데	-16149
▁기권	-16150
▁미망	-16151
▁박동	-16152
▁불능	-16153
▁압수	-16154
▁양원	-16155
▁인계	-16156
adem	-16157
apan	-16158
▁강화군	-16159
▁원정대	-16160
▁지배했	-16161
▁Science	-16162
▁강좌	-16163
▁방호	-16164
▁승낙	-16165
▁관찰자	-16166
▁퍼텐셜	-16167
▁니가타현	-16168
그램	-16169
버터	-16170
rew	-16171
▁불릴	-16172
▁사생	-16173
▁포인	-16174
▁할로	-16175
▁환산	-16176
▁결의안	-16177
▁도치기	-16178
▁엄청나	-16179
▁Christian	-16180
▁아레	-16181
▁정중	-16182
▁타라	-16183
ense	-16184
ople	-16185
▁여운형	-16186
▁연속극	-16187
▁직사각	-16188
선언	-16189
▁ED	-16190
▁군기	-16191
▁논평	-16192
▁맹렬	-16193
▁발진	-16194
▁백지	-16195
▁산재	-16196
▁희미	-16197
▁연대장	-16198
니에	-16199
▁가온	-16200
▁데일	-16201
▁마취	-16202
▁문중	-16203
▁반달	-16204
▁병풍	-16205
▁소론	-16206
▁시발	-16207
▁잉여	-16208
▁전조	-16209
▁진구	-16210
▁Cat	-16211
▁USA	-16212
▁버스터	-16213
▁성폭력	-16214
▁스러워	-16215
IF	-16216
▁김우	-16217
▁생쥐	-16218
▁서당	-16219
▁안심	-16220
▁잉카	-16221
▁출사	-16222
▁대혁명	-16223
▁물리쳤	-16224
▁비단털	-16225
ident	-16226
▁Home	-16227
▁소아시아	-16228
▁고창	-16229
▁블룸	-16230
▁온전	-16231
▁입찰	-16232
▁줄곧	-16233
▁홀수	-16234
▁Boy	-16235
▁mac	-16236
▁교육감	-16237
▁로페스	-16238
▁슈투트	-16239
▁도네츠크	-16240
▁비단털쥐	-16241
▁슈투트가르트	-16242
▁DR	-16243
▁김도	-16244
▁따지	-16245
▁민원	-16246
▁월남	-16247
▁잡힌	-16248
▁카펠	-16249
하우스	-16250
▁480	-16251
▁곧이어	-16252
▁군주제	-16253
▁클레어	-16254
▁돼지고기	-16255
sc	-16256
행파	-16257
▁CA	-16258
▁가령	-16259
▁리안	-16260
▁타트	-16261
▁호시	-16262
스크림	-16263
▁May	-16264
▁수영장	-16265
▁아스카	-16266
▁아키텐	-16267
▁총생산	-16268
▁Show	-16269
▁미시간주	-16270
▁캄파니아	-16271
▁탭	-16272
분투	-16273
bor	-16274
gin	-16275
▁금환	-16276
▁성교	-16277
▁소주	-16278
▁왕당	-16279
▁위축	-16280
▁일주	-16281
▁장경	-16282
▁트림	-16283
▁호화	-16284
▁후견	-16285
▁Div	-16286
▁남극점	-16287
▁여주인	-16288
▁여행자	-16289
▁이유로	-16290
▁퓌	-16291
▁고층	-16292
▁델리	-16293
▁부락	-16294
▁수퍼	-16295
▁오마	-16296
▁점토	-16297
▁초회	-16298
▁츠카	-16299
▁태화	-16300
▁대대장	-16301
▁청문회	-16302
▁콜라보	-16303
▁ICBM	-16304
패드	-16305
▁매기	-16306
▁범람	-16307
▁스플	-16308
▁정에	-16309
▁카인	-16310
▁케리	-16311
▁터스	-16312
▁토피	-16313
▁해커	-16314
▁MLB	-16315
▁길거리	-16316
▁미성년	-16317
▁아이치	-16318
▁접근성	-16319
▁클라인	-16320
▁태블릿	-16321
▁돌아간다	-16322
va	-16323
제철	-16324
주크	-16325
▁구가	-16326
▁넓혀	-16327
▁울루	-16328
▁총영	-16329
▁치마	-16330
sych	-16331
▁Luc	-16332
▁쓰촨성	-16333
▁북대서양	-16334
형제	-16335
lus	-16336
▁SG	-16337
▁경원	-16338
▁구전	-16339
▁동급	-16340
▁북마	-16341
▁샤오	-16342
▁시력	-16343
▁조석	-16344
▁죽일	-16345
▁타선	-16346
▁AMD	-16347
▁구청장	-16348
▁기본법	-16349
바드	-16350
ira	-16351
▁가선	-16352
▁게놈	-16353
▁규약	-16354
▁부기	-16355
▁상계	-16356
▁안주	-16357
▁익히	-16358
▁적법	-16359
▁RCA	-16360
▁del	-16361
▁떠올랐	-16362
▁실린더	-16363
▁카스텔	-16364
▁렝	-16365
▁가변	-16366
▁고승	-16367
▁노역	-16368
▁부화	-16369
▁안시	-16370
▁애호	-16371
▁에페	-16372
▁재물	-16373
▁정칙	-16374
스토크	-16375
▁고지대	-16376
▁참전하	-16377
▁이성질체	-16378
▁격전	-16379
▁노라	-16380
▁대여	-16381
▁문물	-16382
▁반입	-16383
▁춘계	-16384
▁Gen	-16385
▁영화관	-16386
▁히로시마현	-16387
네프	-16388
일기	-16389
▁단발	-16390
▁당진	-16391
▁도매	-16392
▁시로	-16393
▁예보	-16394
▁요가	-16395
▁즉흥	-16396
▁침수	-16397
tain	-16398
▁경부선	-16399
▁조연상	-16400
▁1837	-16401
▁스틸러스	-16402
▁아키타현	-16403
매기	-16404
탈리	-16405
ico	-16406
ues	-16407
▁공병	-16408
▁군림	-16409
▁김시	-16410
▁김주	-16411
▁넓히	-16412
▁도파	-16413
▁묘호	-16414
▁숙명	-16415
▁이부	-16416
▁조봉	-16417
▁진심	-16418
▁가치관	-16419
▁배트맨	-16420
▁자카르타	-16421
▁콘스탄티누스	-16422
▁벙	-16423
▁EN	-16424
▁공경	-16425
▁비긴	-16426
▁사산	-16427
▁어지	-16428
▁왕좌	-16429
▁인성	-16430
▁한복	-16431
▁헬스	-16432
▁우에노	-16433
▁포뮬러	-16434
▁했으므로	-16435
▁너희	-16436
▁당상	-16437
▁변론	-16438
▁소양	-16439
▁양천	-16440
▁의제	-16441
▁퇴진	-16442
oney	-16443
▁440	-16444
▁국방군	-16445
▁대관식	-16446
▁디렉터	-16447
▁시그마	-16448
▁퀘스트	-16449
▁라이센스	-16450
▁로베르토	-16451
▁막시밀리	-16452
로트	-16453
ano	-16454
rie	-16455
▁능숙	-16456
▁루가	-16457
▁술라	-16458
▁입혔	-16459
▁코이	-16460
▁코크	-16461
▁피자	-16462
▁850	-16463
▁오메가	-16464
크트	-16465
▁거병	-16466
▁만류	-16467
▁명왕	-16468
▁발터	-16469
▁자성	-16470
▁조우	-16471
▁캡틴	-16472
▁그러면	-16473
노스아이	-16474
other	-16475
▁갈릴레오	-16476
▁카디널스	-16477
노스아이레스	-16478
▁부에노스아이레스	-16479
▁금기	-16480
▁라플	-16481
▁선단	-16482
▁정역	-16483
▁천자	-16484
▁퀸스	-16485
▁트론	-16486
진보당	-16487
▁무사시	-16488
▁셰퍼드	-16489
▁시공간	-16490
▁페스트	-16491
▁1842	-16492
▁뜯	-16493
▁엎	-16494
울루	-16495
▁귀순	-16496
▁무쓰	-16497
▁바타	-16498
▁상회	-16499
▁자갈	-16500
▁퀴즈	-16501
▁호기심	-16502
▁프리큐어	-16503
초프	-16504
▁광서	-16505
▁기피	-16506
▁내시	-16507
▁두스	-16508
▁보육	-16509
▁사병	-16510
▁자장	-16511
▁중건	-16512
▁org	-16513
▁이사벨	-16514
▁컨설팅	-16515
▁Frank	-16516
▁관개	-16517
▁노골	-16518
▁동률	-16519
▁북인	-16520
▁역동	-16521
▁적힌	-16522
▁주포	-16523
▁총감	-16524
▁대사간	-16525
▁맞대결	-16526
▁선제후	-16527
▁셀주크	-16528
▁슈트라	-16529
▁스트라	-16530
▁제노바	-16531
▁주제가	-16532
▁중거리	-16533
츠부르크	-16534
▁Arch	-16535
▁플랑드르	-16536
▁타지키스탄	-16537
▁랏	-16538
데일	-16539
동원	-16540
완다	-16541
▁OK	-16542
▁RA	-16543
▁광동	-16544
▁교재	-16545
▁딱딱	-16546
▁받치	-16547
▁수은	-16548
▁이문	-16549
▁처마	-16550
▁추장	-16551
▁211	-16552
▁Que	-16553
▁개척자	-16554
▁브리스	-16555
▁아리랑	-16556
▁을수록	-16557
▁2500	-16558
▁국가원수	-16559
▁슈트라우스	-16560
▁짚	-16561
IDS	-16562
ely	-16563
▁근간	-16564
▁오와	-16565
▁오차	-16566
▁조회	-16567
이즈미	-16568
▁독재자	-16569
▁미망인	-16570
▁캅카스	-16571
▁1791	-16572
▁뉴올리언스	-16573
▁뜬	-16574
▁썸	-16575
▁짠	-16576
▁퀼	-16577
스퍼	-16578
▁금관	-16579
▁듀스	-16580
▁바니	-16581
▁보어	-16582
▁산체	-16583
▁상층	-16584
▁안면	-16585
▁Bas	-16586
▁개막식	-16587
▁미트라	-16588
▁지방선	-16589
▁유가행파	-16590
ograph	-16591
▁크리스티나	-16592
IX	-16593
▁뽀	-16594
▁얄	-16595
▁챠	-16596
대비	-16597
▁독신	-16598
▁수주	-16599
▁아로	-16600
▁에볼	-16601
▁응력	-16602
▁차역	-16603
▁man	-16604
▁기울였	-16605
▁삼거리	-16606
▁울주군	-16607
▁지리산	-16608
▁1832	-16609
▁세웠으며	-16610
formation	-16611
BN	-16612
훈련	-16613
▁감당	-16614
▁동차	-16615
▁두르	-16616
▁멜라	-16617
▁상피	-16618
▁스텐	-16619
▁완장	-16620
▁후이	-16621
▁브레멘	-16622
▁수도사	-16623
▁에탄올	-16624
▁판매고	-16625
▁루키우스	-16626
▁생물학자	-16627
▁First	-16628
열대	-16629
▁BO	-16630
▁DA	-16631
▁강타	-16632
▁눌러	-16633
▁두터	-16634
▁커브	-16635
▁합천	-16636
▁Law	-16637
▁네바다	-16638
▁오슬로	-16639
▁오징어	-16640
바이러스	-16641
▁안드로메다	-16642
▁뤄	-16643
에쓰	-16644
▁fr	-16645
▁균열	-16646
▁롤러	-16647
▁사중	-16648
▁수프	-16649
▁원곡	-16650
▁탄력	-16651
▁호로	-16652
▁회차	-16653
▁무지개	-16654
▁부사장	-16655
▁잠재력	-16656
▁Like	-16657
화산	-16658
▁PM	-16659
▁SW	-16660
▁과세	-16661
▁뇌졸	-16662
▁다윗	-16663
▁대입	-16664
▁무겁	-16665
▁본존	-16666
▁서품	-16667
▁장지	-16668
▁주군	-16669
▁---	-16670
▁mus	-16671
▁붙잡혀	-16672
▁음식점	-16673
▁York	-16674
▁Na	-16675
▁mg	-16676
▁발열	-16677
▁앞뒤	-16678
▁제비	-16679
▁즐겼	-16680
▁척수	-16681
▁호투	-16682
고로드	-16683
▁끌려가	-16684
▁태어날	-16685
▁1776	-16686
▁Down	-16687
▁메모리얼	-16688
▁General	-16689
면적	-16690
▁권투	-16691
▁노마	-16692
▁도읍	-16693
▁떠돌	-16694
▁레딧	-16695
▁모잠	-16696
▁우타	-16697
▁인먼	-16698
▁잡혔	-16699
▁킬러	-16700
▁국내선	-16701
▁마코토	-16702
▁변호인	-16703
▁전시관	-16704
▁춘천시	-16705
▁모잠비크	-16706
▁<	-16707
장사	-16708
▁PH	-16709
▁국문	-16710
▁동체	-16711
▁망가	-16712
▁배타	-16713
▁야코	-16714
▁영종	-16715
▁전열	-16716
▁조율	-16717
▁한겨	-16718
▁바레인	-16719
▁다카하시	-16720
▁Class	-16721
▁Green	-16722
80	-16723
▁김학	-16724
▁뉴잉	-16725
▁사체	-16726
▁코린	-16727
▁트롤	-16728
▁풀이	-16729
▁Leg	-16730
▁Tal	-16731
▁도망쳐	-16732
▁드러난다	-16733
▁베르사유	-16734
▁my	-16735
▁고관	-16736
▁산술	-16737
▁실베	-16738
▁지날	-16739
▁테헤	-16740
▁홍익	-16741
▁화원	-16742
▁212	-16743
▁레이건	-16744
ester	-16745
▁Battle	-16746
댓값	-16747
▁경구	-16748
▁균등	-16749
▁금천	-16750
▁상이	-16751
▁세제	-16752
▁왕명	-16753
▁우니	-16754
▁초판	-16755
▁카일	-16756
레시브	-16757
▁430	-16758
▁올라왔	-16759
▁자본가	-16760
▁챌린저	-16761
▁희극인	-16762
▁슈퍼스타	-16763
▁프로그레시브	-16764
라과	-16765
하우	-16766
▁관저	-16767
▁깊숙	-16768
▁북송	-16769
▁성형	-16770
▁유상	-16771
▁지남	-16772
▁특명	-16773
▁흐트	-16774
▁FBI	-16775
▁강릉시	-16776
▁난쟁이	-16777
▁리차드	-16778
▁Oper	-16779
▁레닌그라드	-16780
30	-16781
idd	-16782
▁pi	-16783
▁개경	-16784
▁원효	-16785
▁폐차	-16786
▁빈센트	-16787
그라운드	-16788
▁1300	-16789
▁쏜	-16790
▁웜	-16791
omb	-16792
▁PR	-16793
▁곤살	-16794
▁구라	-16795
▁보우	-16796
▁불문	-16797
▁유세	-16798
▁은지	-16799
▁읍성	-16800
▁보이즈	-16801
▁오이타	-16802
▁핵탄두	-16803
벌리	-16804
ube	-16805
▁IA	-16806
▁고후	-16807
▁과감	-16808
▁남아	-16809
▁동백	-16810
▁레저	-16811
▁브람	-16812
▁솔직	-16813
▁애프	-16814
▁퍼플	-16815
ible	-16816
▁개개인	-16817
▁동일시	-16818
▁안철수	-16819
▁에다가	-16820
신경	-16821
▁아람	-16822
▁양념	-16823
▁전범	-16824
▁택하	-16825
핵생물	-16826
▁pre	-16827
▁광합성	-16828
▁실리콘	-16829
▁연습생	-16830
▁영사관	-16831
▁후베이	-16832
나들	-16833
불명	-16834
어냈	-16835
주석	-16836
ART	-16837
▁강했	-16838
▁듀엣	-16839
▁리노	-16840
▁백운	-16841
▁비어	-16842
▁성조	-16843
▁수문	-16844
▁채집	-16845
▁초계	-16846
▁피쳐	-16847
시아키	-16848
ider	-16849
▁루카스	-16850
▁부르봉	-16851
▁야구부	-16852
▁요시카	-16853
▁한겨레	-16854
▁1841	-16855
▁Port	-16856
▁니카라과	-16857
▁뭔	-16858
피크	-16859
▁CL	-16860
▁NL	-16861
▁보국	-16862
▁부식	-16863
▁알로	-16864
▁전곡	-16865
▁첫날	-16866
▁폐하	-16867
▁하산	-16868
▁Run	-16869
▁교황령	-16870
▁노르트	-16871
▁뇌졸중	-16872
▁르완다	-16873
▁비행사	-16874
▁조용히	-16875
▁클로드	-16876
▁페라리	-16877
▁Sant	-16878
▁콘퍼런스	-16879
▁Stand	-16880
▁아오모리현	-16881
▁아이스크림	-16882
▁da	-16883
▁관군	-16884
▁니즈	-16885
▁루손	-16886
▁산인	-16887
▁전서	-16888
▁코우	-16889
▁탄두	-16890
▁포상	-16891
▁후추	-16892
▁Fil	-16893
▁가디언	-16894
▁가요제	-16895
▁넘어서	-16896
▁대제학	-16897
▁앙드레	-16898
▁피드백	-16899
▁1796	-16900
▁IF	-16901
▁나투	-16902
▁모태	-16903
▁무공	-16904
▁Dem	-16905
▁랴오닝	-16906
▁렌더링	-16907
▁모델링	-16908
▁사법부	-16909
▁양산시	-16910
▁Baby	-16911
▁Sport	-16912
▁뉴잉글랜드	-16913
▁안토니우스	-16914
▁테크놀로지	-16915
림사	-16916
oft	-16917
▁도나	-16918
▁영도	-16919
▁HMS	-16920
▁에이브	-16921
▁That	-16922
▁up	-16923
▁관아	-16924
▁금리	-16925
▁미완	-16926
▁콘셉	-16927
▁한하	-16928
▁허물	-16929
▁황위	-16930
▁Gar	-16931
▁만주족	-16932
▁무정부	-16933
▁부등식	-16934
▁셀레우	-16935
▁당했으며	-16936
▁쐐	-16937
▁ag	-16938
▁발작	-16939
▁사악	-16940
▁알마	-16941
▁학당	-16942
▁해머	-16943
▁갑각류	-16944
▁도야마	-16945
▁울트라	-16946
▁대법원장	-16947
▁이루어질	-16948
당류	-16949
촌리	-16950
ook	-16951
▁귀여	-16952
▁규합	-16953
▁법상	-16954
▁색계	-16955
▁소진	-16956
▁앙상	-16957
▁촐라	-16958
▁코바	-16959
▁투병	-16960
ress	-16961
▁221	-16962
▁사우디	-16963
▁Spec	-16964
▁플루토늄	-16965
다임	-16966
▁매슈	-16967
▁의논	-16968
▁전봉	-16969
▁패자	-16970
obal	-16971
▁이광수	-16972
▁Fire	-16973
▁노촌	-16974
▁무패	-16975
▁시타	-16976
▁지크	-16977
▁책정	-16978
▁튜링	-16979
▁편모	-16980
▁215	-16981
▁되돌려	-16982
▁사라진다	-16983
▁서비스업	-16984
YP	-16985
▁멱	-16986
득점	-16987
수지	-16988
지대	-16989
ING	-16990
▁강가	-16991
▁고갈	-16992
▁구인	-16993
▁담임	-16994
▁도자	-16995
▁옥천	-16996
▁재보	-16997
▁카토	-16998
▁화풍	-16999
프랑스	-17000
▁보라색	-17001
▁예문관	-17002
▁올라갈	-17003
▁해수면	-17004
▁코미디언	-17005
샤오	-17006
▁쐐기	-17007
▁유보	-17008
▁이설	-17009
▁코일	-17010
▁행운	-17011
▁고문서	-17012
▁어드밴	-17013
▁1806	-17014
▁천문단위	-17015
▁패러다임	-17016
반정	-17017
▁그늘	-17018
▁끼친	-17019
▁나바	-17020
▁당장	-17021
▁리서	-17022
▁문건	-17023
▁변했	-17024
▁어둡	-17025
▁윤곽	-17026
▁화교	-17027
▁이어질	-17028
▁Conc	-17029
xy	-17030
능력	-17031
cle	-17032
▁리언	-17033
▁빛깔	-17034
▁세밀	-17035
▁양위	-17036
▁지검	-17037
▁직권	-17038
▁호찌	-17039
▁혼돈	-17040
▁290	-17041
▁바빌론	-17042
▁주둔지	-17043
▁펼쳐진	-17044
▁Plan	-17045
▁유니코드	-17046
▁버지니아주	-17047
▁알렉산데르	-17048
데오	-17049
팩스	-17050
ugh	-17051
▁레반	-17052
▁로지	-17053
▁매복	-17054
▁장강	-17055
▁해주	-17056
gram	-17057
▁747	-17058
▁날아가	-17059
▁냈으며	-17060
▁록히드	-17061
▁병원체	-17062
▁생산자	-17063
▁한자어	-17064
▁건국훈장	-17065
▁고고학자	-17066
▁알렉세이	-17067
▁베오그라드	-17068
노르	-17069
운수	-17070
▁광시	-17071
▁꾸몄	-17072
▁만연	-17073
▁버니	-17074
▁본당	-17075
▁우기	-17076
▁융기	-17077
▁의성	-17078
▁자석	-17079
▁주유	-17080
ient	-17081
▁new	-17082
▁남북조	-17083
▁내몽골	-17084
▁아파치	-17085
▁아이파크	-17086
UI	-17087
티보	-17088
▁Ul	-17089
▁내기	-17090
▁니치	-17091
▁미코	-17092
▁식이	-17093
▁이창	-17094
▁정청	-17095
▁탄광	-17096
▁형광	-17097
▁Del	-17098
▁GPS	-17099
▁내려갔	-17100
▁아칸소	-17101
▁향한다	-17102
▁Jour	-17103
lad	-17104
▁IG	-17105
▁라쿠	-17106
▁무위	-17107
▁서태지	-17108
▁스태프	-17109
▁어도비	-17110
▁후유증	-17111
▁리바운드	-17112
▁이베리아	-17113
▁지장보살	-17114
네르	-17115
데냐	-17116
빨리	-17117
▁누마	-17118
▁달력	-17119
▁담수	-17120
▁모였	-17121
▁손수	-17122
▁열람	-17123
▁폐교	-17124
스티안	-17125
캐스트	-17126
▁스텔스	-17127
▁오우치	-17128
▁왕당파	-17129
▁인문학	-17130
▁자오선	-17131
▁지극히	-17132
▁블레이드	-17133
▁사르데냐	-17134
▁플로이드	-17135
▁KD	-17136
▁변한	-17137
▁산동	-17138
▁섞인	-17139
▁세울	-17140
▁죄인	-17141
▁중신	-17142
▁휴먼	-17143
▁흡입	-17144
▁노스케	-17145
▁라이드	-17146
▁안데스	-17147
▁엘리엇	-17148
티어	-17149
▁구비	-17150
▁남경	-17151
▁변함	-17152
▁수족	-17153
▁스쿼	-17154
▁증축	-17155
▁콤비	-17156
▁호국	-17157
▁바란다	-17158
▁사이다	-17159
▁즐거운	-17160
▁테헤란	-17161
ister	-17162
▁1794	-17163
▁Dark	-17164
▁탄수화물	-17165
▁헬레니즘	-17166
블린	-17167
mas	-17168
▁Ol	-17169
▁건네	-17170
▁마른	-17171
▁멘델	-17172
▁소서	-17173
▁일면	-17174
▁장이	-17175
▁길버트	-17176
▁제주시	-17177
▁1835	-17178
▁Human	-17179
▁State	-17180
▁쏠	-17181
박이	-17182
▁ET	-17183
▁기시	-17184
▁동대	-17185
▁봉헌	-17186
▁속국	-17187
▁아요	-17188
▁222	-17189
▁블러드	-17190
▁선보인	-17191
▁한다며	-17192
▁합쳐져	-17193
▁행해진	-17194
▁1831	-17195
▁Japan	-17196
일체	-17197
흐트	-17198
▁교학	-17199
▁바바	-17200
▁영성	-17201
▁젤리	-17202
▁허구	-17203
▁재판장	-17204
▁Game	-17205
▁클라이맥스	-17206
▁훅	-17207
스레	-17208
▁교란	-17209
▁발췌	-17210
▁워낙	-17211
▁지반	-17212
▁단말기	-17213
▁비엔나	-17214
▁치른다	-17215
▁카지노	-17216
▁테크노	-17217
스코리아	-17218
▁1790	-17219
▁네덜란드어	-17220
▁Station	-17221
▁Research	-17222
계사	-17223
정변	-17224
토쿠	-17225
▁걸스	-17226
▁마도	-17227
▁수아	-17228
▁술집	-17229
▁작자	-17230
▁정직	-17231
▁쿠시	-17232
▁건너편	-17233
▁분홍색	-17234
velop	-17235
ios	-17236
▁논산	-17237
▁반납	-17238
▁베버	-17239
▁보주	-17240
▁스킨	-17241
▁얼터	-17242
▁열거	-17243
▁예편	-17244
▁자각	-17245
▁광주시	-17246
▁부천시	-17247
▁사가미	-17248
▁중앙일보	-17249
▁프로방스	-17250
uf	-17251
파니	-17252
▁ra	-17253
▁가결	-17254
▁미자	-17255
▁소마	-17256
▁수표	-17257
▁인척	-17258
▁증류	-17259
▁천적	-17260
▁체질	-17261
▁환기	-17262
▁214	-17263
▁붉은색	-17264
▁습니까	-17265
▁영문학	-17266
▁예비군	-17267
▁스테파노	-17268
무실	-17269
쿠치	-17270
UCN	-17271
▁거창	-17272
▁김덕	-17273
▁따돌	-17274
▁반향	-17275
▁산정	-17276
▁아호	-17277
▁타다	-17278
▁통감	-17279
▁후난	-17280
ique	-17281
▁기념장	-17282
▁한정판	-17283
itive	-17284
▁동아프리카	-17285
▁쑹	-17286
가키	-17287
▁굳이	-17288
▁대소	-17289
▁자막	-17290
▁쿠루	-17291
▁풍요	-17292
ures	-17293
▁COV	-17294
▁Ros	-17295
▁조르주	-17296
▁혈액형	-17297
▁1623	-17298
▁RE	-17299
▁득실	-17300
▁사연	-17301
▁아역	-17302
▁용역	-17303
▁출정	-17304
▁클럭	-17305
▁흉내	-17306
▁공성전	-17307
▁동북부	-17308
▁들어선	-17309
▁바실리	-17310
▁아이작	-17311
▁앙상블	-17312
▁윤치영	-17313
▁장크트	-17314
▁플루트	-17315
▁해수욕장	-17316
▁RP	-17317
▁겨냥	-17318
▁고는	-17319
▁대등	-17320
▁동두	-17321
▁미혼	-17322
▁어인	-17323
▁원만	-17324
▁동의어	-17325
▁디에고	-17326
▁백두산	-17327
▁IUCN	-17328
WS	-17329
▁꽝	-17330
무지	-17331
연맹	-17332
은사	-17333
자락	-17334
▁공보	-17335
▁명륜	-17336
▁서곡	-17337
▁세타	-17338
▁셔츠	-17339
▁아누	-17340
▁유독	-17341
▁탈피	-17342
▁하츠	-17343
▁행한	-17344
▁바닷가	-17345
▁보행자	-17346
▁오토모	-17347
▁기타큐슈	-17348
ological	-17349
구멍	-17350
태자	-17351
▁거품	-17352
▁결투	-17353
▁깨지	-17354
▁문어	-17355
▁접목	-17356
▁할구	-17357
▁NAD	-17358
▁다행히	-17359
▁후반전	-17360
▁고생물학	-17361
▁크리스틴	-17362
▁름	-17363
현실	-17364
▁시구	-17365
▁유창	-17366
▁지회	-17367
▁하후	-17368
▁항전	-17369
less	-17370
▁나눈다	-17371
▁제니퍼	-17372
▁1843	-17373
▁포틀랜드	-17374
▁Church	-17375
oud	-17376
▁간지	-17377
▁라테	-17378
▁열망	-17379
▁윈드	-17380
▁타키	-17381
▁돌아올	-17382
▁방법론	-17383
▁송진우	-17384
▁엉덩이	-17385
▁의병장	-17386
▁조광조	-17387
▁막시밀리안	-17388
EEE	-17389
▁가전	-17390
▁도화	-17391
▁로코	-17392
▁미겔	-17393
▁성현	-17394
▁수구	-17395
▁스완	-17396
▁양정	-17397
▁제고	-17398
▁총수	-17399
▁카다	-17400
▁합산	-17401
▁흑색	-17402
▁히코	-17403
▁로널드	-17404
▁마피아	-17405
▁시에라	-17406
▁피어스	-17407
▁서스펜션	-17408
▁아브라함	-17409
남동	-17410
도감	-17411
▁공지	-17412
▁단양	-17413
▁도표	-17414
▁승선	-17415
▁실책	-17416
▁야만	-17417
▁옹정	-17418
▁주스	-17419
▁초석	-17420
사이클	-17421
▁제품군	-17422
▁Carl	-17423
▁다마스쿠스	-17424
시카	-17425
황제	-17426
▁과달	-17427
▁기형	-17428
▁약품	-17429
▁어쩌	-17430
▁접시	-17431
▁줄였	-17432
▁촌의	-17433
▁현수	-17434
▁Mel	-17435
▁리바이	-17436
▁학년도	-17437
▁크리스탈	-17438
이상	-17439
▁리지	-17440
▁부엌	-17441
▁석재	-17442
▁수화	-17443
▁이석	-17444
▁가극단	-17445
▁도망가	-17446
▁알베르	-17447
▁여긴다	-17448
▁오른다	-17449
▁와이어	-17450
▁충주시	-17451
▁허난성	-17452
▁트로츠키	-17453
▁뿜	-17454
▁젬	-17455
는점	-17456
모닉	-17457
무제	-17458
신보	-17459
▁기악	-17460
▁노름	-17461
▁다채	-17462
▁대용	-17463
▁더라	-17464
▁도부	-17465
▁오랑	-17466
▁칠성	-17467
▁쿠사	-17468
▁후시	-17469
▁Camp	-17470
▁Hall	-17471
▁자이언트	-17472
▁천연가스	-17473
▁Under	-17474
스톤	-17475
학파	-17476
▁mi	-17477
▁거문	-17478
▁격화	-17479
▁구애	-17480
▁늘렸	-17481
▁문수	-17482
▁수라	-17483
▁수질	-17484
▁슈바	-17485
▁스틱	-17486
▁은평	-17487
▁커넥	-17488
▁301	-17489
▁감염자	-17490
▁사무엘	-17491
▁애슬레	-17492
▁적절히	-17493
살바도르	-17494
▁암모니아	-17495
▁Saint	-17496
▁애슬레틱스	-17497
▁킵	-17498
니츠	-17499
▁관원	-17500
▁니체	-17501
▁대정	-17502
▁랜덤	-17503
▁맞닿	-17504
▁버거	-17505
▁으뜸	-17506
▁콘스	-17507
▁팀장	-17508
▁현청	-17509
▁모터쇼	-17510
▁스타드	-17511
▁예수교	-17512
▁나왔으며	-17513
▁무형문화재	-17514
의금	-17515
장군	-17516
테일	-17517
▁견지	-17518
▁공평	-17519
▁괘불	-17520
▁농작	-17521
▁만물	-17522
▁맞배	-17523
▁무진	-17524
▁외가	-17525
▁월경	-17526
▁지킬	-17527
▁징후	-17528
▁청일	-17529
▁코인	-17530
▁호전	-17531
▁Aug	-17532
▁Lin	-17533
▁어려울	-17534
▁펼쳐지	-17535
▁1799	-17536
▁본능	-17537
▁서역	-17538
▁이게	-17539
▁집적	-17540
▁Son	-17541
▁가우스	-17542
▁경비대	-17543
▁국무부	-17544
▁항소심	-17545
▁Mont	-17546
▁근본번뇌	-17547
▁레즈비언	-17548
▁서귀포시	-17549
▁원종공신	-17550
산업	-17551
ape	-17552
▁기근	-17553
▁기일	-17554
▁던진	-17555
▁우이	-17556
▁직각	-17557
▁진위	-17558
▁투기	-17559
▁게임스	-17560
▁고바야시	-17561
ington	-17562
▁미스코리아	-17563
▁아우구스트	-17564
링크	-17565
tor	-17566
▁고독	-17567
▁날렸	-17568
▁덩굴	-17569
▁연하	-17570
▁엿볼	-17571
▁체리	-17572
▁최용	-17573
▁코딩	-17574
▁틀리	-17575
▁폴로	-17576
▁호지	-17577
arch	-17578
▁깨달음	-17579
▁쓰여졌	-17580
▁아즈마	-17581
▁영장류	-17582
▁이주한	-17583
▁후임자	-17584
▁Moon	-17585
▁리얼리티	-17586
▁불법행위	-17587
▁Child	-17588
WA	-17589
프스	-17590
▁그간	-17591
▁명중	-17592
▁모식	-17593
▁사일	-17594
▁센타	-17595
▁토사	-17596
▁산둥성	-17597
▁에스터	-17598
▁진정한	-17599
▁쫓겨나	-17600
▁IEEE	-17601
▁아드리아	-17602
▁언어학자	-17603
▁Service	-17604
민정	-17605
for	-17606
▁군락	-17607
▁다쿠	-17608
▁시편	-17609
▁아민	-17610
▁유민	-17611
▁이코	-17612
▁일보	-17613
▁캔디	-17614
omen	-17615
▁Les	-17616
▁Mot	-17617
▁군산시	-17618
▁마에다	-17619
▁아르테	-17620
▁크레타	-17621
▁선거인단	-17622
회원	-17623
acy	-17624
▁강자	-17625
▁불길	-17626
▁습도	-17627
▁신궁	-17628
▁왕릉	-17629
▁위태	-17630
▁재심	-17631
▁드래곤즈	-17632
▁사탕수수	-17633
▁시킨다는	-17634
▁KC	-17635
▁깁슨	-17636
▁나한	-17637
▁로제	-17638
▁변조	-17639
▁생포	-17640
▁이국	-17641
▁차차	-17642
▁탄성	-17643
▁토프	-17644
▁현관	-17645
레이즈	-17646
▁238	-17647
▁조봉암	-17648
▁통신부	-17649
▁혁명가	-17650
▁미식축구	-17651
디드	-17652
▁FF	-17653
▁개축	-17654
▁골수	-17655
▁급사	-17656
▁김은	-17657
▁꾸미	-17658
▁청군	-17659
▁코넬	-17660
▁건널목	-17661
▁연구실	-17662
▁브루나이	-17663
▁안티오키아	-17664
높이	-17665
든가	-17666
랭크	-17667
▁소드	-17668
▁속초	-17669
▁악의	-17670
▁카불	-17671
▁콜론	-17672
▁파피	-17673
▁RPG	-17674
▁미우라	-17675
▁창업자	-17676
▁최진실	-17677
▁카롤루스	-17678
▁노엘	-17679
▁두부	-17680
▁사파	-17681
▁안건	-17682
▁청정	-17683
▁출병	-17684
▁칠곡	-17685
▁폭주	-17686
쿠스틱	-17687
▁나카노	-17688
▁시간표	-17689
▁신안군	-17690
▁신호장	-17691
▁양평군	-17692
▁1821	-17693
▁어쿠스틱	-17694
▁쿵	-17695
래시	-17696
▁격상	-17697
▁박태	-17698
▁센다	-17699
▁유계	-17700
▁테살	-17701
라이스	-17702
씨식물	-17703
트로피	-17704
▁ind	-17705
▁감마선	-17706
▁다카시	-17707
▁엔리케	-17708
▁하모니	-17709
▁Fest	-17710
▁클라리넷	-17711
▁폴리네시아	-17712
▁기교	-17713
▁노화	-17714
▁대뇌	-17715
▁명동	-17716
▁웅진	-17717
라이즈	-17718
cept	-17719
▁Mov	-17720
▁데려가	-17721
▁태양광	-17722
ville	-17723
▁오스트로	-17724
▁아르바이트	-17725
▁중앙아프리카	-17726
▁European	-17727
금속	-17728
▁결렬	-17729
▁군량	-17730
▁레나	-17731
▁브론	-17732
▁시차	-17733
▁아루	-17734
▁어쨌	-17735
▁음역	-17736
▁컬링	-17737
▁퀘이	-17738
스트림	-17739
제르맹	-17740
ruct	-17741
▁223	-17742
▁암스트	-17743
▁연방군	-17744
▁저지르	-17745
▁트리스	-17746
▁생제르맹	-17747
▁Party	-17748
시간	-17749
▁불평	-17750
▁사스	-17751
▁원생	-17752
▁월북	-17753
▁철근	-17754
▁케도	-17755
▁Dou	-17756
▁Lab	-17757
▁리하르트	-17758
▁항공우주	-17759
▁소크라테스	-17760
▁키르기스스탄	-17761
▁궈	-17762
마니	-17763
▁도식	-17764
▁독소	-17765
▁에뮬	-17766
▁옥상	-17767
▁요셉	-17768
▁장서	-17769
▁정량	-17770
▁조던	-17771
▁통킹	-17772
로세서	-17773
uter	-17774
▁돗토리	-17775
▁유럽연합	-17776
▁프로이트	-17777
60	-17778
가요	-17779
덱스	-17780
레트	-17781
마을	-17782
▁강유	-17783
▁과부	-17784
▁끼워	-17785
▁나날	-17786
▁면하	-17787
▁소탕	-17788
▁유관	-17789
▁종주	-17790
▁치밀	-17791
▁키웠	-17792
▁힐스	-17793
중국해	-17794
코비치	-17795
▁Pan	-17796
▁넥스트	-17797
▁스위트	-17798
▁시아파	-17799
▁전동기	-17800
▁평택시	-17801
▁1845	-17802
▁받아들일	-17803
▁하시모토	-17804
여지	-17805
젠더	-17806
활성	-17807
▁굴욕	-17808
▁녹말	-17809
▁닷컴	-17810
▁동티	-17811
▁벅스	-17812
▁전극	-17813
▁지브	-17814
▁체첸	-17815
▁포섭	-17816
▁화이	-17817
▁황하	-17818
하마드	-17819
line	-17820
▁비올라	-17821
▁아드리	-17822
▁중서부	-17823
▁트랜싯	-17824
▁아미타불	-17825
레미	-17826
베인	-17827
평면	-17828
▁감탄	-17829
▁갑신	-17830
▁반정	-17831
▁보카	-17832
▁시영	-17833
▁아명	-17834
▁양동	-17835
▁직류	-17836
▁출항	-17837
▁키치	-17838
지먼트	-17839
▁Lov	-17840
▁pol	-17841
▁디아스	-17842
▁무너졌	-17843
▁정확도	-17844
▁하이든	-17845
▁1804	-17846
▁서대문구	-17847
▁알베르트	-17848
▁매니지먼트	-17849
▁프로토타입	-17850
길준	-17851
처럼	-17852
▁관대	-17853
▁의대	-17854
▁좌랑	-17855
▁쿠릴	-17856
▁Now	-17857
▁거느렸	-17858
▁엘리스	-17859
▁익산시	-17860
▁인터랙	-17861
▁합쳐서	-17862
▁허버트	-17863
▁윔	-17864
더릭	-17865
esc	-17866
ied	-17867
▁결단	-17868
▁구토	-17869
▁매춘	-17870
▁부트	-17871
▁사옥	-17872
▁사조	-17873
▁새턴	-17874
▁세관	-17875
▁세도	-17876
▁이뤘	-17877
▁카노	-17878
▁토의	-17879
코스트	-17880
▁급속도	-17881
▁매니아	-17882
▁베테랑	-17883
▁페이퍼	-17884
▁그래픽스	-17885
▁Edward	-17886
심원	-17887
▁먼로	-17888
▁아쉽	-17889
▁안락	-17890
리오스	-17891
ript	-17892
▁720	-17893
▁미요시	-17894
▁손바닥	-17895
▁아세트	-17896
▁연금술	-17897
▁이치로	-17898
▁지평선	-17899
▁토론회	-17900
▁1810	-17901
▁마그네슘	-17902
▁엔트로피	-17903
▁카테고리	-17904
▁나가사키현	-17905
ets	-17906
ias	-17907
▁OC	-17908
▁결실	-17909
▁공훈	-17910
▁양분	-17911
▁충고	-17912
▁기네스	-17913
▁나와서	-17914
▁마운틴	-17915
▁스타즈	-17916
▁요나라	-17917
▁조합원	-17918
▁사이클론	-17919
▁롬바르디아	-17920
zz	-17921
다스	-17922
백색	-17923
스틱	-17924
운전	-17925
▁산탄	-17926
▁예일	-17927
▁표어	-17928
▁호박	-17929
던지기	-17930
▁노무라	-17931
▁제이크	-17932
▁플래그	-17933
▁앳	-17934
암사	-17935
제사	-17936
▁구명	-17937
▁국산	-17938
▁디펜	-17939
▁만석	-17940
▁미디	-17941
▁베가	-17942
▁영위	-17943
▁운석	-17944
▁인신	-17945
▁콜리	-17946
▁특례	-17947
ware	-17948
▁그리드	-17949
▁전망대	-17950
▁플래닛	-17951
▁Hill	-17952
▁리치먼드	-17953
▁폼페이우스	-17954
피카	-17955
▁MW	-17956
▁군집	-17957
▁궁내	-17958
▁궁수	-17959
▁궁주	-17960
▁도난	-17961
▁벗겨	-17962
▁에든	-17963
▁이크	-17964
▁좌천	-17965
▁캔터	-17966
▁교차점	-17967
▁메신저	-17968
▁관음보살	-17969
▁도야마현	-17970
▁에든버러	-17971
▁이리하여	-17972
사랑	-17973
▁무주	-17974
▁미녀	-17975
▁변천	-17976
▁선지	-17977
▁송이	-17978
▁애매	-17979
▁율령	-17980
▁종실	-17981
▁총액	-17982
▁최순	-17983
▁출루	-17984
aker	-17985
▁추축국	-17986
▁헥타르	-17987
▁필하모닉	-17988
팽이	-17989
▁건안	-17990
▁굶주	-17991
▁려다	-17992
▁멘토	-17993
▁생장	-17994
▁음경	-17995
▁진하	-17996
▁커져	-17997
▁테드	-17998
▁한꺼	-17999
inus	-18000
▁릴리스	-18001
▁라이온스	-18002
▁한꺼번에	-18003
▁Louis	-18004
메랄	-18005
후이	-18006
oma	-18007
▁fe	-18008
▁가메	-18009
▁광택	-18010
▁김장	-18011
▁무소	-18012
▁비방	-18013
▁슐레	-18014
▁슬러	-18015
▁역모	-18016
▁유감	-18017
▁이보	-18018
▁중학	-18019
▁치루	-18020
▁패미	-18021
▁힘쓰	-18022
피에르	-18023
▁Pap	-18024
▁car	-18025
▁다이나	-18026
▁세포막	-18027
▁cell	-18028
▁정사각형	-18029
▁모터사이클	-18030
enz	-18031
▁cl	-18032
▁무루	-18033
▁봐야	-18034
▁분담	-18035
▁살레	-18036
▁소도	-18037
▁앨버	-18038
▁유재	-18039
▁키아	-18040
▁Hal	-18041
▁LCD	-18042
▁가져갔	-18043
▁농작물	-18044
▁바이스	-18045
▁레오나르	-18046
▁이마가와	-18047
▁케이블카	-18048
▁갸	-18049
ift	-18050
▁GR	-18051
▁TN	-18052
▁구석	-18053
▁납품	-18054
▁로런	-18055
▁본진	-18056
▁살피	-18057
▁새해	-18058
▁선서	-18059
▁소정	-18060
▁식도	-18061
▁언젠	-18062
▁진성	-18063
▁청했	-18064
▁토드	-18065
▁핑계	-18066
cher	-18067
▁아산시	-18068
▁직할시	-18069
▁티무르	-18070
▁Records	-18071
▁UK	-18072
▁경멸	-18073
▁고질	-18074
▁달마	-18075
▁당사	-18076
▁몬태	-18077
▁안재	-18078
▁양구	-18079
▁코지	-18080
▁특위	-18081
▁펜스	-18082
▁합장	-18083
게이트	-18084
▁Ele	-18085
▁남해군	-18086
▁추밀원	-18087
▁Master	-18088
라나	-18089
선교	-18090
▁Ba	-18091
▁명장	-18092
▁몸집	-18093
▁미타	-18094
▁수선	-18095
▁수의	-18096
▁신익	-18097
▁자가	-18098
▁초당	-18099
▁코다	-18100
▁태상	-18101
▁패퇴	-18102
▁하순	-18103
▁But	-18104
▁Sol	-18105
▁art	-18106
▁거머쥐	-18107
▁베드로	-18108
▁쌍방울	-18109
▁안데르	-18110
▁알레르	-18111
▁페인트	-18112
▁폴란드인	-18113
렐리	-18114
버라	-18115
체어	-18116
토크	-18117
pos	-18118
▁do	-18119
▁격침	-18120
▁어딘	-18121
▁열기	-18122
▁231	-18123
▁not	-18124
▁브람스	-18125
▁시나노	-18126
▁유길준	-18127
▁필리스	-18128
▁기독교인	-18129
▁이오니아	-18130
▁구마모토현	-18131
IO	-18132
▁\	-18133
들인	-18134
로로	-18135
팔렌	-18136
▁느라	-18137
▁양평	-18138
▁주상	-18139
▁포즈	-18140
▁학도	-18141
▁공직자	-18142
▁글리코	-18143
▁내려온	-18144
▁지방도	-18145
▁1813	-18146
▁끌어들이	-18147
▁여주인공	-18148
▁COVID	-18149
덕궁	-18150
▁담론	-18151
▁로어	-18152
▁루드	-18153
▁시성	-18154
▁의왕	-18155
▁이철	-18156
▁전액	-18157
▁하세	-18158
▁라그랑	-18159
▁파르마	-18160
▁돌아와서	-18161
▁상파울루	-18162
40	-18163
나비	-18164
▁간디	-18165
▁국면	-18166
▁남로	-18167
▁내역	-18168
▁만기	-18169
▁민선	-18170
▁봉분	-18171
▁비욘	-18172
▁설사	-18173
▁조엘	-18174
▁직함	-18175
▁현생	-18176
aven	-18177
▁Mal	-18178
▁북반구	-18179
▁남한산성	-18180
갱이	-18181
월드	-18182
IST	-18183
▁PK	-18184
▁누에	-18185
▁성찬	-18186
▁승전	-18187
▁신관	-18188
▁임업	-18189
▁효용	-18190
▁Fin	-18191
▁Mur	-18192
▁구미시	-18193
▁브루노	-18194
▁스와프	-18195
▁알파인	-18196
▁웨슬리	-18197
▁유공자	-18198
▁유명세	-18199
▁함부로	-18200
▁휠체어	-18201
▁김석	-18202
▁내게	-18203
▁덕수	-18204
▁미묘	-18205
▁버즈	-18206
▁승마	-18207
▁약수	-18208
▁오웬	-18209
▁인삼	-18210
▁장론	-18211
▁제타	-18212
▁효성	-18213
▁다닌다	-18214
▁변속기	-18215
▁재빨리	-18216
▁주세페	-18217
anger	-18218
▁Corpor	-18219
촌동	-18220
커우	-18221
▁교내	-18222
▁도량	-18223
▁라몬	-18224
▁선회	-18225
▁코니	-18226
▁트러	-18227
▁틈새	-18228
가하라	-18229
eter	-18230
▁그래미상	-18231
▁자동변속기	-18232
▁크리에이티브	-18233
기둥	-18234
rib	-18235
rum	-18236
▁결집	-18237
▁내수	-18238
▁라사	-18239
▁육박	-18240
▁음양	-18241
▁인피	-18242
▁코디	-18243
▁팔려	-18244
▁패드	-18245
▁한가	-18246
디우스	-18247
루리아	-18248
▁라이즈	-18249
▁야행성	-18250
▁크라스	-18251
▁1833	-18252
▁수마트라	-18253
▁셀레우코스	-18254
▁밈	-18255
▁설과	-18256
▁아토	-18257
▁으론	-18258
▁장차	-18259
▁천태	-18260
▁타촌	-18261
▁헨드	-18262
▁386	-18263
▁스펜서	-18264
▁시게루	-18265
▁지팡이	-18266
ering	-18267
▁갑작스런	-18268
▁초등학생	-18269
▁테러리스트	-18270
슐리	-18271
▁모를	-18272
▁무당	-18273
▁변장	-18274
▁부탄	-18275
▁유승	-18276
▁첨부	-18277
▁켈빈	-18278
▁해금	-18279
lish	-18280
wood	-18281
▁Cry	-18282
▁Web	-18283
▁김종직	-18284
▁분류학	-18285
▁선언문	-18286
▁팩토리	-18287
▁평상시	-18288
▁알베르토	-18289
▁암스트롱	-18290
▁요시노부	-18291
쳐서	-18292
▁NO	-18293
▁TG	-18294
▁그람	-18295
▁낙태	-18296
▁분양	-18297
▁비슈	-18298
▁쇠약	-18299
▁시경	-18300
▁전란	-18301
▁전집	-18302
▁톨킨	-18303
▁해일	-18304
▁현명	-18305
▁효능	-18306
노벨라	-18307
시아드	-18308
oria	-18309
▁390	-18310
▁Jac	-18311
▁광화문	-18312
▁노트북	-18313
▁농민군	-18314
▁메이트	-18315
▁상대론	-18316
▁이세이	-18317
▁일진회	-18318
▁최하위	-18319
▁히말라	-18320
▁드레이크	-18321
▁로베르트	-18322
▁텔레노벨라	-18323
▁유니버시아드	-18324
18	-18325
▁촘	-18326
질량	-18327
▁고해	-18328
▁남포	-18329
▁마신	-18330
▁보츠	-18331
▁속보	-18332
▁이근	-18333
▁제식	-18334
▁프록	-18335
▁피그	-18336
▁루터교	-18337
▁모조리	-18338
▁버려진	-18339
▁올라온	-18340
▁헬싱키	-18341
▁무라카미	-18342
agement	-18343
▁캥	-18344
레앙	-18345
▁EL	-18346
▁OH	-18347
▁Si	-18348
▁kr	-18349
▁갑상	-18350
▁강구	-18351
▁구자	-18352
▁내구	-18353
▁당명	-18354
▁비참	-18355
▁연어	-18356
▁재주	-18357
▁클루	-18358
▁템포	-18359
▁폰트	-18360
▁DFB	-18361
▁Dev	-18362
▁라쿠텐	-18363
▁리서치	-18364
▁취한다	-18365
메니스탄	-18366
의금부사	-18367
▁1834	-18368
▁Prot	-18369
▁야마구치현	-18370
▁투르크메니스탄	-18371
▁넉	-18372
로아	-18373
▁Av	-18374
▁pH	-18375
▁고취	-18376
▁루지	-18377
▁이형	-18378
▁정년	-18379
▁종단	-18380
▁친히	-18381
▁풍기	-18382
▁해구	-18383
▁히브	-18384
▁233	-18385
▁Fla	-18386
▁겨울철	-18387
▁목포시	-18388
▁미에현	-18389
▁버밍엄	-18390
▁보나파	-18391
▁지방관	-18392
▁보나파르트	-18393
던스	-18394
▁농협	-18395
▁배설	-18396
▁실태	-18397
▁억류	-18398
▁오호	-18399
▁이씨	-18400
▁쪼개	-18401
▁펠레	-18402
▁핼리	-18403
▁국문학	-18404
▁그로스	-18405
▁니스트	-18406
▁무너져	-18407
▁유물론	-18408
▁탈수소	-18409
▁1100	-18410
▁보호구역	-18411
▁요시아키	-18412
▁UF	-18413
▁고하	-18414
▁군비	-18415
▁근연	-18416
▁기주	-18417
▁육아	-18418
▁이색	-18419
▁접착	-18420
▁창씨	-18421
▁코레	-18422
▁향로	-18423
▁737	-18424
▁어리석	-18425
▁원한다	-18426
▁평의원	-18427
▁1809	-18428
▁Mach	-18429
▁카리브해	-18430
▁Henry	-18431
▁Gi	-18432
▁Sl	-18433
▁급기	-18434
▁데인	-18435
▁드니	-18436
▁상시	-18437
▁신작	-18438
▁아픔	-18439
▁암초	-18440
▁오딘	-18441
▁윗면	-18442
▁타오	-18443
▁틈타	-18444
▁평신	-18445
▁헬로	-18446
비우스	-18447
▁all	-18448
▁요시쓰	-18449
▁유성구	-18450
▁작사가	-18451
▁절대로	-18452
▁후쿠다	-18453
▁1805	-18454
▁트랜스젠더	-18455
▁돛	-18456
뉴스	-18457
▁Ra	-18458
▁수렵	-18459
▁스톨	-18460
▁어라	-18461
▁연임	-18462
▁위배	-18463
▁정은	-18464
▁정현	-18465
▁제헌	-18466
▁증원	-18467
▁필로	-18468
▁한라	-18469
iter	-18470
▁바로잡	-18471
▁알레산	-18472
▁테이크	-18473
▁하카타	-18474
▁Mill	-18475
▁발칸반도	-18476
▁브래들리	-18477
pm	-18478
▁교주	-18479
▁마촌	-18480
▁성제	-18481
▁수강	-18482
▁육식	-18483
▁쿠키	-18484
▁펀치	-18485
▁호러	-18486
▁환초	-18487
지스터	-18488
▁남반구	-18489
▁북극해	-18490
▁일제히	-18491
▁중심핵	-18492
▁1597	-18493
▁Fall	-18494
▁도쿠시마	-18495
ava	-18496
une	-18497
▁감기	-18498
▁규장	-18499
▁극회	-18500
▁마초	-18501
▁매질	-18502
▁목초	-18503
▁스팅	-18504
▁우도	-18505
▁천구	-18506
▁치가	-18507
▁217	-18508
▁돌아간	-18509
▁사천왕	-18510
▁선수상	-18511
▁수증기	-18512
▁전년도	-18513
▁좋아했	-18514
▁현악기	-18515
▁세키가하라	-18516
▁오클라호마	-18517
EX	-18518
조류	-18519
탐정	-18520
▁EV	-18521
▁갑오	-18522
▁도색	-18523
▁슬퍼	-18524
▁쌍용	-18525
▁총국	-18526
▁티오	-18527
▁페티	-18528
▁핵산	-18529
▁Who	-18530
▁상속인	-18531
▁정몽주	-18532
▁가나자와	-18533
▁서프랑크	-18534
▁워싱턴주	-18535
▁히말라야	-18536
▁트랜지스터	-18537
경찰	-18538
카라	-18539
▁걸맞	-18540
▁기욤	-18541
▁북상	-18542
▁사계	-18543
▁윤년	-18544
▁총살	-18545
▁총체	-18546
▁할양	-18547
▁경덕왕	-18548
▁언젠가	-18549
▁조병옥	-18550
▁ㅣ	-18551
esh	-18552
ume	-18553
▁SI	-18554
▁TA	-18555
▁고압	-18556
▁벨로	-18557
▁사보	-18558
▁와해	-18559
▁임실	-18560
▁제보	-18561
▁주치	-18562
▁표결	-18563
고양이	-18564
라리온	-18565
▁무궁화호	-18566
▁받아들인	-18567
▁시에라리온	-18568
락부	-18569
평가	-18570
▁Ig	-18571
▁JS	-18572
▁김세	-18573
▁당분	-18574
▁마현	-18575
▁말소	-18576
▁문성	-18577
▁비기	-18578
▁산마	-18579
▁트랩	-18580
정보부	-18581
▁Kim	-18582
▁베이직	-18583
▁혁명군	-18584
▁Real	-18585
▁Commun	-18586
하르	-18587
▁EM	-18588
▁NK	-18589
▁RF	-18590
▁공해	-18591
▁기민	-18592
▁말린	-18593
▁머피	-18594
▁미로	-18595
▁벨벳	-18596
▁서강	-18597
▁손쉽	-18598
▁오기	-18599
▁장택	-18600
▁적성	-18601
▁종친	-18602
▁친절	-18603
▁훈족	-18604
▁TOP	-18605
▁여객선	-18606
▁찾아왔	-18607
▁트루먼	-18608
▁합천군	-18609
▁Cons	-18610
▁보였으나	-18611
▁오이라트	-18612
▁그레고리력	-18613
99	-18614
▁낀	-18615
거성	-18616
든지	-18617
테롤	-18618
▁반열	-18619
▁아약	-18620
▁인노	-18621
▁잊혀	-18622
▁차분	-18623
▁판다	-18624
▁공기업	-18625
▁원정군	-18626
▁출장소	-18627
▁커티스	-18628
총리대신	-18629
▁1824	-18630
▁마음대로	-18631
▁내각총리대신	-18632
러기	-18633
보스	-18634
컨드	-18635
▁노시	-18636
▁능하	-18637
▁독실	-18638
▁마거	-18639
▁민가	-18640
▁약학	-18641
▁우사	-18642
icle	-18643
▁Bal	-18644
▁가입자	-18645
▁브릿지	-18646
▁프라이스	-18647
▁인터랙티브	-18648
td	-18649
림동	-18650
싸움	-18651
▁다지	-18652
▁매월	-18653
▁버시	-18654
▁안다	-18655
▁원화	-18656
▁적재	-18657
▁타고	-18658
▁TBC	-18659
▁지난다	-18660
▁헤이스	-18661
▁Lang	-18662
▁어드밴스	-18663
▁네브래스카	-18664
레븐	-18665
▁gl	-18666
▁we	-18667
▁군국	-18668
▁이트	-18669
▁참배	-18670
▁티치	-18671
너티브	-18672
▁Ray	-18673
▁med	-18674
▁리그전	-18675
▁브레인	-18676
▁후반부	-18677
▁얼터너티브	-18678
ua	-18679
건적	-18680
모프	-18681
코인	-18682
▁구나	-18683
▁깜짝	-18684
▁베컴	-18685
▁볼륨	-18686
▁상작	-18687
▁석상	-18688
▁외동	-18689
▁이견	-18690
▁탈리	-18691
▁퇴계	-18692
▁튜버	-18693
▁Cur	-18694
▁건너갔	-18695
▁돋보이	-18696
▁두더지	-18697
▁드러난	-18698
▁마그마	-18699
▁시흥시	-18700
▁정보국	-18701
▁조제프	-18702
▁준다고	-18703
▁프린터	-18704
▁스티븐스	-18705
▁이해관계	-18706
▁토스카나	-18707
소니	-18708
▁간염	-18709
▁군위	-18710
▁권하	-18711
▁노숙	-18712
▁두껍	-18713
▁로젠	-18714
▁모기	-18715
▁성부	-18716
▁셰이	-18717
▁스쿠	-18718
▁아구	-18719
▁장승	-18720
▁혈청	-18721
burg	-18722
▁거제시	-18723
▁기부금	-18724
▁세컨드	-18725
▁유격대	-18726
▁전철역	-18727
▁모노이드	-18728
▁열렸으며	-18729
▁주머니쥐	-18730
스텐	-18731
자유	-18732
▁NX	-18733
▁각광	-18734
▁마고	-18735
▁민권	-18736
▁본초	-18737
▁비고	-18738
▁소켓	-18739
▁에인	-18740
▁역행	-18741
▁용매	-18742
▁윈터	-18743
▁이효	-18744
▁준하	-18745
▁헤지	-18746
▁가까웠	-18747
▁기뻐하	-18748
▁데포르	-18749
▁디스코	-18750
▁레이어	-18751
▁막아내	-18752
▁문화사	-18753
▁이지스	-18754
▁프리킥	-18755
▁언더그라운드	-18756
▁낙타	-18757
▁남궁	-18758
▁만수	-18759
▁미숙	-18760
▁바사	-18761
▁바하	-18762
▁반야	-18763
▁보궐	-18764
▁비호	-18765
▁세탁	-18766
▁신천	-18767
▁중첩	-18768
▁코민	-18769
슬라브	-18770
ents	-18771
vers	-18772
▁목격자	-18773
▁스타인	-18774
▁아약스	-18775
▁은하단	-18776
▁포인터	-18777
▁프린세스	-18778
▁River	-18779
NS	-18780
ba	-18781
레프	-18782
식스	-18783
ury	-18784
▁걸로	-18785
▁교묘	-18786
▁담장	-18787
▁미추	-18788
▁반려	-18789
▁분장	-18790
▁실습	-18791
▁실화	-18792
▁이다	-18793
▁정약	-18794
▁증직	-18795
▁총알	-18796
▁탄화	-18797
▁표했	-18798
▁빼앗겼	-18799
▁으리라	-18800
▁콜레스	-18801
▁학생회	-18802
▁Contr	-18803
바스	-18804
투르	-18805
티드	-18806
OVE	-18807
▁개리	-18808
▁노총	-18809
▁매드	-18810
▁사목	-18811
▁서드	-18812
▁실크	-18813
▁영아	-18814
▁오목	-18815
▁찬탈	-18816
▁치수	-18817
▁하카	-18818
▁헬렌	-18819
▁460	-18820
[...]
