<|endoftext|>	0
<unk>	0
▁1	-0
▁이	-1
으로	-2
에서	-3
▁있	-4
▁2	-5
▁그	-6
▁대	-7
▁사	-8
이다	-9
었다	-10
▁수	-11
▁지	-12
()	-13
▁20	-14
▁19	-15
▁가	-16
▁시	-17
▁기	-18
▁아	-19
▁전	-20
▁하	-21
했다	-22
▁있다	-23
▁다	-24
▁제	-25
▁일	-26
하였	-27
▁중	-28
▁한	-29
▁정	-30
▁주	-31
하는	-32
▁것	-33
▁자	-34
▁인	-35
되었다	-36
▁공	-37
▁위	-38
▁유	-39
▁경	-40
▁보	-41
▁3	-42
하고	-43
▁등	-44
▁부	-45
하였다	-46
▁조	-47
▁미	-48
하여	-49
▁동	-50
▁발	-51
▁영	-52
▁모	-53
▁선	-54
▁나	-55
으며	-56
▁연	-57
▁의	-58
▁마	-59
▁오	-60
한다	-61
▁소	-62
에는	-63
▁고	-64
▁201	-65
▁스	-66
▁개	-67
▁세	-68
▁구	-69
▁도	-70
▁비	-71
▁상	-72
▁국	-73
▁서	-74
▁후	-75
▁여	-76
▁4	-77
▁"	-78
▁때	-79
▁200	-80
▁해	-81
▁관	-82
▁프	-83
▁성	-84
▁있는	-85
▁신	-86
▁대한	-87
부터	-88
▁5	-89
00	-90
▁(	-91
▁또	-92
▁방	-93
지만	-94
▁않	-95
▁바	-96
▁'	-97
되어	-98
▁만	-99
▁통	-100
까지	-101
▁무	-102
▁장	-103
▁남	-104
▁출	-105
▁같	-106
▁내	-107
▁현	-108
▁교	-109
에게	-110
▁역	-111
▁포	-112
적인	-113
▁우	-114
▁거	-115
▁결	-116
▁6	-117
▁문	-118
적으로	-119
된다	-120
이라	-121
▁작	-122
▁생	-123
▁최	-124
▁불	-125
학교	-126
▁원	-127
국의	-128
▁진	-129
▁노	-130
▁어	-131
▁알	-132
▁당	-133
▁7	-134
▁강	-135
▁반	-136
▁8	-137
▁파	-138
▁따	-139
되었	-140
▁분	-141
▁계	-142
▁사용	-143
▁리	-144
▁받	-145
▁없	-146
들이	-147
▁두	-148
들은	-149
▁말	-150
▁10	-151
or	-152
면서	-153
▁실	-154
▁배	-155
에서는	-156
▁단	-157
년에	-158
하기	-159
▁명	-160
▁이후	-161
er	-162
▁함	-163
▁9	-164
▁예	-165
▁차	-166
▁설	-167
▁재	-168
▁에	-169
▁안	-170
▁한다	-171
하게	-172
▁데	-173
▁로	-174
▁일본	-175
▁199	-176
았다	-177
▁요	-178
▁다음	-179
▁특	-180
▁18	-181
였다	-182
▁음	-183
▁종	-184
▁초	-185
▁감	-186
▁12	-187
▁S	-188
▁독	-189
▁추	-190
▁카	-191
▁그는	-192
▁군	-193
▁라	-194
▁많	-195
(,	-196
on	-197
리아	-198
▁~	-199
으나	-200
▁더	-201
▁및	-202
an	-203
스트	-204
▁지역	-205
▁활	-206
▁다른	-207
in	-208
▁대한민	-209
▁태	-210
▁건	-211
▁김	-212
▁타	-213
▁참	-214
▁)	-215
▁같은	-216
▁입	-217
▁위해	-218
▁되었다	-219
는데	-220
▁매	-221
▁형	-222
▁운	-223
이며	-224
▁11	-225
la	-226
▁C	-227
주의	-228
▁코	-229
▁평	-230
▁미국	-231
▁양	-232
▁산	-233
▁그리	-234
레이	-235
▁행	-236
▁피	-237
▁적	-238
▁올	-239
▁시작	-240
▁과	-241
▁베	-242
▁열	-243
▁크	-244
▁A	-245
들의	-246
▁프로	-247
▁번	-248
▁때문	-249
▁호	-250
▁본	-251
들어	-252
▁총	-253
들을	-254
▁북	-255
▁승	-256
되는	-257
▁왕	-258
▁화	-259
▁따라	-260
▁회	-261
라는	-262
▁198	-263
▁또한	-264
▁목	-265
),	-266
하며	-267
▁함께	-268
▁사람	-269
▁M	-270
기도	-271
▁변	-272
▁그러	-273
▁임	-274
▁각	-275
▁외	-276
▁표	-277
▁영화	-278
▁속	-279
▁달	-280
▁약	-281
▁처	-282
시아	-283
▁물	-284
라고	-285
▁자신	-286
이나	-287
▁경우	-288
▁게	-289
▁F	-290
▁현재	-291
en	-292
19	-293
▁드	-294
하지	-295
▁직	-296
▁새	-297
▁f	-298
▁그의	-299
▁간	-300
▁T	-301
▁학	-302
▁가장	-303
▁위치	-304
▁사이	-305
▁선수	-306
▁이름	-307
▁민	-308
ar	-309
▁집	-310
기에	-311
▁기록	-312
▁의해	-313
▁세계	-314
▁레	-315
▁또는	-316
▁저	-317
▁메	-318
▁하나	-319
하다	-320
▁당시	-321
▁존	-322
스의	-323
▁때문에	-324
▁확	-325
에도	-326
▁항	-327
▁것을	-328
mu	-329
▁체	-330
되고	-331
20	-332
기를	-333
일에	-334
▁점	-335
▁15	-336
▁197	-337
▁그러나	-338
▁국가	-339
▁것으로	-340
▁한국	-341
al	-342
▁있었다	-343
▁뒤	-344
▁박	-345
▁for	-346
▁토	-347
▁했다	-348
▁브	-349
▁B	-350
▁있으며	-351
이라고	-352
▁투	-353
▁것이	-354
▁복	-355
mula	-356
▁필	-357
▁16	-358
▁통해	-359
리는	-360
▁축	-361
▁된다	-362
지는	-363
졌다	-364
▁합	-365
▁formula	-366
▁못	-367
▁철	-368
▁청	-369
▁광	-370
▁디	-371
▁천	-372
▁증	-373
at	-374
▁프랑	-375
▁조선	-376
▁그리고	-377
▁야	-378
▁활동	-379
▁D	-380
했고	-381
▁196	-382
▁17	-383
▁법	-384
▁근	-385
▁치	-386
▁판	-387
es	-388
▁많은	-389
▁언	-390
스는	-391
▁첫	-392
▁버	-393
▁금	-394
▁삼	-395
▁편	-396
▁플	-397
▁살	-398
▁트	-399
▁P	-400
▁심	-401
▁포함	-402
▁가지	-403
리를	-404
▁창	-405
이라는	-406
▁것이다	-407
▁들어	-408
▁높	-409
▁돌	-410
▁I	-411
▁아니	-412
이었다	-413
랜드	-414
하면서	-415
하였고	-416
▁쓰	-417
는다	-418
▁하는	-419
▁황	-420
ic	-421
▁다음과	-422
▁애	-423
▁페	-424
▁완	-425
▁뜻	-426
▁K	-427
▁경기	-428
▁대해	-429
▁L	-430
등학교	-431
▁네	-432
▁충	-433
▁있었	-434
▁194	-435
▁할	-436
▁다시	-437
▁여러	-438
▁대한민국	-439
he	-440
▁14	-441
▁루	-442
▁대한민국의	-443
개의	-444
▁제작	-445
▁인구	-446
사를	-447
▁연구	-448
대로	-449
▁사회	-450
▁시즌	-451
▁큰	-452
▁병	-453
is	-454
▁독일	-455
▁백	-456
로서	-457
▁등이	-458
이는	-459
▁모두	-460
되었고	-461
이고	-462
▁13	-463
▁되	-464
보다	-465
▁서울	-466
▁패	-467
▁감독	-468
상을	-469
▁일부	-470
▁모든	-471
▁클	-472
▁팀	-473
▁은	-474
▁용	-475
▁195	-476
▁순	-477
▁권	-478
▁취	-479
라이	-480
▁R	-481
▁도시	-482
▁히	-483
km	-484
▁G	-485
위를	-486
▁죽	-487
▁처음	-488
▁발매	-489
▁알려	-490
성을	-491
니아	-492
장을	-493
▁채	-494
it	-495
▁아이	-496
▁규	-497
지를	-498
▁중국	-499
▁H	-500
▁친	-501
년부터	-502
▁위한	-503
▁하였다	-504
000	-505
이었	-506
자가	-507
▁정부	-508
▁식	-509
했으며	-510
▁동안	-511
▁구성	-512
▁-	-513
▁이상	-514
▁배우	-515
▁테	-516
▁전쟁	-517
▁이루	-518
회의	-519
대의	-520
▁대표	-521
▁N	-522
부분	-523
▁존재	-524
▁정치	-525
▁등의	-526
이자	-527
▁영국	-528
▁끝	-529
▁손	-530
▁자신의	-531
거나	-532
▁러	-533
▁이어	-534
▁프랑스	-535
▁축구	-536
▁게임	-537
▁일반	-538
리에	-539
▁이용	-540
▁E	-541
▁허	-542
▁기준	-543
도의	-544
났다	-545
▁작품	-546
력을	-547
▁뉴	-548
▁리그	-549
▁즉	-550
▁개발	-551
▁있어	-552
▁길	-553
▁나타	-554
▁것은	-555
도로	-556
시에	-557
▁음반	-558
▁가능	-559
▁앞	-560
▁환	-561
▁문제	-562
년에는	-563
▁캐	-564
(),	-565
▁맡	-566
▁온	-567
▁이러	-568
▁새로	-569
le	-570
▁중심	-571
▁월	-572
리스	-573
▁논	-574
▁같다	-575
▁접	-576
▁이러한	-577
년대	-578
▁걸	-579
▁U	-580
▁발견	-581
▁준	-582
나라	-583
▁협	-584
▁번째	-585
re	-586
▁맞	-587
▁193	-588
기의	-589
▁이는	-590
▁30	-591
▁밀	-592
ou	-593
▁미국의	-594
▁주장	-595
▁국제	-596
▁농	-597
되었으며	-598
도록	-599
통령	-600
▁발표	-601
▁W	-602
ion	-603
들과	-604
로부터	-605
▁대부분	-606
▁태어	-607
▁곳	-608
▁갖	-609
(1	-610
▁하지만	-611
▁검	-612
▁면	-613
▁의미	-614
▁사망	-615
▁등을	-616
하면	-617
▁음악	-618
로는	-619
▁향	-620
시키	-621
▁별	-622
자의	-623
▁볼	-624
▁영향	-625
기는	-626
월에	-627
▁잘	-628
리카	-629
명의	-630
년까지	-631
▁방송	-632
군의	-633
리가	-634
▁참여	-635
다는	-636
▁대회	-637
st	-638
▁설치	-639
▁사건	-640
▁키	-641
▁역사	-642
위원	-643
▁전투	-644
기가	-645
란드	-646
▁지방	-647
▁발생	-648
에서도	-649
이트	-650
▁위치한	-651
▁폭	-652
스를	-653
el	-654
▁밝	-655
서는	-656
▁담	-657
▁2010	-658
▁이를	-659
▁대통령	-660
세기	-661
▁귀	-662
했던	-663
▁,	-664
▁막	-665
▁공격	-666
다고	-667
▁되어	-668
디오	-669
정을	-670
쪽으로	-671
▁육	-672
▁우승	-673
▁진행	-674
▁결과	-675
▁문화	-676
자는	-677
▁대학	-678
▁홍	-679
▁효	-680
▁하고	-681
성이	-682
▁얻	-683
들에게	-684
인의	-685
▁프로그	-686
▁최초	-687
▁극	-688
리그	-689
▁관련	-690
어진	-691
▁곡	-692
▁특히	-693
하였으며	-694
▁t	-695
자를	-696
▁경제	-697
▁관계	-698
▁러시아	-699
▁유럽	-700
▁줄	-701
▁날	-702
▁선거	-703
▁다양	-704
▁이전	-705
스가	-706
-1	-707
와의	-708
▁25	-709
▁앨	-710
▁석	-711
om	-712
도를	-713
21	-714
ol	-715
▁블	-716
▁암	-717
▁설립	-718
▁이에	-719
▁새로운	-720
▁인해	-721
리의	-722
림픽	-723
스터	-724
사가	-725
▁책	-726
▁절	-727
▁일어	-728
▁엔	-729
▁시간	-730
▁헤	-731
▁부분	-732
요한	-733
▁갈	-734
▁글	-735
▁질	-736
▁받았다	-737
▁그녀	-738
렸다	-739
자로	-740
▁폐	-741
▁측	-742
▁수도	-743
대를	-744
번째	-745
▁생각	-746
▁된	-747
▁2008	-748
▁형태	-749
이스	-750
라마	-751
▁해당	-752
▁이탈	-753
▁만들어	-754
▁독립	-755
ch	-756
▁주로	-757
르는	-758
▁사실	-759
▁좋	-760
▁지원	-761
et	-762
▁교육	-763
▁같이	-764
▁커	-765
▁O	-766
▁로마	-767
▁와	-768
▁기술	-769
▁봉	-770
▁올림픽	-771
▁슈	-772
▁소속	-773
il	-774
(19	-775
▁이것	-776
▁참가	-777
▁범	-778
▁자유	-779
과의	-780
▁침	-781
▁받아	-782
▁출신	-783
▁머	-784
르크	-785
▁프로그램	-786
▁니	-787
▁누	-788
▁결정	-789
am	-790
지로	-791
학자	-792
▁중앙	-793
식을	-794
▁계속	-795
ing	-796
▁21	-797
도는	-798
므로	-799
▁2012	-800
▁2011	-801
리즈	-802
▁등장	-803
▁출연	-804
▁있고	-805
화국	-806
▁잡	-807
▁2007	-808
▁성공	-809
▁탈	-810
▁데뷔	-811
▁2009	-812
▁상태	-813
▁운영	-814
,000	-815
▁J	-816
▁않았다	-817
▁매우	-818
▁구조	-819
비아	-820
명을	-821
드는	-822
▁골	-823
인이	-824
▁탄	-825
▁이탈리아	-826
▁벌	-827
이션	-828
▁2014	-829
프트	-830
▁생산	-831
▁가지고	-832
▁혼	-833
▁몇	-834
▁싱	-835
부의	-836
▁있던	-837
▁차지	-838
▁넘	-839
사의	-840
ro	-841
이지	-842
▁쿠	-843
처럼	-844
10	-845
▁아버	-846
전을	-847
▁악	-848
기로	-849
▁난	-850
▁아니라	-851
다가	-852
▁케	-853
▁24	-854
▁송	-855
▁2013	-856
▁여성	-857
으로서	-858
되지	-859
했지만	-860
▁없는	-861
▁전체	-862
▁섬	-863
▁돌아	-864
▁2018	-865
▁타이	-866
▁만들	-867
▁아들	-868
▁들	-869
us	-870
대에	-871
▁급	-872
우스	-873
▁일본의	-874
▁2015	-875
▁찾	-876
▁터	-877
▁제공	-878
왔다	-879
▁폴	-880
▁없다	-881
대학교	-882
▁주요	-883
▁지정	-884
▁따르	-885
도가	-886
▁라이	-887
of	-888
▁아래	-889
명이	-890
▁23	-891
장이	-892
▁운동	-893
하기도	-894
▁2016	-895
에서의	-896
사는	-897
▁고려	-898
▁0	-899
▁윤	-900
▁결국	-901
▁최고	-902
▁.	-903
▁22	-904
▁조직	-905
해서	-906
▁계획	-907
▁행정	-908
스템	-909
▁192	-910
▁업	-911
▁않고	-912
▁떨	-913
일부터	-914
권을	-915
▁다양한	-916
▁팔	-917
▁데이	-918
▁한편	-919
지의	-920
하자	-921
화를	-922
스크	-923
as	-924
▁2017	-925
▁이유	-926
▁2006	-927
스타	-928
군은	-929
운데	-930
▁떠	-931
냈다	-932
▁방법	-933
▁앨범	-934
▁많이	-935
▁둘	-936
원을	-937
부에	-938
▁스타	-939
▁V	-940
▁역할	-941
▁드라마	-942
간의	-943
▁[	-944
▁가리	-945
▁콘	-946
수를	-947
▁스페	-948
▁후보	-949
▁빠	-950
▁28	-951
FA	-952
▁26	-953
수의	-954
어로	-955
▁내용	-956
▁힘	-957
▁유명	-958
▁좌	-959
진다	-960
자인	-961
▁연결	-962
▁빌	-963
▁거의	-964
지가	-965
스와	-966
음을	-967
원의	-968
▁27	-969
")	-970
이의	-971
▁인터	-972
으로써	-973
▁2000	-974
ac	-975
됐다	-976
▁남아	-977
▁몸	-978
▁국민	-979
장은	-980
▁묘	-981
▁가운데	-982
나는	-983
▁마지	-984
▁대학교	-985
▁출전	-986
인민	-987
남도	-988
▁않는다	-989
▁헌	-990
▁2019	-991
선의	-992
▁of	-993
▁칼	-994
▁시리즈	-995
인다	-996
▁따르면	-997
▁마이	-998
▁잠	-999
▁공식	-1000
대표	-1001
▁월드	-1002
▁높은	-1003
▁영향을	-1004
어를	-1005
장으로	-1006
▁시스템	-1007
▁열린	-1008
점을	-1009
▁표현	-1010
de	-1011
▁각각	-1012
▁모습	-1013
▁추가	-1014
▁마지막	-1015
대학	-1016
▁이루어	-1017
▁하여	-1018
▁공개	-1019
였던	-1020
가는	-1021
▁100	-1022
하려	-1023
▁컴	-1024
▁엘	-1025
▁필요	-1026
하던	-1027
▁바이	-1028
▁수상	-1029
했으나	-1030
사로	-1031
▁얼	-1032
."	-1033
으로부터	-1034
▁이미	-1035
지에	-1036
이드	-1037
▁191	-1038
머니	-1039
▁노래	-1040
▁격	-1041
▁과정	-1042
▁그룹	-1043
스로	-1044
▁작은	-1045
▁이름을	-1046
▁레이	-1047
리고	-1048
전에	-1049
▁2005	-1050
▁녹	-1051
시의	-1052
▁졸	-1053
("	-1054
▁알려져	-1055
▁능	-1056
▁보고	-1057
이가	-1058
BS	-1059
민주	-1060
▁따라서	-1061
and	-1062
▁190	-1063
수가	-1064
성의	-1065
▁정보	-1066
원이	-1067
제로	-1068
구의	-1069
▁직접	-1070
▁임명	-1071
▁진출	-1072
▁붙	-1073
▁쇼	-1074
으로는	-1075
해야	-1076
▁몰	-1077
었고	-1078
▁2020	-1079
대한	-1080
ed	-1081
▁인정	-1082
▁그것	-1083
▁기능	-1084
▁않은	-1085
▁유지	-1086
▁밴	-1087
력이	-1088
시켰	-1089
ent	-1090
▁인도	-1091
▁이야	-1092
운동	-1093
▁평가	-1094
▁센	-1095
▁대신	-1096
▁29	-1097
초등학교	-1098
.1	-1099
▁보여	-1100
위원회	-1101
▁오스트	-1102
▁상황	-1103
▁개최	-1104
▁프리	-1105
▁2004	-1106
▁철도	-1107
▁시대	-1108
지고	-1109
▁자연	-1110
제를	-1111
텔레	-1112
▁기원	-1113
▁눈	-1114
니다	-1115
▁먹	-1116
▁건설	-1117
들에	-1118
▁퍼	-1119
상의	-1120
▁뛰	-1121
▁형성	-1122
200	-1123
_1	-1124
▁기업	-1125
▁풍	-1126
▁브라	-1127
▁중요한	-1128
전히	-1129
▁변경	-1130
르트	-1131
▁건물	-1132
인은	-1133
▁경상	-1134
▁c	-1135
▁대전	-1136
▁그가	-1137
▁항공	-1138
▁제국	-1139
ur	-1140
▁모델	-1141
▁아르	-1142
위에	-1143
▁정의	-1144
▁활약	-1145
▁민주	-1146
▁않았	-1147
▁생활	-1148
▁영화이다	-1149
사에	-1150
어는	-1151
▁플레이	-1152
▁되는	-1153
ig	-1154
갔다	-1155
군이	-1156
▁그리스	-1157
▁관한	-1158
인을	-1159
▁티	-1160
▁후에	-1161
▁발전	-1162
▁핵	-1163
선을	-1164
▁낮	-1165
).	-1166
문화	-1167
▁서로	-1168
▁압	-1169
▁학교	-1170
▁정도	-1171
치는	-1172
▁졸업	-1173
▁공동	-1174
▁크게	-1175
▁홈	-1176
▁m	-1177
▁이론	-1178
▁인구는	-1179
군에	-1180
▁비롯	-1181
▁결혼	-1182
일까지	-1183
트로	-1184
▁있는데	-1185
▁응	-1186
수로	-1187
▁시작했다	-1188
전에서	-1189
킨다	-1190
레스	-1191
▁싱글	-1192
22	-1193
▁방식	-1194
▁워	-1195
▁지금	-1196
세의	-1197
iv	-1198
▁울	-1199
.5	-1200
▁시절	-1201
▁사이에	-1202
▁인물	-1203
▁희	-1204
▁말한다	-1205
▁여자	-1206
▁기준으로	-1207
▁뜻은	-1208
▁가진	-1209
▁역시	-1210
▁혹	-1211
북도	-1212
부를	-1213
ra	-1214
▁31	-1215
▁뿐	-1216
계를	-1217
▁일으	-1218
프리카	-1219
▁관리	-1220
▁분류	-1221
▁태어났다	-1222
비전	-1223
▁느	-1224
▁사업	-1225
▁노동	-1226
원은	-1227
▁반대	-1228
▁요구	-1229
인민공	-1230
스탄	-1231
적은	-1232
▁서비	-1233
치를	-1234
있다	-1235
▁원래	-1236
드의	-1237
부는	-1238
▁않는	-1239
▁기반	-1240
▁딸	-1241
▁군사	-1242
▁마을	-1243
▁현대	-1244
50	-1245
ation	-1246
ot	-1247
원으로	-1248
un	-1249
▁만든	-1250
▁기타	-1251
▁상대	-1252
▁거쳐	-1253
문을	-1254
▁색	-1255
▁학생	-1256
되면서	-1257
▁지역의	-1258
▁나라	-1259
▁연합	-1260
▁출시	-1261
▁벨	-1262
▁기간	-1263
나다	-1264
되며	-1265
임을	-1266
▁아닌	-1267
리오	-1268
▁콜	-1269
▁판매	-1270
수는	-1271
▁동시에	-1272
▁지도	-1273
▁역할을	-1274
▁FC	-1275
▁긴	-1276
장의	-1277
▁어떤	-1278
▁계약	-1279
제가	-1280
▁실시	-1281
▁2002	-1282
▁놓	-1283
▁전국	-1284
른다	-1285
대는	-1286
▁제외	-1287
▁기본	-1288
▁자동	-1289
▁2003	-1290
▁이동	-1291
대가	-1292
▁텔레	-1293
▁부산	-1294
▁운행	-1295
상이	-1296
▁지구	-1297
▁비판	-1298
▁개인	-1299
▁중화	-1300
▁특징	-1301
▁수행	-1302
운드	-1303
id	-1304
▁전통	-1305
▁하였	-1306
▁이르	-1307
▁초기	-1308
▁처음으로	-1309
▁50	-1310
회를	-1311
이었던	-1312
▁the	-1313
▁최초의	-1314
체의	-1315
▁휴	-1316
▁빈	-1317
▁소련	-1318
▁:	-1319
▁있다고	-1320
광역	-1321
▁경기도	-1322
이를	-1323
▁잉	-1324
▁개의	-1325
제의	-1326
▁샤	-1327
정한	-1328
주는	-1329
▁지하	-1330
]]	-1331
▁증가	-1332
상으로	-1333
▁푸	-1334
▁배우이다	-1335
os	-1336
장에	-1337
▁웨	-1338
▁겸	-1339
▁인간	-1340
했는데	-1341
▁도쿄	-1342
um	-1343
자와	-1344
군을	-1345
▁189	-1346
하는데	-1347
▁일반적으로	-1348
▁전문	-1349
학적	-1350
▁슬	-1351
▁연방	-1352
▁여기	-1353
▁사랑	-1354
▁그래	-1355
▁퇴	-1356
▁맥	-1357
명은	-1358
▁다이	-1359
시마	-1360
▁싸	-1361
이기도	-1362
린다	-1363
가와	-1364
▁민족	-1365
▁1,	-1366
특별	-1367
▁도입	-1368
▁명칭	-1369
하였으나	-1370
역이다	-1371
ad	-1372
▁견	-1373
단의	-1374
▁[[	-1375
▁1990	-1376
▁기관	-1377
▁애니	-1378
▁종교	-1379
▁의한	-1380
▁있을	-1381
▁공간	-1382
소를	-1383
트를	-1384
중에	-1385
트의	-1386
어가	-1387
장에서	-1388
▁혹은	-1389
▁망	-1390
▁기존	-1391
▁엄	-1392
▁정책	-1393
▁비슷	-1394
▁특별	-1395
▁산업	-1396
▁보통	-1397
▁달리	-1398
물을	-1399
od	-1400
성은	-1401
▁s	-1402
▁혁	-1403
혔다	-1404
▁스위	-1405
▁위하여	-1406
체를	-1407
격을	-1408
▁p	-1409
▁목록	-1410
▁공연	-1411
▁이때	-1412
▁승강	-1413
드로	-1414
▁지나	-1415
▁야구	-1416
ter	-1417
하지만	-1418
카이	-1419
▁작업	-1420
▁궁	-1421
적을	-1422
▁이끌	-1423
▁작곡	-1424
▁나오	-1425
시간	-1426
▁하며	-1427
키는	-1428
호를	-1429
어의	-1430
▁넓	-1431
▁지배	-1432
.2	-1433
서를	-1434
▁역임	-1435
독교	-1436
201	-1437
▁어머니	-1438
▁훈	-1439
im	-1440
▁설명	-1441
30	-1442
과는	-1443
▁옮	-1444
▁바로	-1445
▁될	-1446
▁가수	-1447
▁유일	-1448
BC	-1449
ir	-1450
리와	-1451
스코	-1452
▁추정	-1453
▁소설	-1454
▁탑	-1455
▁과거	-1456
▁주변	-1457
▁뮤	-1458
▁변화	-1459
드를	-1460
▁적용	-1461
▁탐	-1462
트는	-1463
▁국내	-1464
▁경찰	-1465
▁전라	-1466
▁경기에서	-1467
스에	-1468
▁아버지	-1469
▁40	-1470
▁월드컵	-1471
().	-1472
▁되고	-1473
▁모양	-1474
▁(19	-1475
위로	-1476
▁받은	-1477
▁동일	-1478
야마	-1479
▁노선	-1480
무를	-1481
▁지휘	-1482
학과	-1483
르게	-1484
▁있다는	-1485
▁이것은	-1486
▁교황	-1487
리로	-1488
있는	-1489
도에	-1490
가지	-1491
▁행동	-1492
▁흔	-1493
▁비교	-1494
연구	-1495
리지	-1496
명이다	-1497
▁2001	-1498
▁확인	-1499
▁받았	-1500
마다	-1501
동안	-1502
쪽에	-1503
경기	-1504
▁규모	-1505
▁이적	-1506
시켰다	-1507
▁보내	-1508
피언	-1509
▁가족	-1510
ia	-1511
기관	-1512
▁지지	-1513
▁뉴욕	-1514
▁획	-1515
의를	-1516
▁그를	-1517
..	-1518
▁컴퓨	-1519
메이션	-1520
▁최대	-1521
▁선정	-1522
▁없이	-1523
▁환경	-1524
ut	-1525
▁피해	-1526
▁분야	-1527
▁중심으로	-1528
쳤다	-1529
▁대부분의	-1530
▁캐나다	-1531
▁때문이다	-1532
▁텔레비전	-1533
▁먼	-1534
▁통합	-1535
▁너	-1536
▁기원전	-1537
▁상당	-1538
op	-1539
▁염	-1540
▁득	-1541
60	-1542
회는	-1543
하거나	-1544
ct	-1545
▁2021	-1546
▁우주	-1547
▁국가대표	-1548
체가	-1549
▁차량	-1550
년의	-1551
▁윌	-1552
▁건축	-1553
▁가까	-1554
▁방향	-1555
▁태양	-1556
사와	-1557
▁대체	-1558
호로	-1559
▁이상의	-1560
▁멤	-1561
▁옥	-1562
▁풀	-1563
▁담당	-1564
▁착	-1565
정에	-1566
▁스페인	-1567
광역시	-1568
▁떨어	-1569
▁밖	-1570
관은	-1571
▁곧	-1572
▁보호	-1573
▁오늘	-1574
▁열차	-1575
▁기독교	-1576
▁숙	-1577
▁현재의	-1578
em	-1579
▁개념	-1580
▁FI	-1581
고등학교	-1582
▁자기	-1583
▁Y	-1584
크로	-1585
▁어느	-1586
▁언급	-1587
▁챔	-1588
방송	-1589
▁어린	-1590
되었던	-1591
단을	-1592
세는	-1593
▁받고	-1594
▁자신이	-1595
▁실패	-1596
▁몽	-1597
드리	-1598
▁있지만	-1599
제는	-1600
했다고	-1601
▁올라	-1602
18	-1603
▁부르	-1604
▁1980	-1605
.0	-1606
호는	-1607
▁연주	-1608
▁수는	-1609
▁갑	-1610
류의	-1611
▁찾아	-1612
▁선택	-1613
▁낙	-1614
▁방영	-1615
▁이런	-1616
▁TV	-1617
자들은	-1618
▁선출	-1619
▁주연	-1620
▁되었고	-1621
▁도로	-1622
▁발매된	-1623
▁감독의	-1624
이로	-1625
▁멤버	-1626
▁이와	-1627
▁두고	-1628
▁컴퓨터	-1629
▁데이터	-1630
▁기념	-1631
▁평균	-1632
▁1999	-1633
▁활동을	-1634
했을	-1635
인으로	-1636
▁속하는	-1637
▁애니메이션	-1638
당의	-1639
▁늘	-1640
▁세포	-1641
▁클럽	-1642
움을	-1643
ag	-1644
▁칸	-1645
인민공화국	-1646
글랜드	-1647
▁베이	-1648
ow	-1649
원에	-1650
▁조사	-1651
기와	-1652
▁충청	-1653
▁그녀는	-1654
▁부족	-1655
▁사고	-1656
▁걸쳐	-1657
▁언어	-1658
▁챔피언	-1659
부가	-1660
▁최종	-1661
▁넣	-1662
▁없었다	-1663
▁흐	-1664
트리	-1665
인이다	-1666
▁수록	-1667
▁1998	-1668
종의	-1669
▁반응	-1670
일에는	-1671
단은	-1672
▁작가	-1673
성과	-1674
적이	-1675
관을	-1676
치가	-1677
조의	-1678
▁나가	-1679
▁과학	-1680
▁획득	-1681
▁런	-1682
▁제작된	-1683
▁앤	-1684
성에	-1685
▁d	-1686
면에	-1687
렇게	-1688
메리카	-1689
▁위원	-1690
▁예정	-1691
80	-1692
40	-1693
심을	-1694
겼다	-1695
교육	-1696
일을	-1697
▁최근	-1698
계의	-1699
트남	-1700
▁솔	-1701
▁효과	-1702
시켜	-1703
▁더욱	-1704
▁이름은	-1705
▁지속	-1706
세가	-1707
▁거주	-1708
▁사상	-1709
▁시민	-1710
oc	-1711
으면	-1712
-2	-1713
렀다	-1714
▁하나이다	-1715
▁잔	-1716
포츠	-1717
▁동물	-1718
▁개봉	-1719
▁등에	-1720
▁b	-1721
스카	-1722
▁옛	-1723
▁입단	-1724
▁지역에	-1725
▁하다	-1726
▁그들의	-1727
▁St	-1728
▁다음을	-1729
▁있어서	-1730
▁윈	-1731
.3	-1732
▁있었던	-1733
구에	-1734
▁지정되었다	-1735
▁사이의	-1736
▁불가	-1737
리에서	-1738
화가	-1739
▁출판	-1740
▁대하여	-1741
▁FIFA	-1742
구하고	-1743
▁정당	-1744
널리	-1745
▁유사	-1746
역을	-1747
▁땅	-1748
하도록	-1749
쪽으로는	-1750
▁조건	-1751
▁마르	-1752
스에서	-1753
▁최초로	-1754
난다	-1755
▁칭	-1756
▁내려	-1757
▁전에	-1758
나무	-1759
▁에너	-1760
▁형식	-1761
▁잉글랜드	-1762
ay	-1763
▁관할	-1764
프로	-1765
시키는	-1766
▁뛰어	-1767
▁예를	-1768
▁가리킨다	-1769
▁1997	-1770
▁결승	-1771
▁선언	-1772
▁보인다	-1773
세를	-1774
▁연속	-1775
▁조지	-1776
▁것이라고	-1777
한다는	-1778
▁소유	-1779
▁맺	-1780
▁교회	-1781
▁발매되었다	-1782
▁어려	-1783
▁등으로	-1784
▁표준	-1785
▁전기	-1786
▁물리	-1787
ce	-1788
▁액	-1789
▁말했다	-1790
이어	-1791
▁흑	-1792
▁1996	-1793
▁1995	-1794
개월	-1795
▁좋은	-1796
▁명령	-1797
▁자료	-1798
▁구간	-1799
▁헌법	-1800
▁목표	-1801
학을	-1802
덜란드	-1803
스테	-1804
▁점령	-1805
동에	-1806
▁The	-1807
자들이	-1808
▁이들은	-1809
▁이해	-1810
이에	-1811
▁공산	-1812
15	-1813
소가	-1814
명으로	-1815
▁있게	-1816
▁포함한	-1817
▁컨	-1818
▁폴란드	-1819
▁알려진	-1820
이란	-1821
메달	-1822
지방	-1823
▁대중	-1824
ers	-1825
▁선발	-1826
▁예술	-1827
체는	-1828
.)	-1829
▁아시아	-1830
▁엔진	-1831
▁정규	-1832
▁포르	-1833
함으로써	-1834
▁움	-1835
이지만	-1836
▁국립	-1837
ha	-1838
▁잃	-1839
▁후반	-1840
스턴	-1841
▁교통	-1842
▁인천	-1843
▁X	-1844
루스	-1845
cm	-1846
구를	-1847
▁서울특별	-1848
▁1970	-1849
▁덴	-1850
내는	-1851
라의	-1852
랐다	-1853
▁레코	-1854
▁버전	-1855
라도	-1856
만을	-1857
▁오늘날	-1858
▁이유로	-1859
▁크리스	-1860
▁팬	-1861
▁불구하고	-1862
상은	-1863
▁결합	-1864
▁정신	-1865
▁국가대표팀	-1866
▁제한	-1867
▁밝혔다	-1868
▁소비	-1869
▁고대	-1870
▁부문	-1871
호선	-1872
mm	-1873
중학교	-1874
선거	-1875
▁메이	-1876
▁명의	-1877
▁이름으로	-1878
만이	-1879
▁사용하는	-1880
▁징	-1881
▁겨	-1882
70	-1883
일랜드	-1884
▁모습을	-1885
▁대구	-1886
▁우리	-1887
▁네덜란드	-1888
되었으나	-1889
▁깊	-1890
▁1994	-1891
▁분석	-1892
.4	-1893
모토	-1894
▁치료	-1895
ul	-1896
상에	-1897
▁그들은	-1898
▁맡았다	-1899
▁영국의	-1900
▁흥	-1901
▁익	-1902
정부	-1903
▁거두	-1904
부르크	-1905
▁188	-1906
되기	-1907
▁실험	-1908
년간	-1909
th	-1910
▁돈	-1911
▁밴드	-1912
레일	-1913
▁제안	-1914
▁주민	-1915
▁의미한다	-1916
웠다	-1917
▁통과	-1918
▁하나로	-1919
12	-1920
▁1992	-1921
▁경험	-1922
주에	-1923
▁시설	-1924
▁믿	-1925
었으며	-1926
스티	-1927
▁승리	-1928
▁분리	-1929
배우	-1930
ov	-1931
▁프로젝	-1932
▁나머	-1933
",	-1934
▁공화국	-1935
▁북한	-1936
▁드러	-1937
▁설계	-1938
▁국회의	-1939
▁성장	-1940
▁구분	-1941
▁정확	-1942
스키	-1943
▁미국에서	-1944
▁조약	-1945
골을	-1946
▁전자	-1947
▁강화	-1948
▁왜	-1949
▁웹	-1950
가의	-1951
▁휘	-1952
ie	-1953
▁km	-1954
원에서	-1955
▁은퇴	-1956
▁덕	-1957
▁끌	-1958
▁홀	-1959
월부터	-1960
사회	-1961
정이	-1962
▁완전히	-1963
스토	-1964
비를	-1965
▁수준	-1966
학의	-1967
금을	-1968
▁제조	-1969
바이	-1970
▁자치	-1971
▁하나의	-1972
▁제품	-1973
▁음반이다	-1974
▁페르	-1975
지와	-1976
▁방문	-1977
▁베트남	-1978
▁밤	-1979
▁실제	-1980
▁달러	-1981
시대	-1982
16	-1983
월에는	-1984
▁확장	-1985
▁그런	-1986
',	-1987
▁쌍	-1988
지지	-1989
인데	-1990
▁요시	-1991
▁아프리카	-1992
관이	-1993
▁여겨	-1994
▁것에	-1995
▁유래	-1996
단이	-1997
▁찬	-1998
소의	-1999
▁가문	-2000
▁현재는	-2001
▁하지	-2002
▁크로	-2003
▁쓴	-2004
베이	-2005
▁그림	-2006
▁1991	-2007
▁혈	-2008
▁아직	-2009
단에	-2010
▁면적은	-2011
로의	-2012
▁유전	-2013
▁마음	-2014
▁이듬	-2015
▁중에	-2016
베르	-2017
▁비해	-2018
나이	-2019
▁소프트	-2020
들로	-2021
▁때까지	-2022
▁이곳	-2023
▁핀	-2024
▁기여	-2025
▁헬	-2026
직을	-2027
시는	-2028
계에	-2029
▁친구	-2030
▁런던	-2031
▁중요	-2032
▁널리	-2033
▁남자	-2034
라스	-2035
▁회사	-2036
▁하이	-2037
지역	-2038
카와	-2039
형을	-2040
▁못했다	-2041
▁발달	-2042
▁물질	-2043
▁사무	-2044
▁아마	-2045
▁비행	-2046
▁부여	-2047
트가	-2048
.6	-2049
시코	-2050
▁언론	-2051
▁접근	-2052
▁알렉	-2053
▁1960	-2054
러스	-2055
▁선수이다	-2056
▁이듬해	-2057
▁괴	-2058
▁단체	-2059
치고	-2060
▁소재	-2061
▁1993	-2062
으므로	-2063
▁영토	-2064
크라	-2065
▁사진	-2066
▁마찬	-2067
소는	-2068
▁움직	-2069
▁요청	-2070
.7	-2071
▁씨	-2072
로를	-2073
어서	-2074
▁육군	-2075
▁세워	-2076
▁멸	-2077
▁있도록	-2078
▁외국	-2079
▁나온	-2080
▁차례	-2081
-0	-2082
▁파괴	-2083
▁서울특별시	-2084
교회	-2085
정의	-2086
법을	-2087
▁오래	-2088
라인	-2089
ri	-2090
과에	-2091
아의	-2092
13	-2093
르의	-2094
산을	-2095
TV	-2096
었던	-2097
사카	-2098
감을	-2099
▁사람이	-2100
선에	-2101
▁우승을	-2102
톨릭	-2103
르고	-2104
▁불리	-2105
민주주의	-2106
▁수용	-2107
14	-2108
▁자주	-2109
▁의하여	-2110
▁록	-2111
▁오스트리아	-2112
▁선수로	-2113
▁스포츠	-2114
▁하계	-2115
▁위에	-2116
▁고등학교	-2117
주시	-2118
들도	-2119
지에서	-2120
가를	-2121
경을	-2122
NA	-2123
▁멀	-2124
▁프랑스의	-2125
▁특정	-2126
가지로	-2127
▁맨	-2128
드에	-2129
▁60	-2130
▁펼	-2131
▁지진	-2132
식이	-2133
ist	-2134
▁주의	-2135
▁1988	-2136
점이	-2137
하의	-2138
▁정도로	-2139
▁이로	-2140
규모	-2141
▁주인	-2142
▁바탕	-2143
드가	-2144
▁경쟁	-2145
▁사람들이	-2146
▁지상	-2147
▁독일의	-2148
릭터	-2149
위가	-2150
▁공항	-2151
▁배치	-2152
▁쉽	-2153
▁비롯한	-2154
▁깨	-2155
.8	-2156
17	-2157
▁지난	-2158
▁존재한다	-2159
시즌	-2160
▁근처	-2161
▁기록했다	-2162
정은	-2163
▁촉	-2164
▁않아	-2165
위는	-2166
▁식민	-2167
▁등과	-2168
▁더불	-2169
▁스웨	-2170
▁몬	-2171
▁개혁	-2172
▁추진	-2173
og	-2174
▁품	-2175
▁짧	-2176
▁정식	-2177
▁사라	-2178
▁서식	-2179
▁오른	-2180
▁을	-2181
인과	-2182
▁공립	-2183
▁연기	-2184
▁In	-2185
업을	-2186
▁스스로	-2187
▁전해	-2188
▁남부	-2189
주를	-2190
구는	-2191
_2	-2192
▁참여하였다	-2193
▁복귀	-2194
물의	-2195
▁더불어	-2196
▁밝혀	-2197
▁브라질	-2198
로나	-2199
▁빛	-2200
▁패배	-2201
▁과정에서	-2202
위의	-2203
▁지역에서	-2204
▁스튜	-2205
▁슈퍼	-2206
▁in	-2207
▁유명한	-2208
자리	-2209
▁1989	-2210
▁주연으로	-2211
받았다	-2212
장과	-2213
당은	-2214
영화	-2215
버스	-2216
▁생성	-2217
▁디자인	-2218
▁갖고	-2219
▁강력	-2220
▁만나	-2221
▁작용	-2222
▁그대로	-2223
▁해석	-2224
▁스트	-2225
▁꽃	-2226
일의	-2227
▁이들	-2228
▁인터넷	-2229
EFA	-2230
ap	-2231
많은	-2232
웨어	-2233
아가	-2234
▁해결	-2235
▁가르	-2236
▁자리	-2237
▁바뀌	-2238
▁습	-2239
크의	-2240
▁캐릭터	-2241
거리	-2242
동을	-2243
디어	-2244
▁자동차	-2245
우는	-2246
부로	-2247
▁왕국	-2248
관으로	-2249
▁아시	-2250
도와	-2251
▁스웨덴	-2252
▁잇	-2253
.9	-2254
회에서	-2255
력은	-2256
▁가져	-2257
▁KBS	-2258
지게	-2259
▁법률	-2260
▁칠	-2261
▁단순	-2262
▁기초	-2263
%)	-2264
▁도착	-2265
▁것이었다	-2266
▁제국의	-2267
신을	-2268
식은	-2269
▁분포	-2270
이기	-2271
▁주도	-2272
되기도	-2273
멕시코	-2274
되었는데	-2275
▁영어	-2276
▁경우가	-2277
▁거부	-2278
▁비디오	-2279
▁그녀의	-2280
간다	-2281
행을	-2282
▁일어나	-2283
오는	-2284
▁프레	-2285
하라	-2286
▁폐지	-2287
선이	-2288
▁사용한다	-2289
▁구성되어	-2290
졌고	-2291
▁사용된다	-2292
▁선수권	-2293
없이	-2294
▁이외	-2295
▁통일	-2296
▁불교	-2297
▁UEFA	-2298
▁먼저	-2299
▁상호	-2300
▁교수	-2301
▁가톨릭	-2302
▁외교	-2303
▁초대	-2304
▁제시	-2305
▁불리는	-2306
습니다	-2307
est	-2308
▁필리	-2309
레일리아	-2310
▁초등학교	-2311
▁중간	-2312
ard	-2313
군과	-2314
트에서	-2315
소년	-2316
▁/	-2317
▁않다	-2318
(200	-2319
▁많다	-2320
▁위험	-2321
▁70	-2322
▁나머지	-2323
▁알고	-2324
▁수많은	-2325
형의	-2326
▁부정	-2327
▁여름	-2328
화국의	-2329
The	-2330
▁가능하다	-2331
▁그린	-2332
▁187	-2333
▁아카	-2334
ne	-2335
▁술	-2336
▁스위스	-2337
▁관측	-2338
▁보다	-2339
▁들어가	-2340
▁앙	-2341
ab	-2342
oun	-2343
▁투표	-2344
48	-2345
▁겪	-2346
회사	-2347
기술	-2348
주로	-2349
▁황제	-2350
ht	-2351
웨이	-2352
전의	-2353
▁스테	-2354
▁캠	-2355
▁마찬가지로	-2356
▁비슷한	-2357
낸다	-2358
철도	-2359
▁의원	-2360
▁있었고	-2361
하기로	-2362
ess	-2363
▁동맹	-2364
량이	-2365
▁반란	-2366
▁다르	-2367
▁시행	-2368
▁이주	-2369
▁빅	-2370
자에	-2371
▁다카	-2372
▁통치	-2373
11	-2374
▁윌리	-2375
▁목적으로	-2376
▁라디오	-2377
고를	-2378
25	-2379
▁팀의	-2380
▁해안	-2381
▁표시	-2382
구가	-2383
하이	-2384
했다는	-2385
▁만에	-2386
▁이사	-2387
▁결성	-2388
▁놀	-2389
화된	-2390
▁186	-2391
▁노르	-2392
자이다	-2393
▁디지	-2394
트워	-2395
지션	-2396
▁야마	-2397
▁집합	-2398
미터	-2399
ine	-2400
전이	-2401
한다고	-2402
▁삶	-2403
▁출생	-2404
▁살아	-2405
▁여기서	-2406
수한	-2407
▁뇌	-2408
촬영	-2409
▁아무	-2410
35	-2411
▁것과	-2412
▁이야기	-2413
▁1950	-2414
▁상대로	-2415
조는	-2416
▁훈련	-2417
▁바르	-2418
선은	-2419
나가	-2420
▁다만	-2421
▁삼성	-2422
정보	-2423
부에서	-2424
▁조각	-2425
▁중단	-2426
▁북쪽	-2427
▁체포	-2428
▁있으나	-2429
▁흡	-2430
량을	-2431
디아	-2432
▁묘사	-2433
▁지역을	-2434
▁경영	-2435
종이다	-2436
▁시도	-2437
▁사용할	-2438
년을	-2439
일본	-2440
만의	-2441
▁and	-2442
하였는데	-2443
▁남쪽	-2444
▁오브	-2445
▁십	-2446
▁파견	-2447
▁때는	-2448
▁시기	-2449
▁의하면	-2450
전은	-2451
▁광주	-2452
▁벤	-2453
▁임시	-2454
아시아	-2455
▁감소	-2456
▁상징	-2457
였으며	-2458
▁궤	-2459
▁바꾸	-2460
티아	-2461
▁1987	-2462
▁떨어진	-2463
▁아일랜드	-2464
오카	-2465
▁근거	-2466
식의	-2467
하다가	-2468
ity	-2469
▁히로	-2470
▁발행	-2471
▁나무	-2472
▁지냈다	-2473
▁준비	-2474
90	-2475
속도로	-2476
▁캘	-2477
라우	-2478
과학	-2479
회가	-2480
▁오스트레일리아	-2481
▁유니	-2482
▁가정	-2483
▁끝에	-2484
▁대사	-2485
센터	-2486
▁대응	-2487
▁형태로	-2488
았고	-2489
▁활용	-2490
시를	-2491
▁1986	-2492
▁공작	-2493
art	-2494
▁베르	-2495
인들이	-2496
▁관련된	-2497
▁가능한	-2498
▁등록	-2499
▁보유	-2500
회에	-2501
되었지만	-2502
인트	-2503
▁곤	-2504
▁강원	-2505
▁번역	-2506
▁억	-2507
▁벽	-2508
▁개통	-2509
▁달성	-2510
▁센터	-2511
였고	-2512
함을	-2513
▁몇몇	-2514
▁서비스	-2515
▁방어	-2516
▁80	-2517
24	-2518
▁붕	-2519
▁있기	-2520
어나	-2521
▁재판	-2522
▁숨	-2523
▁일제	-2524
▁유대	-2525
어졌다	-2526
▁일을	-2527
▁멕시코	-2528
▁이루어진	-2529
▁2,	-2530
▁처리	-2531
▁바다	-2532
▁좋아	-2533
▁연극	-2534
23	-2535
▁귀족	-2536
▁성립	-2537
.(	-2538
두고	-2539
▁정부는	-2540
▁1984	-2541
ill	-2542
▁1945	-2543
▁체결	-2544
평양	-2545
▁포르투	-2546
▁간의	-2547
▁이렇게	-2548
▁이스	-2549
▁논란	-2550
▁따른	-2551
사에서	-2552
▁둔	-2553
▁다루	-2554
▁회의	-2555
화의	-2556
▁천황	-2557
▁안정	-2558
▁디지털	-2559
대와	-2560
▁조선민주주의	-2561
▁타이틀	-2562
▁엘리	-2563
성으로	-2564
▁시험	-2565
▁대표적인	-2566
▁뮤직	-2567
ang	-2568
▁르	-2569
▁파이	-2570
가로	-2571
프는	-2572
▁시작하였다	-2573
니는	-2574
도우	-2575
▁유일한	-2576
▁중에서	-2577
점으로	-2578
▁합류	-2579
▁윌리엄	-2580
▁대해서	-2581
▁낳	-2582
▁에이	-2583
▁유로	-2584
인지	-2585
▁규정	-2586
부와	-2587
▁금지	-2588
▁직후	-2589
▁촬영	-2590
▁여객	-2591
치로	-2592
▁지하철	-2593
▁로스	-2594
▁이름이	-2595
▁후쿠	-2596
▁멜	-2597
면을	-2598
▁종료	-2599
▁위해서	-2600
▁녹음	-2601
▁떠나	-2602
▁반면	-2603
▁꾸	-2604
▁2022	-2605
▁동생	-2606
▁혐	-2607
▁완성	-2608
▁낮은	-2609
▁부른다	-2610
▁주인공	-2611
▁살해	-2612
▁제주	-2613
▁하루	-2614
트에	-2615
▁나타나	-2616
▁카를	-2617
력의	-2618
▁얼마	-2619
▁문학	-2620
▁정착	-2621
▁싶	-2622
▁즉위	-2623
▁미사	-2624
▁1985	-2625
▁제기	-2626
▁내각	-2627
사업	-2628
▁값	-2629
선에서	-2630
▁지적	-2631
▁계열	-2632
리포	-2633
시가	-2634
▁있지	-2635
▁문서	-2636
▁전달	-2637
▁국왕	-2638
▁못한	-2639
조를	-2640
전한	-2641
버트	-2642
으면서	-2643
물이	-2644
국이	-2645
▁당선	-2646
av	-2647
ec	-2648
가이다	-2649
▁이슬	-2650
▁적이	-2651
러운	-2652
▁전환	-2653
량은	-2654
치의	-2655
▁중국의	-2656
해졌다	-2657
크라이나	-2658
롭게	-2659
▁보존	-2660
▁젊	-2661
세포	-2662
▁혁명	-2663
▁이집	-2664
▁만들었다	-2665
체로	-2666
ell	-2667
국은	-2668
▁취임	-2669
ip	-2670
▁정치적	-2671
▁아내	-2672
▁해외	-2673
▁여전히	-2674
▁제거	-2675
"(	-2676
if	-2677
안을	-2678
▁그렇	-2679
당이	-2680
▁보수	-2681
▁동쪽	-2682
▁소개	-2683
▁보여주	-2684
계가	-2685
▁홍콩	-2686
te	-2687
와는	-2688
▁대해서는	-2689
▁관계를	-2690
소에	-2691
▁강한	-2692
▁35	-2693
▁일어난	-2694
요일	-2695
▁인근	-2696
ob	-2697
▁안에	-2698
연합	-2699
▁필요한	-2700
나의	-2701
자들의	-2702
▁종합	-2703
▁폰	-2704
▁썼	-2705
로가	-2706
헝가	-2707
▁계승	-2708
▁벗	-2709
▁사이에서	-2710
▁제목	-2711
▁한국의	-2712
▁쌓	-2713
크는	-2714
▁공급	-2715
시키고	-2716
)'	-2717
▁대륙	-2718
▁스코	-2719
▁승강장	-2720
▁곳에	-2721
단으로	-2722
▁남성	-2723
▁제작에	-2724
ak	-2725
▁사용하여	-2726
▁표기	-2727
▁문제를	-2728
▁경기를	-2729
▁인식	-2730
▁의견	-2731
▁사람은	-2732
▁주목	-2733
하에	-2734
▁위치해	-2735
▁종류	-2736
시킨	-2737
▁펜	-2738
▁밑	-2739
▁관광	-2740
▁Ch	-2741
▁수비	-2742
▁영역	-2743
86	-2744
▁본래	-2745
▁1982	-2746
▁신문	-2747
▁부모	-2748
▁스튜디오	-2749
과를	-2750
학생	-2751
인들은	-2752
주교	-2753
려고	-2754
_3	-2755
▁이래	-2756
월까지	-2757
▁중의	-2758
기업	-2759
관의	-2760
피아	-2761
▁것도	-2762
▁충돌	-2763
▁못하고	-2764
수이다	-2765
작용	-2766
▁가까운	-2767
되자	-2768
▁꼬	-2769
워드	-2770
▁옮겨	-2771
▁네트워	-2772
▁승격	-2773
▁사망하였다	-2774
▁읽	-2775
력으로	-2776
▁발사	-2777
▁근무	-2778
니스	-2779
▁즐	-2780
준다	-2781
즈의	-2782
▁왼	-2783
▁굴	-2784
▁물론	-2785
임스	-2786
▁알렉산	-2787
▁류	-2788
all	-2789
45	-2790
▁1983	-2791
▁피아	-2792
세에	-2793
▁나중에	-2794
▁문제가	-2795
▁우크라이나	-2796
년대에	-2797
메달을	-2798
사이	-2799
▁집중	-2800
▁조성	-2801
프가	-2802
▁아니다	-2803
▁너무	-2804
▁미래	-2805
▁전략	-2806
나라의	-2807
권의	-2808
▁생물	-2809
▁프로듀	-2810
적으로는	-2811
▁나누	-2812
▁상업	-2813
▁오후	-2814
▁e	-2815
▁빨	-2816
▁오르	-2817
▁구역	-2818
▁최소	-2819
▁케이	-2820
▁종목	-2821
년과	-2822
ive	-2823
▁평화	-2824
▁실제로	-2825
▁지명	-2826
89	-2827
▁둘러	-2828
적이고	-2829
▁허용	-2830
백질	-2831
▁죄	-2832
리어	-2833
▁명예	-2834
시로	-2835
▁베네	-2836
▁서쪽	-2837
▁듣	-2838
계는	-2839
내고	-2840
▁스토	-2841
리히	-2842
▁기후	-2843
메이	-2844
로로	-2845
론을	-2846
▁가는	-2847
▁32	-2848
▁경상북도	-2849
▁강조	-2850
▁인한	-2851
▁인민	-2852
▁수가	-2853
▁올랐다	-2854
▁사용되는	-2855
▁경상남도	-2856
▁제도	-2857
▁경우에는	-2858
▁범죄	-2859
▁주었다	-2860
▁납	-2861
분을	-2862
▁미술	-2863
▁이용하여	-2864
▁가입	-2865
산의	-2866
가가	-2867
은행	-2868
그룹	-2869
▁최고의	-2870
▁말을	-2871
점에서	-2872
▁보이	-2873
▁신경	-2874
▁포르투갈	-2875
▁포지션	-2876
로운	-2877
▁북부	-2878
▁이슬람	-2879
▁종종	-2880
-3	-2881
▁감염	-2882
▁비밀	-2883
ub	-2884
▁몽골	-2885
▁관찰	-2886
▁이번	-2887
▁델	-2888
량의	-2889
▁아우	-2890
▁아키	-2891
족의	-2892
▁뒤에	-2893
▁정리	-2894
▁n	-2895
▁컬	-2896
▁사실을	-2897
당을	-2898
라노	-2899
리스트	-2900
ant	-2901
▁이루어져	-2902
▁바탕으로	-2903
로스	-2904
했기	-2905
▁연장	-2906
▁전시	-2907
▁무역	-2908
▁건너	-2909
▁왔다	-2910
▁일반적인	-2911
▁빼	-2912
▁위치하고	-2913
▁해군	-2914
석을	-2915
▁넘어	-2916
승을	-2917
▁구단	-2918
차를	-2919
▁배경	-2920
▁전반	-2921
분에	-2922
▁간주	-2923
▁중화인민공화국	-2924
▁셀	-2925
▁만화	-2926
▁마이크로	-2927
▁각종	-2928
▁?	-2929
만에	-2930
CA	-2931
▁만들어진	-2932
ue	-2933
▁기록을	-2934
체에	-2935
▁합병	-2936
관에	-2937
▁의사	-2938
▁작성	-2939
▁위의	-2940
▁헨	-2941
▁통하여	-2942
▁저항	-2943
▁던	-2944
▁1981	-2945
▁오사카	-2946
)"	-2947
64	-2948
▁발표했다	-2949
▁이후에	-2950
문화재	-2951
▁옆	-2952
▁a	-2953
▁기존의	-2954
▁1979	-2955
▁성우	-2956
▁MBC	-2957
트라	-2958
▁남북	-2959
▁건강	-2960
▁기능을	-2961
해를	-2962
ph	-2963
계에서	-2964
▁내부	-2965
조가	-2966
상과	-2967
▁하기	-2968
▁사회적	-2969
고로	-2970
▁출신의	-2971
졌으며	-2972
▁불린다	-2973
드와	-2974
▁편집	-2975
서로	-2976
▁대회에서	-2977
▁de	-2978
테인	-2979
▁w	-2980
▁뒷	-2981
상에서	-2982
▁계산	-2983
리포니아	-2984
▁동료	-2985
▁그해	-2986
▁맹	-2987
▁장애	-2988
(201	-2989
세기에	-2990
원과	-2991
소로	-2992
▁윈도우	-2993
▁주는	-2994
▁뿐만	-2995
▁게이	-2996
▁측정	-2997
▁마련	-2998
▁척	-2999
세이	-3000
▁실행	-3001
▁위협	-3002
지도	-3003
▁정부의	-3004
▁무렵	-3005
▁고양	-3006
92	-3007
▁갖추	-3008
▁만드는	-3009
레이션	-3010
권이	-3011
▁제외한	-3012
▁받아들	-3013
종이	-3014
▁사회주의	-3015
일은	-3016
보다는	-3017
▁성격	-3018
▁해당한다	-3019
▁v	-3020
▁구조를	-3021
▁블랙	-3022
용으로	-3023
▁채널	-3024
라고도	-3025
▁항상	-3026
▁사람들은	-3027
신의	-3028
▁그곳	-3029
▁오스	-3030
▁샌	-3031
티브	-3032
▁1972	-3033
비가	-3034
▁외에도	-3035
▁끼	-3036
파의	-3037
▁촌	-3038
▁시기에	-3039
자에게	-3040
▁충분	-3041
장이다	-3042
▁90	-3043
문에	-3044
▁바람	-3045
▁채택	-3046
산으로	-3047
85	-3048
▁유형	-3049
▁사람을	-3050
()'	-3051
▁적극	-3052
사인	-3053
▁출연하였고	-3054
▁증거	-3055
▁시작되었다	-3056
▁만약	-3057
▁재직	-3058
▁시대의	-3059
▁농업	-3060
다이	-3061
▁민간	-3062
▁1973	-3063
▁확대	-3064
75	-3065
▁노력	-3066
관리	-3067
our	-3068
▁혜	-3069
99	-3070
▁불러	-3071
생활	-3072
▁젊은	-3073
▁국방	-3074
▁사령	-3075
▁출발	-3076
▁그려	-3077
▁전투에서	-3078
▁년	-3079
▁계약을	-3080
사키	-3081
왕의	-3082
▁객	-3083
▁되었으며	-3084
주가	-3085
▁에피	-3086
▁튀	-3087
▁g	-3088
▁입학	-3089
▁확보	-3090
▁유리	-3091
▁점차	-3092
기고	-3093
▁인디	-3094
라엘	-3095
물로	-3096
▁겨울	-3097
▁일이	-3098
모리	-3099
미디	-3100
▁친일	-3101
전쟁	-3102
▁500	-3103
▁붕괴	-3104
▁그래서	-3105
문학	-3106
▁생활을	-3107
▁흰	-3108
호가	-3109
▁찰	-3110
트와	-3111
▁라이브	-3112
▁제정	-3113
공항	-3114
▁쉽게	-3115
▁국회의원	-3116
▁남동	-3117
▁옹	-3118
65	-3119
미널	-3120
▁에드	-3121
화에	-3122
▁헝가	-3123
▁엑	-3124
▁45	-3125
개를	-3126
실을	-3127
▁판단	-3128
▁침공	-3129
▁주장했다	-3130
▁그것은	-3131
▁균	-3132
▁끊	-3133
▁집단	-3134
▁보도	-3135
▁도시로	-3136
이라고도	-3137
았으며	-3138
▁관심을	-3139
▁잭	-3140
점에	-3141
하려는	-3142
교의	-3143
▁다섯	-3144
▁요리	-3145
까지의	-3146
▁남편	-3147
▁수입	-3148
▁강력한	-3149
끄는	-3150
▁매년	-3151
비는	-3152
▁있었지만	-3153
▁세르	-3154
▁사례	-3155
▁뒤를	-3156
로도	-3157
▁자본	-3158
'(	-3159
▁II	-3160
이던	-3161
▁장기	-3162
리기	-3163
ong	-3164
산업	-3165
▁캘리포니아	-3166
27	-3167
도시	-3168
47	-3169
▁아나	-3170
ice	-3171
▁전라남도	-3172
▁유엔	-3173
▁책임	-3174
▁동부	-3175
니어	-3176
▁쓰인다	-3177
▁방식으로	-3178
밖에	-3179
▁단백질	-3180
▁부근	-3181
데미	-3182
▁1974	-3183
▁안전	-3184
▁내에서	-3185
▁데이비	-3186
▁원자	-3187
▁교체	-3188
▁보면	-3189
대에서	-3190
▁정보를	-3191
▁인수	-3192
▁화학	-3193
ST	-3194
났으며	-3195
해의	-3196
▁승리를	-3197
라비아	-3198
▁자리를	-3199
▁여행	-3200
▁블루	-3201
키아	-3202
▁핀란드	-3203
▁이전에	-3204
▁공공	-3205
▁탑재	-3206
▁신라	-3207
▁경향	-3208
▁Z	-3209
개발	-3210
▁구축	-3211
▁등에서	-3212
▁모스크	-3213
▁서부	-3214
ran	-3215
테인먼	-3216
▁정상	-3217
▁에스	-3218
▁1976	-3219
88	-3220
▁마사	-3221
▁예선	-3222
▁&	-3223
경제	-3224
▁나카	-3225
▁동계	-3226
▁자신을	-3227
▁공격을	-3228
▁앞두고	-3229
화는	-3230
르타	-3231
▁연맹	-3232
네시아	-3233
▁등은	-3234
력과	-3235
▁1978	-3236
하다고	-3237
의로	-3238
법원	-3239
시오	-3240
▁대규모	-3241
사령	-3242
▁루이	-3243
se	-3244
▁회복	-3245
▁마리아	-3246
▁냉	-3247
▁수립	-3248
명한	-3249
FC	-3250
력에	-3251
계로	-3252
▁이스라엘	-3253
▁영화배우	-3254
터테인먼	-3255
이었고	-3256
98	-3257
▁쪽	-3258
로서의	-3259
▁185	-3260
▁비율	-3261
▁경우도	-3262
▁태어난	-3263
▁필리핀	-3264
▁얼굴	-3265
▁이란	-3266
▁사용한	-3267
▁덴마	-3268
설을	-3269
▁떨어져	-3270
포르	-3271
민족	-3272
▁불과	-3273
도르	-3274
▁제임스	-3275
ian	-3276
▁어떻	-3277
▁1968	-3278
동차	-3279
▁1975	-3280
▁봄	-3281
▁춘	-3282
▁파리	-3283
드에서	-3284
▁변호	-3285
33	-3286
타이	-3287
▁높이	-3288
▁조정	-3289
▁콩	-3290
▁드래	-3291
라운드	-3292
95	-3293
▁텍	-3294
국을	-3295
▁밖에	-3296
프의	-3297
일러	-3298
ge	-3299
▁1971	-3300
▁수정	-3301
▁해체	-3302
▁라틴	-3303
▁시장	-3304
▁구성된	-3305
▁쇠	-3306
▁전사	-3307
▁180	-3308
면의	-3309
어도	-3310
문이	-3311
▁아랍	-3312
단체	-3313
▁인간의	-3314
전으로	-3315
바르	-3316
▁플랫	-3317
▁지역은	-3318
-19	-3319
▁받는	-3320
에게는	-3321
면에서	-3322
▁l	-3323
자들을	-3324
조선	-3325
kg	-3326
구역	-3327
▁왔	-3328
당한	-3329
▁전개	-3330
틀랜드	-3331
▁차지했다	-3332
26	-3333
▁검은	-3334
▁수학	-3335
적이다	-3336
당에	-3337
▁회원	-3338
(:	-3339
▁다음은	-3340
▁1969	-3341
리학	-3342
▁과정을	-3343
▁않을	-3344
▁링	-3345
▁태평양	-3346
▁섭	-3347
▁알아	-3348
▁통신	-3349
진을	-3350
▁복잡	-3351
케이	-3352
▁개선	-3353
음이의	-3354
▁이끄는	-3355
▁나폴	-3356
▁숲	-3357
질을	-3358
▁흘	-3359
36	-3360
▁사용되었다	-3361
▁기획	-3362
▁카메	-3363
37	-3364
ry	-3365
▁롤	-3366
▁네트워크	-3367
▁하자	-3368
▁어떻게	-3369
유럽	-3370
▁길이	-3371
▁전역	-3372
▁한다는	-3373
▁특수	-3374
었는데	-3375
▁한다고	-3376
▁임명되었다	-3377
▁중학교	-3378
되었을	-3379
▁가격	-3380
▁기억	-3381
▁꿈	-3382
▁아름	-3383
▁당시의	-3384
▁원칙	-3385
▁도움을	-3386
▁보이는	-3387
87	-3388
인에	-3389
▁대형	-3390
46	-3391
종은	-3392
학년	-3393
시대의	-3394
▁쉬	-3395
를린	-3396
▁사후	-3397
음악	-3398
▁고구	-3399
▁기계	-3400
소에서	-3401
▁시청	-3402
▁개정	-3403
▁설정	-3404
까지는	-3405
▁잠시	-3406
약을	-3407
▁힘을	-3408
제에	-3409
▁울산	-3410
▁비용	-3411
류를	-3412
▁털	-3413
구로	-3414
▁공유	-3415
▁은행	-3416
셔널	-3417
▁대상	-3418
받아	-3419
하고자	-3420
티나	-3421
▁소프트웨어	-3422
려는	-3423
ev	-3424
▁고전	-3425
▁이승	-3426
▁해방	-3427
▁시대에	-3428
▁1963	-3429
▁1920	-3430
▁비교적	-3431
%,	-3432
▁만족	-3433
▁세운	-3434
▁가로	-3435
▁대상으로	-3436
▁마쓰	-3437
▁가리키는	-3438
어와	-3439
▁마드리	-3440
▁갖춘	-3441
▁재정	-3442
▁좀	-3443
▁이것이	-3444
▁사람의	-3445
▁강원도	-3446
▁중반	-3447
붉은	-3448
▁초반	-3449
▁에너지	-3450
▁훨	-3451
싱턴	-3452
▁개봉한	-3453
▁신설	-3454
▁파일	-3455
오프	-3456
▁득점	-3457
세대	-3458
▁식물	-3459
▁인기를	-3460
▁하게	-3461
▁인하여	-3462
▁북서	-3463
라가	-3464
▁수출	-3465
▁협력	-3466
▁1930	-3467
▁폭발	-3468
다른	-3469
▁도서	-3470
▁짧은	-3471
▁하면서	-3472
▁훨씬	-3473
보드	-3474
▁저장	-3475
▁짓	-3476
ight	-3477
▁기반으로	-3478
▁플로	-3479
▁단일	-3480
리트	-3481
▁형태의	-3482
식으로	-3483
▁나뉘	-3484
▁1977	-3485
슨은	-3486
후의	-3487
슈타	-3488
▁없어	-3489
▁코미디	-3490
▁1940	-3491
무원	-3492
품을	-3493
▁포지션은	-3494
▁말이다	-3495
▁1948	-3496
▁의해서	-3497
▁참석	-3498
▁트리	-3499
인들의	-3500
▁팀은	-3501
시와	-3502
ast	-3503
신이	-3504
▁편입	-3505
,5	-3506
▁메이저	-3507
▁자체	-3508
분의	-3509
었지만	-3510
▁시내	-3511
▁개편	-3512
▁고용	-3513
▁토론	-3514
▁핵심	-3515
32	-3516
▁죽은	-3517
▁클래	-3518
▁대립	-3519
동음이의	-3520
▁셰	-3521
▁뛰어난	-3522
번의	-3523
▁귀국	-3524
▁죽음	-3525
▁증명	-3526
▁박물	-3527
▁유도	-3528
▁동일한	-3529
▁불가능	-3530
▁잎	-3531
▁둥	-3532
▁전차	-3533
▁있었으며	-3534
대전	-3535
▁인사	-3536
자치	-3537
하나	-3538
리노	-3539
▁충청남도	-3540
▁우선	-3541
도에서	-3542
▁속에	-3543
▁300	-3544
▁브랜드	-3545
형이	-3546
▁사실상	-3547
▁평양	-3548
서에	-3549
▁An	-3550
94	-3551
었으나	-3552
▁일종이다	-3553
▁애플	-3554
▁통한	-3555
▁1964	-3556
▁나오는	-3557
▁중화민	-3558
▁고등	-3559
료를	-3560
라크	-3561
시킬	-3562
▁글로	-3563
하려고	-3564
▁세이	-3565
다운	-3566
▁아카데미	-3567
▁역사상	-3568
▁플랫폼	-3569
ert	-3570
데스	-3571
▁듀	-3572
▁잘못	-3573
▁본격	-3574
▁박사	-3575
대회	-3576
▁구체	-3577
같은	-3578
SA	-3579
년이	-3580
▁스파	-3581
ud	-3582
▁속에서	-3583
▁장착	-3584
법에	-3585
지기	-3586
▁현실	-3587
산은	-3588
▁본선	-3589
▁외에	-3590
▁등장하는	-3591
▁버스	-3592
▁본관은	-3593
▁후손	-3594
▁카이	-3595
▁홈런	-3596
▁()	-3597
▁심각	-3598
▁공부	-3599
▁경기에	-3600
▁가능성이	-3601
협회	-3602
수와	-3603
▁아르헨	-3604
룬다	-3605
▁태어나	-3606
▁모스크바	-3607
베르크	-3608
▁에피소	-3609
국에	-3610
▁편성	-3611
경에	-3612
▁행사	-3613
▁원작	-3614
▁수여	-3615
점은	-3616
▁예상	-3617
▁설치되어	-3618
▁조금	-3619
▁흔히	-3620
▁묻	-3621
▁선의	-3622
마스	-3623
▁CD	-3624
▁했지만	-3625
ib	-3626
96	-3627
▁고정	-3628
44	-3629
▁전혀	-3630
▁띠	-3631
▁북동	-3632
형은	-3633
▁일본에서	-3634
▁시각	-3635
▁비난	-3636
▁내용을	-3637
동의	-3638
▁공포	-3639
▁기사	-3640
▁나서	-3641
▁부인	-3642
▁확정	-3643
▁추정된다	-3644
▁덮	-3645
나미	-3646
▁스피	-3647
받은	-3648
▁태풍	-3649
▁세계에서	-3650
▁암살	-3651
▁발생한	-3652
▁캄	-3653
▁창설	-3654
▁위치한다	-3655
▁시의	-3656
▁조선민주주의인민공화국	-3657
▁설립된	-3658
군으로	-3659
▁반복	-3660
▁숫	-3661
▁권한	-3662
▁베이징	-3663
▁아시안	-3664
▁1967	-3665
▁때에는	-3666
▁사는	-3667
▁얻었다	-3668
OS	-3669
겠다고	-3670
소프트	-3671
▁뿌	-3672
▁근대	-3673
▁업무	-3674
▁Al	-3675
함에	-3676
▁트랙	-3677
▁답	-3678
았던	-3679
정책	-3680
료로	-3681
▁물러	-3682
▁펠	-3683
▁투자	-3684
어져	-3685
▁열대	-3686
종으로	-3687
브리	-3688
로드	-3689
에르	-3690
97	-3691
이었으나	-3692
주에서	-3693
지면서	-3694
▁유명하다	-3695
권에	-3696
▁오히	-3697
법의	-3698
세계	-3699
28	-3700
▁했고	-3701
▁1962	-3702
▁고향	-3703
수에	-3704
차례	-3705
▁교토	-3706
ort	-3707
▁발견된다	-3708
일보	-3709
▁오리	-3710
▁LG	-3711
▁아주	-3712
BO	-3713
어들	-3714
▁도달	-3715
▁오랜	-3716
▁1946	-3717
▁의료	-3718
구와	-3719
▁나이	-3720
▁도움	-3721
▁마리	-3722
▁있었으나	-3723
자이	-3724
▁내에	-3725
▁터키	-3726
▁북아	-3727
▁정복	-3728
▁욕	-3729
▁36	-3730
▁금융	-3731
▁짐	-3732
▁적은	-3733
▁타고	-3734
▁프로그램이다	-3735
가에	-3736
▁방출	-3737
▁시티	-3738
▁출마	-3739
▁족	-3740
▁노예	-3741
한국	-3742
▁앞서	-3743
▁러시아의	-3744
아버	-3745
▁음력	-3746
up	-3747
▁형제	-3748
▁찍	-3749
▁보급	-3750
▁선고	-3751
▁시간이	-3752
니의	-3753
▁탄생	-3754
qu	-3755
▁문자	-3756
▁하는데	-3757
▁융	-3758
▁33	-3759
▁옷	-3760
권은	-3761
▁있었는데	-3762
▁린	-3763
▁정도의	-3764
▁결과를	-3765
▁넓은	-3766
▁정부가	-3767
▁인터뷰	-3768
93	-3769
주와	-3770
테르	-3771
▁래	-3772
▁역대	-3773
▁머리	-3774
음에도	-3775
▁통제	-3776
▁국가의	-3777
경의	-3778
해진	-3779
▁구별	-3780
▁그에	-3781
▁되지	-3782
43	-3783
76	-3784
스럽	-3785
▁솔로	-3786
▁관심	-3787
▁세웠다	-3788
법은	-3789
▁포함되어	-3790
▁뜻이	-3791
▁무기	-3792
▁카운	-3793
스리그	-3794
신은	-3795
무라	-3796
년에서	-3797
▁1965	-3798
경찰	-3799
▁보였다	-3800
▁때에	-3801
▁맡고	-3802
으로도	-3803
▁원정	-3804
일로	-3805
하다는	-3806
▁모리	-3807
교통	-3808
▁1949	-3809
▁워싱턴	-3810
▁계급	-3811
▁되면서	-3812
her	-3813
▁추측	-3814
▁사망했다	-3815
▁오래된	-3816
마이	-3817
▁고구려	-3818
▁거대한	-3819
공업	-3820
▁오픈	-3821
▁요새	-3822
▁갈등	-3823
▁없고	-3824
▁이끌고	-3825
▁시즌을	-3826
자기	-3827
▁남서	-3828
우리	-3829
▁현재까지	-3830
▁항복	-3831
▁주교	-3832
▁1966	-3833
▁베를린	-3834
ss	-3835
하마	-3836
▁거절	-3837
▁이중	-3838
유의	-3839
기에는	-3840
간에	-3841
▁문화재	-3842
▁나와	-3843
마트	-3844
▁붉은	-3845
바라	-3846
▁선거에서	-3847
▁광고	-3848
▁전설	-3849
문의	-3850
▁길이는	-3851
ate	-3852
▁이탈리아의	-3853
쿠라	-3854
▁대항	-3855
▁첨	-3856
▁헤이	-3857
ore	-3858
▁조합	-3859
▁지원을	-3860
▁로버트	-3861
▁생존	-3862
▁마침	-3863
▁목적	-3864
색을	-3865
▁한때	-3866
▁판결	-3867
▁그에게	-3868
사우	-3869
항공	-3870
▁아파	-3871
당했다	-3872
▁요한	-3873
77	-3874
ain	-3875
▁확실	-3876
▁저지	-3877
▁엔터테인먼	-3878
▁제출	-3879
버그	-3880
▁150	-3881
▁투입	-3882
▁했으나	-3883
▁다니	-3884
▁계획을	-3885
▁머물	-3886
예술	-3887
▁점에서	-3888
나와	-3889
우고	-3890
▁이민	-3891
▁창립	-3892
▁각본	-3893
▁신앙	-3894
▁사용하고	-3895
▁오토	-3896
호의	-3897
▁무장	-3898
여자	-3899
▁만큼	-3900
▁번째로	-3901
율을	-3902
물은	-3903
▁겐	-3904
▁오히려	-3905
▁낭	-3906
▁합의	-3907
▁됐다	-3908
▁프란	-3909
초등학교는	-3910
▁하늘	-3911
▁시작한	-3912
▁이후에는	-3913
시설	-3914
ord	-3915
▁1961	-3916
▁전용	-3917
박쥐	-3918
차로	-3919
시티	-3920
키스탄	-3921
역으로	-3922
▁피아노	-3923
▁살고	-3924
일이	-3925
리게	-3926
▁하였고	-3927
▁율	-3928
서가	-3929
▁삼국	-3930
비의	-3931
자들	-3932
▁하드	-3933
경기에	-3934
42	-3935
▁초등학교이다	-3936
중앙	-3937
▁약간	-3938
축구	-3939
▁오전	-3940
▁지닌	-3941
83	-3942
기원	-3943
리케	-3944
▁이야기를	-3945
▁호텔	-3946
▁뜻을	-3947
▁스코틀랜드	-3948
▁어렵	-3949
받고	-3950
55	-3951
▁끝나	-3952
41	-3953
화로	-3954
▁차이가	-3955
io	-3956
▁의회	-3957
66	-3958
▁온라인	-3959
로마	-3960
서의	-3961
▁활발	-3962
▁반영	-3963
▁속한다	-3964
▁듯	-3965
▁인공	-3966
▁전쟁이	-3967
▁아메리카	-3968
▁작전	-3969
▁절대	-3970
아이	-3971
동이	-3972
이었으며	-3973
타를	-3974
즈는	-3975
▁명명	-3976
▁라인	-3977
▁멸망	-3978
비치	-3979
▁스크	-3980
▁논쟁	-3981
▁요소	-3982
증을	-3983
▁슬로	-3984
▁철학	-3985
안에	-3986
▁그것을	-3987
보를	-3988
▁대표팀	-3989
▁투수	-3990
▁킹	-3991
스러운	-3992
명과	-3993
지이다	-3994
▁대비	-3995
더라도	-3996
▁아침	-3997
▁서양	-3998
▁설치되었던	-3999
▁=	-4000
로그	-4001
렸고	-4002
국에서	-4003
ik	-4004
▁힐	-4005
노동	-4006
▁천문	-4007
▁생겨	-4008
▁삭	-4009
지원	-4010
▁뽑	-4011
플레이	-4012
여서	-4013
익을	-4014
▁점을	-4015
생의	-4016
▁SBS	-4017
▁비록	-4018
▁뉴스	-4019
▁동의	-4020
▁해당하는	-4021
▁금속	-4022
다면	-4023
▁하나는	-4024
의회	-4025
▁뜻한다	-4026
▁양성	-4027
지며	-4028
▁상당히	-4029
만큼	-4030
▁수원	-4031
추어	-4032
누스	-4033
▁것처럼	-4034
▁보는	-4035
▁처음에는	-4036
리아의	-4037
▁장악	-4038
면이	-4039
▁발표한	-4040
▁식민지	-4041
언을	-4042
이와	-4043
▁의존	-4044
▁마이클	-4045
▁역임했다	-4046
▁이르는	-4047
▁주식	-4048
▁함수	-4049
사건	-4050
91	-4051
▁거리	-4052
▁통해서	-4053
▁공식적으로	-4054
조에	-4055
▁철도역이다	-4056
▁관할한다	-4057
▁산맥	-4058
판을	-4059
리우	-4060
▁이른	-4061
프리	-4062
▁약속	-4063
▁전쟁을	-4064
▁팀이	-4065
▁보냈다	-4066
ty	-4067
▁성인	-4068
▁나는	-4069
▁브리	-4070
▁넘는	-4071
▁했으며	-4072
ok	-4073
▁원주	-4074
▁은하	-4075
▁Q	-4076
▁전후	-4077
▁시간을	-4078
국민	-4079
▁벨기에	-4080
령을	-4081
▁미드	-4082
▁백작	-4083
▁일으켰	-4084
현재	-4085
▁병사	-4086
▁강제	-4087
▁취득	-4088
수록	-4089
▁부활	-4090
ae	-4091
술을	-4092
▁플라	-4093
▁이제	-4094
▁취급	-4095
▁보조	-4096
▁위해서는	-4097
▁38	-4098
▁팀을	-4099
▁보컬	-4100
에게서	-4101
▁이유는	-4102
▁기자	-4103
▁세종	-4104
▁공개된	-4105
▁주어	-4106
앤젤	-4107
제국	-4108
▁방법을	-4109
▁작품을	-4110
재를	-4111
시킨다	-4112
▁공산주의	-4113
▁경계	-4114
▁혼란	-4115
번째로	-4116
산이	-4117
▁청소년	-4118
▁되면	-4119
oh	-4120
지인	-4121
▁유사한	-4122
uc	-4123
세와	-4124
▁수상했다	-4125
미야	-4126
▁롯	-4127
ep	-4128
분류	-4129
의의	-4130
▁인기	-4131
▁간단	-4132
▁준우	-4133
▁1000	-4134
(2	-4135
▁건립	-4136
▁트레이	-4137
▁장식	-4138
분이	-4139
▁국경	-4140
▁질병	-4141
▁높아	-4142
▁알게	-4143
end	-4144
▁무엇	-4145
인민공화국의	-4146
▁프로젝트	-4147
▁빠른	-4148
화와	-4149
▁거래	-4150
▁없다고	-4151
▁삼각	-4152
문은	-4153
▁밀도는	-4154
▁숭	-4155
세로	-4156
▁스티	-4157
▁잇는	-4158
네스	-4159
▁to	-4160
▁포기	-4161
▁건조	-4162
▁현역	-4163
▁400	-4164
▁개시	-4165
▁서비스를	-4166
▁Th	-4167
ew	-4168
니아의	-4169
안의	-4170
정으로	-4171
개가	-4172
▁부임	-4173
뿐만	-4174
▁에도	-4175
▁그러한	-4176
▁받지	-4177
▁지금의	-4178
가타	-4179
치에	-4180
프레	-4181
▁규칙	-4182
▁빠르게	-4183
▁사건을	-4184
49	-4185
▁대략	-4186
▁1958	-4187
격으로	-4188
▁후속	-4189
▁자는	-4190
▁방향으로	-4191
▁미디어	-4192
당과	-4193
▁로스앤젤	-4194
▁소수	-4195
▁지식	-4196
▁말레이	-4197
류가	-4198
▁기록한	-4199
▁흡수	-4200
▁Un	-4201
▁레드	-4202
기에서	-4203
▁건국	-4204
라를	-4205
▁그런데	-4206
저우	-4207
▁인도네시아	-4208
▁때부터	-4209
▁운용	-4210
면은	-4211
▁역을	-4212
▁랭	-4213
마의	-4214
SS	-4215
▁독자	-4216
보는	-4217
▁한번	-4218
크를	-4219
였으나	-4220
▁탈출	-4221
ys	-4222
만은	-4223
▁동남	-4224
석이	-4225
ER	-4226
▁곳에서	-4227
▁명이	-4228
▁웨스트	-4229
▁청년	-4230
▁이용해	-4231
▁좁	-4232
나이티	-4233
▁부상	-4234
씨는	-4235
▁에어	-4236
▁쫓	-4237
▁수집	-4238
에트	-4239
▁출입	-4240
▁득표	-4241
▁않았고	-4242
지자	-4243
▁주고	-4244
기압	-4245
▁베이스	-4246
▁자녀	-4247
음이	-4248
▁승인	-4249
▁쥐	-4250
▁종류의	-4251
▁댄	-4252
르가	-4253
▁진입	-4254
▁후에는	-4255
▁37	-4256
▁신인	-4257
전문	-4258
▁활동했다	-4259
▁얻어	-4260
▁렌	-4261
▁깊은	-4262
형으로	-4263
▁시작하여	-4264
▁중이다	-4265
▁중세	-4266
▁해에	-4267
▁1944	-4268
▁히데	-4269
▁니콜	-4270
▁대공	-4271
31	-4272
단과	-4273
▁두었다	-4274
▁미니	-4275
▁체계	-4276
▁청나라	-4277
드시	-4278
▁1956	-4279
▁도망	-4280
▁논의	-4281
▁집행	-4282
▁해서	-4283
스케	-4284
▁반발	-4285
▁총리	-4286
▁영입	-4287
▁강의	-4288
▁예측	-4289
▁지낸	-4290
ure	-4291
법이	-4292
▁콘서	-4293
조합	-4294
▁이뤄	-4295
▁다르다	-4296
▁육상	-4297
리즘	-4298
▁킬	-4299
▁하면	-4300
▁유나이티	-4301
▁1947	-4302
▁응용	-4303
▁도중	-4304
▁수사	-4305
▁코로나	-4306
▁공통	-4307
▁타이완	-4308
▁전라북도	-4309
▁붙여	-4310
▁발표하였다	-4311
▁제공한다	-4312
▁평가를	-4313
▁공화	-4314
▁이전의	-4315
Ch	-4316
▁프리미	-4317
소와	-4318
▁이들의	-4319
pe	-4320
▁세인트	-4321
▁선보	-4322
▁이용한	-4323
ust	-4324
▁일부는	-4325
▁진화	-4326
▁후지	-4327
▁탈락	-4328
▁트로	-4329
38	-4330
▁꼭	-4331
선으로	-4332
▁분쟁	-4333
▁레코드에	-4334
▁아테	-4335
(15	-4336
훗날	-4337
ens	-4338
▁보장	-4339
▁이것을	-4340
▁시작으로	-4341
▁외부	-4342
▁기술을	-4343
▁특별한	-4344
▁군대를	-4345
ld	-4346
▁노부	-4347
▁행성	-4348
▁보아	-4349
에만	-4350
교를	-4351
조사	-4352
▁뜻으로	-4353
▁수송	-4354
생을	-4355
▁달라	-4356
AR	-4357
▁운전	-4358
▁그레	-4359
▁올리	-4360
▁경기는	-4361
ric	-4362
▁브루	-4363
되면	-4364
ont	-4365
▁빠져	-4366
▁전공	-4367
▁상승	-4368
리우스	-4369
▁발견된	-4370
▁아미	-4371
연맹	-4372
물이다	-4373
▁썼다	-4374
▁포위	-4375
▁사운드	-4376
▁피해를	-4377
화되어	-4378
▁불안	-4379
화되었다	-4380
▁1959	-4381
차원	-4382
론의	-4383
▁총독	-4384
▁구속	-4385
▁마지막으로	-4386
프를	-4387
▁장관	-4388
▁경성	-4389
▁생명	-4390
▁써	-4391
▁1941	-4392
▁켄	-4393
▁55	-4394
차가	-4395
one	-4396
▁보낸	-4397
▁이하	-4398
적의	-4399
▁출신으로	-4400
▁컵	-4401
페이	-4402
▁3,	-4403
모를	-4404
시스	-4405
▁대부분은	-4406
▁대학교에서	-4407
▁대성	-4408
곡을	-4409
▁각각의	-4410
▁출연하였다	-4411
iz	-4412
▁생긴	-4413
▁작품이다	-4414
▁조절	-4415
▁소장	-4416
ON	-4417
히는	-4418
▁개발한	-4419
▁k	-4420
리적	-4421
▁앞에	-4422
BA	-4423
▁프로세	-4424
▁h	-4425
▁존재하는	-4426
▁상륙	-4427
▁목표로	-4428
▁아사	-4429
▁연출	-4430
▁아들이	-4431
터를	-4432
▁챔피언스리그	-4433
▁맛	-4434
▁포함하여	-4435
▁나타내는	-4436
man	-4437
▁양자	-4438
씨의	-4439
통신	-4440
▁신성	-4441
▁제어	-4442
▁했던	-4443
▁사용되고	-4444
▁작품은	-4445
▁전철	-4446
▁미야	-4447
▁불법	-4448
시에서	-4449
▁1954	-4450
~)	-4451
▁제외하고	-4452
▁이후로	-4453
▁왼쪽	-4454
▁소녀	-4455
▁내의	-4456
▁능력을	-4457
▁벡	-4458
데이	-4459
▁완료	-4460
▁변경되었다	-4461
▁하나님	-4462
▁문헌	-4463
▁지어	-4464
▁를	-4465
▁독특	-4466
▁주둔	-4467
터는	-4468
▁PC	-4469
메리	-4470
▁요코	-4471
▁받았고	-4472
67	-4473
▁갈라	-4474
~19	-4475
▁그레이	-4476
▁활동하였다	-4477
▁받게	-4478
▁셋	-4479
▁1952	-4480
▁체코	-4481
▁것이며	-4482
▁갤	-4483
[]	-4484
▁정치인이다	-4485
▁잡아	-4486
▁복합	-4487
▁맡아	-4488
통을	-4489
▁돌아가	-4490
▁빙	-4491
▁때의	-4492
▁만주	-4493
▁선수가	-4494
평가	-4495
▁콘스탄	-4496
▁1919	-4497
▁늦	-4498
티노	-4499
▁진압	-4500
_5	-4501
터리	-4502
▁최다	-4503
▁알려졌다	-4504
IV	-4505
▁높이는	-4506
기까지	-4507
▁기대	-4508
▁열렸다	-4509
라와	-4510
▁출시되었다	-4511
▁등급	-4512
▁박정	-4513
▁FA	-4514
▁개신	-4515
▁한반	-4516
82	-4517
식에	-4518
▁사건이	-4519
▁끝난	-4520
▁스미	-4521
▁1939	-4522
▁틀	-4523
해도	-4524
▁자살	-4525
▁경우는	-4526
▁논란이	-4527
▁기록하였다	-4528
▁오페	-4529
▁합성	-4530
공사	-4531
▁포함한다	-4532
▁남은	-4533
▁맞이	-4534
▁지키	-4535
▁층	-4536
▁역사적	-4537
▁향상	-4538
▁베스트	-4539
구에서	-4540
타르	-4541
▁가서	-4542
하였지만	-4543
▁장군	-4544
▁출간	-4545
ly	-4546
▁소년	-4547
▁활성	-4548
▁김영	-4549
▁연재	-4550
▁다수의	-4551
▁이집트	-4552
세한	-4553
▁연관	-4554
▁어떠	-4555
▁개최된	-4556
산에	-4557
▁합격	-4558
▁목소	-4559
▁대수	-4560
▁닥	-4561
▁나치	-4562
▁검찰	-4563
▁지니	-4564
▁차트	-4565
마르	-4566
▁감독을	-4567
▁방사	-4568
▁그와	-4569
ial	-4570
IA	-4571
▁운동을	-4572
▁인구의	-4573
미의	-4574
명에	-4575
▁동성	-4576
▁풍부	-4577
▁시즌에	-4578
▁탁	-4579
▁정확한	-4580
▁성적	-4581
▁이성	-4582
▁이시	-4583
▁카르	-4584
▁음반은	-4585
▁제대로	-4586
▁채용	-4587
▁말았다	-4588
▁배출	-4589
요시	-4590
▁반드시	-4591
▁벼	-4592
▁검사	-4593
▁고속	-4594
미는	-4595
▁선교	-4596
eg	-4597
들이다	-4598
▁해양	-4599
▁전파	-4600
리나	-4601
▁st	-4602
국으로	-4603
▁정책을	-4604
▁우려	-4605
도서	-4606
▁시카	-4607
▁회전	-4608
국제	-4609
▁데이비드	-4610
▁전통적인	-4611
▁엄청	-4612
▁동원	-4613
▁동작	-4614
▁둘째	-4615
기원전	-4616
▁흉	-4617
▁한국에서	-4618
▁가을	-4619
▁그들이	-4620
▁방영된	-4621
▁포도	-4622
▁승진	-4623
▁학위를	-4624
▁해산	-4625
민주당	-4626
▁터널	-4627
▁보관	-4628
▁오른쪽	-4629
▁농민	-4630
치아	-4631
▁리더	-4632
▁치러	-4633
▁여기에	-4634
ind	-4635
라이언	-4636
▁세르비아	-4637
▁헨리	-4638
행위	-4639
39	-4640
▁사법	-4641
▁주관	-4642
▁공을	-4643
▁롯데	-4644
질랜드	-4645
▁연구를	-4646
산화	-4647
81	-4648
▁않으며	-4649
▁일정	-4650
▁자이	-4651
▁국제공항	-4652
▁위반	-4653
▁아들로	-4654
▁점점	-4655
▁톰	-4656
▁국무	-4657
▁Com	-4658
▁교환	-4659
▁장치	-4660
조직	-4661
체육	-4662
▁마케	-4663
▁공군	-4664
▁대기	-4665
종을	-4666
▁모아	-4667
▁촌이다	-4668
▁꺾	-4669
▁사태	-4670
▁둘러싸	-4671
▁주택	-4672
인도	-4673
기간	-4674
▁75	-4675
었다고	-4676
▁태어났으며	-4677
▁갖는	-4678
▁변환	-4679
▁상품	-4680
▁창조	-4681
34	-4682
▁가졌다	-4683
▁트랜	-4684
미를	-4685
토리	-4686
겠다	-4687
▁세력	-4688
▁파라	-4689
▁효율	-4690
▁영화는	-4691
▁인접	-4692
▁카운티	-4693
▁1955	-4694
부인	-4695
▁법칙	-4696
▁형태를	-4697
▁국도	-4698
▁차별	-4699
▁도쿠	-4700
부터는	-4701
▁1953	-4702
▁액션	-4703
▁교육을	-4704
▁지급	-4705
▁지붕	-4706
게임	-4707
▁의무	-4708
▁소비에트	-4709
ff	-4710
났고	-4711
▁니시	-4712
▁스페인의	-4713
▁단독	-4714
▁왕국의	-4715
생물	-4716
섰다	-4717
29	-4718
▁신뢰	-4719
▁원년	-4720
▁1957	-4721
▁팝	-4722
패를	-4723
▁천연	-4724
▁학문	-4725
동으로	-4726
브라	-4727
국가	-4728
▁받는다	-4729
▁는	-4730
▁거두었다	-4731
바로	-4732
왕이	-4733
▁받을	-4734
그라	-4735
▁저작	-4736
주의를	-4737
항을	-4738
▁일치	-4739
▁나이로	-4740
▁상당한	-4741
84	-4742
머스	-4743
▁쓰는	-4744
▁재건	-4745
▁전주	-4746
▁덧	-4747
▁분할	-4748
▁무덤	-4749
ack	-4750
레오	-4751
▁프로듀서	-4752
리다	-4753
▁SK	-4754
▁파악	-4755
▁이루어졌다	-4756
▁되자	-4757
▁성능	-4758
▁나타난다	-4759
고는	-4760
크가	-4761
▁서버	-4762
▁극장	-4763
▁있음을	-4764
▁하나인	-4765
▁계기로	-4766
들로부터	-4767
▁플레이오프	-4768
▁실질	-4769
▁일찍	-4770
▁완전	-4771
▁글을	-4772
▁명확	-4773
▁DNA	-4774
석은	-4775
겠다는	-4776
▁지방의	-4777
▁아버지는	-4778
▁역은	-4779
▁올랐	-4780
▁감독이	-4781
▁뜻하는	-4782
재판	-4783
프랑	-4784
▁자신들의	-4785
AT	-4786
사관	-4787
▁어떠한	-4788
▁릴	-4789
틀러	-4790
▁학습	-4791
▁작업을	-4792
▁까	-4793
▁한정	-4794
투스	-4795
▁지냈	-4796
병을	-4797
▁34	-4798
ith	-4799
▁적절	-4800
전과	-4801
▁조작	-4802
▁쓸	-4803
for	-4804
▁창단	-4805
▁보안	-4806
▁홋	-4807
▁예비	-4808
▁들어서	-4809
제와	-4810
▁마이크로소프트	-4811
▁모여	-4812
▁비례	-4813
▁포함하고	-4814
면으로	-4815
2,	-4816
▁묶	-4817
텐츠	-4818
▁많아	-4819
천시	-4820
▁음식	-4821
▁마침내	-4822
▁1942	-4823
▁진보	-4824
상태	-4825
▁닌	-4826
지컬	-4827
▁발견되었다	-4828
퍼드	-4829
이므로	-4830
▁헤르	-4831
▁제작한	-4832
산시	-4833
▁가나	-4834
▁늘어	-4835
▁코드	-4836
장인	-4837
디션	-4838
▁삽	-4839
▁켈	-4840
락을	-4841
조판	-4842
▁특이	-4843
▁반대로	-4844
▁뉴질랜드	-4845
▁연대	-4846
▁페르시아	-4847
▁분열	-4848
▁빼앗	-4849
망을	-4850
▁모양의	-4851
선과	-4852
으니	-4853
▁경주	-4854
▁후기	-4855
없는	-4856
▁아티	-4857
▁군주	-4858
▁테이	-4859
공화국	-4860
▁알파	-4861
▁없다는	-4862
▁유기	-4863
▁임진	-4864
▁것이라는	-4865
▁인지	-4866
▁느끼	-4867
▁시에	-4868
▁완공	-4869
▁메시	-4870
토의	-4871
▁조별	-4872
방을	-4873
▁말에	-4874
▁소속으로	-4875
정치	-4876
개로	-4877
▁나왔다	-4878
뮤니	-4879
▁나뉜	-4880
▁KBO	-4881
▁그렇게	-4882
▁음악을	-4883
▁불렀다	-4884
▁횡	-4885
▁테러	-4886
▁프로그램을	-4887
-5	-4888
▁어린이	-4889
▁1943	-4890
▁미군	-4891
▁챔피언십	-4892
▁선정되었다	-4893
고속도로	-4894
▁의미를	-4895
EC	-4896
▁경제적	-4897
▁대통령이	-4898
카이도	-4899
▁샘	-4900
▁승객	-4901
▁훗날	-4902
▁재배	-4903
▁중인	-4904
성군	-4905
▁구현	-4906
▁로스앤젤레스	-4907
▁페이	-4908
일과	-4909
▁신청	-4910
▁관계가	-4911
동은	-4912
▁문제로	-4913
조로	-4914
▁레오	-4915
▁제이	-4916
▁독립운동	-4917
천군	-4918
▁갔다	-4919
▁통산	-4920
선수	-4921
▁관료	-4922
▁감독으로	-4923
▁이름의	-4924
▁정차	-4925
▁메인	-4926
▁이룬다	-4927
사이트	-4928
▁무게	-4929
미가	-4930
박물	-4931
▁바라	-4932
▁오스만	-4933
시키기	-4934
▁향해	-4935
경이	-4936
주의의	-4937
▁되며	-4938
▁아라	-4939
▁취소	-4940
토니	-4941
▁혼합	-4942
ove	-4943
▁민주당	-4944
▁속한	-4945
▁처형	-4946
▁출범	-4947
판이	-4948
연히	-4949
▁통계	-4950
▁마치	-4951
▁이후의	-4952
▁주장하였다	-4953
▁수영	-4954
▁올려	-4955
비스	-4956
우주	-4957
임이	-4958
▁기록이	-4959
거운	-4960
에이	-4961
▁시작된	-4962
▁제공하는	-4963
▁가스	-4964
▁개막	-4965
▁크고	-4966
▁당시에는	-4967
▁좌우	-4968
▁Ar	-4969
▁흘러	-4970
으로서의	-4971
▁만들어졌다	-4972
학에서	-4973
슨의	-4974
▁무시	-4975
▁택	-4976
▁오랫	-4977
경은	-4978
▁하위	-4979
▁자극	-4980
68	-4981
책을	-4982
▁후보로	-4983
고기	-4984
레인	-4985
▁차이	-4986
▁곡은	-4987
▁학술	-4988
▁캔	-4989
St	-4990
▁형사	-4991
▁부르는	-4992
▁시리즈의	-4993
드라	-4994
원이다	-4995
터의	-4996
▁스탠	-4997
▁주전	-4998
▁확률	-4999
쿠스	-5000
했었다	-5001
▁로켓	-5002
▁일부를	-5003
▁하였으나	-5004
▁띄	-5005
▁등장한다	-5006
ory	-5007
▁리처	-5008
ug	-5009
1,	-5010
▁바깥	-5011
ide	-5012
▁하였으며	-5013
▁분위	-5014
고의	-5015
▁새겨	-5016
▁덴마크	-5017
진의	-5018
▁것이라	-5019
An	-5020
슬러	-5021
▁꼽	-5022
▁인종	-5023
▁사우	-5024
▁긍	-5025
▁픽	-5026
▁스프	-5027
▁접촉	-5028
론은	-5029
▁영상	-5030
▁없으며	-5031
▁크로아	-5032
▁샤를	-5033
▁저서	-5034
▁오랫동안	-5035
현의	-5036
계획	-5037
▁방법으로	-5038
▁사람들의	-5039
▁간행	-5040
▁설립되었다	-5041
개혁	-5042
자들에게	-5043
▁성향	-5044
하였다고	-5045
▁시작한다	-5046
ational	-5047
▁합쳐	-5048
해가	-5049
▁사립	-5050
▁역으로	-5051
무부	-5052
름을	-5053
▁시리아	-5054
▁플래	-5055
▁스카	-5056
▁지내	-5057
▁발굴	-5058
▁쓰고	-5059
▁희생	-5060
▁새롭게	-5061
▁고유	-5062
ary	-5063
▁임대	-5064
▁목록이다	-5065
▁작곡가	-5066
▁역이다	-5067
▁헝가리	-5068
파는	-5069
▁진행되었다	-5070
▁마무	-5071
였지만	-5072
▁160	-5073
▁Be	-5074
타는	-5075
▁규모의	-5076
사스	-5077
ock	-5078
ood	-5079
▁황금	-5080
▁엑스	-5081
자로서	-5082
▁강점	-5083
▁스마트	-5084
▁엠	-5085
▁무너	-5086
▁추천	-5087
터가	-5088
▁조종	-5089
주었다	-5090
▁함락	-5091
입니다	-5092
자료	-5093
▁폐쇄	-5094
들에서	-5095
▁활동하고	-5096
▁경우에	-5097
▁직업	-5098
하였던	-5099
진은	-5100
▁터미널	-5101
▁훌	-5102
▁단계	-5103
화한	-5104
▁심각한	-5105
▁동아	-5106
▁부분을	-5107
오스	-5108
▁가지는	-5109
▁사냥	-5110
▁국회	-5111
▁신호	-5112
▁지은	-5113
표를	-5114
복을	-5115
▁충청북도	-5116
▁고속도로	-5117
마을	-5118
ment	-5119
▁상위	-5120
▁사용된	-5121
범위	-5122
역은	-5123
▁고문	-5124
이었지만	-5125
▁네이	-5126
▁그때	-5127
▁관련이	-5128
이센	-5129
▁개입	-5130
▁프라	-5131
▁절반	-5132
▁누구	-5133
▁아스	-5134
▁1936	-5135
년경	-5136
▁지금까지	-5137
▁항성	-5138
▁노벨	-5139
▁1951	-5140
시험	-5141
레옹	-5142
▁김정	-5143
▁변화를	-5144
▁대개	-5145
▁국민의	-5146
▁김일	-5147
▁예수	-5148
▁화물	-5149
▁내용은	-5150
▁기울	-5151
▁아르헨티나	-5152
▁행위	-5153
질이	-5154
▁실현	-5155
▁코르	-5156
▁독특한	-5157
▁정기	-5158
▁나타낸다	-5159
▁다운	-5160
▁당초	-5161
▁인구가	-5162
니가	-5163
▁시위	-5164
▁명칭은	-5165
▁주장한다	-5166
▁장교	-5167
ark	-5168
▁곡을	-5169
ond	-5170
▁주지	-5171
ace	-5172
▁얻은	-5173
▁사임	-5174
▁부산광역시	-5175
▁단편	-5176
진이	-5177
▁쳐	-5178
▁위성	-5179
▁저술	-5180
▁빌보드	-5181
▁분명	-5182
74	-5183
▁발발	-5184
▁일어났다	-5185
▁쓰이는	-5186
▁예정이다	-5187
타마	-5188
▁받아들여	-5189
▁섞	-5190
안은	-5191
▁유행	-5192
▁주어진	-5193
지어	-5194
각을	-5195
▁연결하는	-5196
▁You	-5197
▁안에서	-5198
▁잡지	-5199
▁사망한	-5200
▁파트	-5201
▁지위를	-5202
▁반도	-5203
▁혐의로	-5204
▁참전	-5205
▁기상	-5206
▁노출	-5207
야구	-5208
▁길을	-5209
우수	-5210
▁녹색	-5211
▁소송	-5212
▁유럽의	-5213
▁퀸	-5214
▁협회	-5215
방의	-5216
카가	-5217
▁발생하는	-5218
체와	-5219
▁지시	-5220
▁개신교	-5221
▁잉글랜드의	-5222
어이다	-5223
석의	-5224
▁기둥	-5225
▁언제	-5226
▁처벌	-5227
▁하에	-5228
▁확립	-5229
무늬	-5230
기념	-5231
▁부대	-5232
스트로	-5233
▁지역으로	-5234
▁1938	-5235
▁급제	-5236
▁포켓	-5237
▁않게	-5238
▁공연을	-5239
▁노래를	-5240
▁세계의	-5241
▁후계	-5242
▁돕	-5243
인들을	-5244
61	-5245
▁공업	-5246
▁편찬	-5247
▁주최	-5248
▁공헌	-5249
▁상대적으로	-5250
▁마크	-5251
해져	-5252
▁정지	-5253
▁명을	-5254
신으로	-5255
▁콤	-5256
▁펼쳐	-5257
▁받았으며	-5258
78	-5259
▁단위	-5260
▁유일하게	-5261
▁침략	-5262
...	-5263
▁대한민국에서는	-5264
격한	-5265
▁빅토	-5266
▁나폴레옹	-5267
▁상태로	-5268
▁아이디	-5269
72	-5270
▁앉	-5271
사단	-5272
▁변형	-5273
▁근본	-5274
mer	-5275
▁해리	-5276
▁입장을	-5277
▁지켜	-5278
▁도시의	-5279
련의	-5280
리그의	-5281
▁성적을	-5282
▁이들을	-5283
치게	-5284
되었다고	-5285
▁이르러	-5286
차는	-5287
ber	-5288
▁관여	-5289
▁아이돌	-5290
▁로드	-5291
내에	-5292
ies	-5293
▁매일	-5294
▁다다	-5295
▁올렸다	-5296
79	-5297
▁여겨진다	-5298
▁연구에	-5299
▁부하	-5300
▁기회를	-5301
▁마르크	-5302
▁행동을	-5303
▁저녁	-5304
의원	-5305
▁다르게	-5306
▁죽었다	-5307
구이다	-5308
린은	-5309
▁다스	-5310
▁사람들을	-5311
금의	-5312
령이	-5313
▁대리	-5314
▁중에는	-5315
▁금메달을	-5316
르기	-5317
네이	-5318
▁뚜	-5319
▁침입	-5320
드레	-5321
온은	-5322
▁방정	-5323
▁테스트	-5324
▁스키	-5325
가시	-5326
▁65	-5327
▁인쇄	-5328
▁미드필	-5329
▁보유하고	-5330
▁프리미어	-5331
▁도요	-5332
▁드라이	-5333
▁참여했다	-5334
▁전형	-5335
▁출장	-5336
▁어깨	-5337
ect	-5338
▁철수	-5339
스럽게	-5340
▁찰스	-5341
▁부상을	-5342
▁갔	-5343
▁Coun	-5344
▁대표하는	-5345
▁왕조	-5346
▁커뮤니	-5347
▁어디	-5348
건을	-5349
장군	-5350
에서만	-5351
▁제일	-5352
▁120	-5353
▁보았다	-5354
▁성을	-5355
▁계통	-5356
71	-5357
▁이기	-5358
미니	-5359
▁중화민국	-5360
재로	-5361
▁일본에	-5362
▁멀리	-5363
In	-5364
▁Me	-5365
▁졸업하고	-5366
▁뜨	-5367
라며	-5368
▁강등	-5369
동맹	-5370
▁프로그래	-5371
▁로봇	-5372
▁어려운	-5373
▁조선의	-5374
층의	-5375
▁보병	-5376
서양	-5377
행정	-5378
사무	-5379
▁긍정	-5380
▁코파	-5381
▁만들고	-5382
63	-5383
▁도와	-5384
ical	-5385
관계	-5386
62	-5387
▁팽	-5388
▁일으키	-5389
강의	-5390
▁전직	-5391
하지는	-5392
▁1937	-5393
함과	-5394
실은	-5395
▁번의	-5396
▁시스템을	-5397
티오	-5398
▁다수	-5399
▁장남	-5400
▁망명	-5401
▁후원	-5402
▁효과를	-5403
▁캐나다의	-5404
▁골을	-5405
소설	-5406
▁영웅	-5407
▁1910	-5408
체스터	-5409
루가	-5410
▁프린	-5411
▁나뉜다	-5412
▁내렸다	-5413
▁앞에서	-5414
▁가치	-5415
▁벌어	-5416
▁홍보	-5417
▁바뀌었다	-5418
▁지금은	-5419
▁미드필더	-5420
▁상황에서	-5421
고가	-5422
차전	-5423
론이	-5424
ost	-5425
동생	-5426
▁가와	-5427
▁놓고	-5428
▁타임	-5429
되었다가	-5430
-4	-5431
관과	-5432
▁그래픽	-5433
공산	-5434
▁이혼	-5435
▁분노	-5436
▁지상역이다	-5437
VD	-5438
▁거듭	-5439
주의적	-5440
▁완전한	-5441
▁전까지	-5442
▁존재하지	-5443
역의	-5444
파를	-5445
▁다소	-5446
자유	-5447
▁나타내	-5448
▁추구	-5449
▁1914	-5450
안이	-5451
▁가담	-5452
자키	-5453
▁맡은	-5454
▁등판	-5455
▁싱가	-5456
com	-5457
▁가문의	-5458
▁의식	-5459
었기	-5460
산군	-5461
▁정비	-5462
역이	-5463
▁다케	-5464
▁가슴	-5465
메리칸	-5466
시리즈	-5467
DP	-5468
▁알바	-5469
▁현상	-5470
씨가	-5471
▁...	-5472
▁대회에	-5473
▁1935	-5474
▁인권	-5475
▁성공을	-5476
▁연간	-5477
▁특정한	-5478
ire	-5479
▁뮤지컬	-5480
되는데	-5481
▁가치가	-5482
타운	-5483
▁x	-5484
▁소방	-5485
▁바닥	-5486
▁해야	-5487
총독	-5488
▁안드로	-5489
69	-5490
▁준다	-5491
▁지도자	-5492
▁계곡	-5493
▁설득	-5494
▁미사일	-5495
▁신학	-5496
▁따로	-5497
▁적합	-5498
▁Pro	-5499
▁작품으로	-5500
▁떠났다	-5501
▁나타났다	-5502
AM	-5503
▁루마	-5504
▁교향	-5505
▁느낌	-5506
▁시나	-5507
▁중부	-5508
류는	-5509
카의	-5510
▁두려	-5511
관에서	-5512
▁광범위	-5513
▁반란을	-5514
실의	-5515
▁여객철도	-5516
색의	-5517
▁필요하다	-5518
동시	-5519
로와	-5520
족이	-5521
▁브라운	-5522
▁크기	-5523
▁참가했다	-5524
리며	-5525
▁일시	-5526
ence	-5527
고등	-5528
▁돈을	-5529
▁힌	-5530
에른	-5531
트릭	-5532
▁의심	-5533
▁나아가	-5534
▁필요가	-5535
▁사용했다	-5536
백만	-5537
또는	-5538
아르	-5539
ass	-5540
물에	-5541
▁시인	-5542
▁보여준다	-5543
per	-5544
▁데에	-5545
하므로	-5546
공원	-5547
▁r	-5548
▁듣고	-5549
▁들고	-5550
▁1932	-5551
▁대부분이	-5552
eb	-5553
▁자리잡	-5554
▁재개	-5555
미르	-5556
▁이루고	-5557
왜란	-5558
▁1918	-5559
동과	-5560
▁해상	-5561
▁사업을	-5562
튜브	-5563
▁메이지	-5564
▁영국에서	-5565
▁개조	-5566
ID	-5567
▁선박	-5568
oy	-5569
▁않지만	-5570
▁일부가	-5571
▁닛	-5572
▁속해	-5573
▁전부	-5574
▁소련의	-5575
▁돼	-5576
▁유치	-5577
▁바르셀	-5578
▁석유	-5579
▁정체	-5580
▁특징이다	-5581
73	-5582
구치	-5583
▁En	-5584
▁내셔널	-5585
역에서	-5586
▁가진다	-5587
▁1933	-5588
▁사실이	-5589
▁편이다	-5590
▁신체	-5591
▁접한다	-5592
▁가이	-5593
▁문을	-5594
기록	-5595
▁올림픽에	-5596
▁엄청난	-5597
▁선생	-5598
AN	-5599
▁다음의	-5600
▁스케	-5601
어야	-5602
함이	-5603
ern	-5604
▁단지	-5605
치지	-5606
▁미국과	-5607
▁라고	-5608
▁운영하고	-5609
▁법정	-5610
▁나타나는	-5611
▁뮌	-5612
▁총선	-5613
▁높다	-5614
▁벗어나	-5615
▁도시이다	-5616
▁골든	-5617
iss	-5618
▁+	-5619
▁몰아	-5620
우의	-5621
▁시상	-5622
▁오프	-5623
▁설치된	-5624
▁시카고	-5625
▁말레이시아	-5626
▁기다	-5627
▁구글	-5628
마는	-5629
▁부친	-5630
▁밝히	-5631
IN	-5632
어에서	-5633
▁유형문화재	-5634
▁살인	-5635
lat	-5636
베르트	-5637
▁라이트	-5638
▁Sh	-5639
었을	-5640
▁He	-5641
▁초에	-5642
▁그곳에서	-5643
보고	-5644
▁참조	-5645
들목	-5646
제에서	-5647
▁츠	-5648
소송	-5649
▁게임이다	-5650
니스탄	-5651
법으로	-5652
(20	-5653
▁공중	-5654
BM	-5655
▁춤	-5656
▁탈퇴	-5657
▁활약을	-5658
정과	-5659
▁곽	-5660
별로	-5661
▁개설	-5662
▁의혹	-5663
다의	-5664
▁천주교	-5665
▁논문	-5666
▁구매	-5667
▁서울대학교	-5668
▁토지	-5669
타의	-5670
달러	-5671
주고	-5672
파가	-5673
▁~)	-5674
▁군인	-5675
▁기록은	-5676
▁al	-5677
▁인용	-5678
▁군의	-5679
▁수요	-5680
▁프로이센	-5681
'()	-5682
▁전면	-5683
▁카드	-5684
▁통상	-5685
▁돌아와	-5686
▁소멸	-5687
▁공화국의	-5688
sh	-5689
▁i	-5690
▁프리드리	-5691
포를	-5692
▁대통령은	-5693
▁나누어	-5694
▁임진왜란	-5695
▁자격	-5696
▁데뷔했다	-5697
▁리버	-5698
▁포함된다	-5699
▁한글	-5700
▁노스	-5701
▁겹	-5702
▁묵	-5703
색으로	-5704
▁상하이	-5705
▁프로토	-5706
▁가게	-5707
대중	-5708
▁있었기	-5709
▁세계적으로	-5710
▁나들목	-5711
▁장비	-5712
▁로마의	-5713
▁세력을	-5714
▁조지아	-5715
▁이전에는	-5716
▁더블	-5717
▁레알	-5718
▁역사를	-5719
▁발탁	-5720
야의	-5721
▁유한	-5722
▁징역	-5723
▁투쟁	-5724
▁얻을	-5725
영은	-5726
▁벌어진	-5727
▁블라	-5728
▁창원	-5729
▁39	-5730
▁일컫	-5731
▁쓰여	-5732
▁부분이	-5733
▁일어나는	-5734
II	-5735
부장	-5736
▁파르	-5737
혁명	-5738
듯이	-5739
즈가	-5740
▁영업	-5741
▁갖추고	-5742
년도	-5743
▁에르	-5744
연을	-5745
왕은	-5746
▁즉시	-5747
▁평안	-5748
▁화이트	-5749
▁1934	-5750
▁커버	-5751
▁48	-5752
▁AFC	-5753
영의	-5754
▁도모	-5755
▁작동	-5756
▁부분은	-5757
▁운영하는	-5758
▁구입	-5759
▁학살	-5760
▁해도	-5761
드라마	-5762
▁남쪽으로	-5763
▁여섯	-5764
▁피터	-5765
▁박정희	-5766
▁상을	-5767
tern	-5768
▁군이다	-5769
▁명나라	-5770
▁화합	-5771
▁데뷔하였다	-5772
피스	-5773
▁만든다	-5774
▁맞아	-5775
▁진주	-5776
▁게임을	-5777
되어야	-5778
▁랜	-5779
타로	-5780
ver	-5781
▁스트리	-5782
▁그로	-5783
▁파워	-5784
루는	-5785
▁대체로	-5786
▁연예	-5787
▁바이에른	-5788
점의	-5789
▁동해	-5790
▁종사	-5791
▁외국인	-5792
퍼스	-5793
▁깃	-5794
▁IS	-5795
▁지지를	-5796
코는	-5797
▁선전	-5798
부대	-5799
비시	-5800
▁오버	-5801
▁이름이다	-5802
▁자리에	-5803
act	-5804
▁전력	-5805
▁이상이	-5806
감독	-5807
pha	-5808
ivers	-5809
▁끌어	-5810
▁1928	-5811
▁개칭	-5812
▁프랑크	-5813
▁연고	-5814
천만	-5815
▁개체	-5816
▁와이	-5817
ah	-5818
▁집권	-5819
▁곳으로	-5820
▁세상을	-5821
키의	-5822
▁사단	-5823
▁루이스	-5824
▁이끌었다	-5825
▁동양	-5826
시스코	-5827
바일	-5828
▁다리	-5829
▁오직	-5830
▁지속적으로	-5831
▁눈에	-5832
▁원주민	-5833
▁공사	-5834
▁시사	-5835
▁대통령의	-5836
나카	-5837
례를	-5838
키가	-5839
▁아름다운	-5840
▁있었다고	-5841
보살	-5842
▁무한	-5843
되지만	-5844
amp	-5845
▁NH	-5846
가인	-5847
▁순간	-5848
▁나온다	-5849
▁주장을	-5850
▁못하는	-5851
▁포함하는	-5852
Pa	-5853
▁남아프리카	-5854
직에	-5855
▁이로써	-5856
▁표면	-5857
▁내용이	-5858
데르	-5859
▁심리	-5860
▁행렬	-5861
▁1924	-5862
▁위로	-5863
▁프랭	-5864
담을	-5865
ann	-5866
▁비상	-5867
▁인디언	-5868
디움	-5869
▁주간	-5870
▁추가로	-5871
강에	-5872
학자들은	-5873
▁수석	-5874
▁앵	-5875
ich	-5876
▁방지	-5877
▁임무	-5878
▁힙	-5879
▁원소	-5880
▁아들인	-5881
(5	-5882
▁닫	-5883
rom	-5884
▁조선시대	-5885
▁도전	-5886
▁자전	-5887
▁호소	-5888
▁어머니는	-5889
위와	-5890
▁궤도	-5891
론에	-5892
ear	-5893
페르	-5894
▁해발	-5895
▁즈	-5896
▁포켓몬	-5897
▁re	-5898
▁근육	-5899
()"	-5900
서울	-5901
▁보스	-5902
▁밝혀졌다	-5903
동물	-5904
오의	-5905
▁희망	-5906
▁현지	-5907
▁굳	-5908
▁수리	-5909
▁그것이	-5910
▁불렸다	-5911
▁근처에	-5912
질의	-5913
▁일정한	-5914
년부터는	-5915
▁게다가	-5916
▁병합	-5917
▁이후에도	-5918
▁덜	-5919
-20	-5920
▁방해	-5921
▁한나라	-5922
▁기록하며	-5923
장애	-5924
▁양의	-5925
▁점이	-5926
▁태국	-5927
▁포스트	-5928
투아	-5929
▁기소	-5930
▁북쪽으로	-5931
환으로	-5932
▁초기의	-5933
▁웅	-5934
코의	-5935
▁이른다	-5936
▁방식을	-5937
루의	-5938
▁나고	-5939
▁따서	-5940
▁의학	-5941
▁위원회	-5942
▁1900	-5943
▁연습	-5944
▁억제	-5945
▁능력	-5946
▁사용하였다	-5947
▁분해	-5948
▁스티븐	-5949
▁권력을	-5950
1)	-5951
라에	-5952
마를	-5953
orld	-5954
받는	-5955
2)	-5956
100	-5957
age	-5958
▁작사	-5959
▁연결되어	-5960
중국	-5961
▁크리	-5962
▁상황을	-5963
▁남겼다	-5964
루를	-5965
▁개별	-5966
▁정권	-5967
▁다음날	-5968
▁참가한	-5969
평균	-5970
▁후임	-5971
▁아테네	-5972
▁똑	-5973
양을	-5974
▁분야에서	-5975
독립	-5976
▁사마	-5977
▁말하는	-5978
▁폴리	-5979
자동차	-5980
▁올림픽에서	-5981
▁쿠데	-5982
3,	-5983
▁티베	-5984
처를	-5985
▁잠수	-5986
Al	-5987
▁이웃	-5988
▁한국어	-5989
츠의	-5990
▁상속	-5991
▁문제에	-5992
▁선출되었다	-5993
▁AT	-5994
▁무사	-5995
▁후쿠오카	-5996
ach	-5997
▁디스	-5998
▁명령을	-5999
▁않으면	-6000
▁도덕	-6001
▁김성	-6002
▁승려	-6003
래프트	-6004
▁패션	-6005
▁되는데	-6006
▁전쟁에	-6007
▁노르웨이	-6008
▁히트	-6009
▁이들이	-6010
한의	-6011
(16	-6012
▁유고	-6013
▁복잡한	-6014
게는	-6015
파로	-6016
▁못하였다	-6017
▁가공	-6018
▁책임을	-6019
▁텍사스	-6020
▁빚	-6021
▁암컷	-6022
▁첼	-6023
그램	-6024
▁루트	-6025
▁란	-6026
▁혈액	-6027
IC	-6028
사람	-6029
ton	-6030
등을	-6031
리언	-6032
학자이다	-6033
연대	-6034
▁복원	-6035
▁위치를	-6036
만으로	-6037
▁검토	-6038
이상	-6039
▁조카	-6040
▁측면	-6041
▁언덕	-6042
▁멘	-6043
▁4,	-6044
▁부진	-6045
▁마무리	-6046
▁밀려	-6047
▁보건	-6048
▁42	-6049
▁화성	-6050
▁선임	-6051
AC	-6052
▁복무	-6053
▁분자	-6054
▁동안에	-6055
ction	-6056
과대학	-6057
▁준우승	-6058
▁책을	-6059
▁이어지는	-6060
▁멜로	-6061
▁갑자기	-6062
▁곳이다	-6063
▁전신	-6064
▁전쟁에서	-6065
비에	-6066
거래	-6067
는지	-6068
▁크다	-6069
▁가수이다	-6070
▁상태에서	-6071
린의	-6072
▁회장	-6073
▁유효	-6074
▁서술	-6075
▁없을	-6076
▁초기에	-6077
▁프라이	-6078
▁멸종	-6079
▁민법	-6080
인에게	-6081
▁맞서	-6082
베스	-6083
코스	-6084
단이다	-6085
▁기록되어	-6086
▁에피소드	-6087
▁리처드	-6088
에선	-6089
▁IC	-6090
▁특성	-6091
▁창작	-6092
평을	-6093
식과	-6094
son	-6095
▁의미하는	-6096
.'	-6097
▁김종	-6098
보호	-6099
▁암호	-6100
▁만한	-6101
니즘	-6102
실이	-6103
▁필수	-6104
비로	-6105
▁임의의	-6106
리안	-6107
▁이다	-6108
▁물을	-6109
▁민중	-6110
더스	-6111
▁1931	-6112
금이	-6113
▁핑	-6114
▁히틀러	-6115
▁달려	-6116
▁남아있	-6117
▁일련의	-6118
▁크레	-6119
▁여성의	-6120
▁에드워드	-6121
아는	-6122
▁되돌	-6123
▁열차가	-6124
sp	-6125
▁주기	-6126
PS	-6127
대부	-6128
▁돌려	-6129
▁취리히	-6130
▁수의	-6131
▁동방	-6132
▁토론토	-6133
▁넷	-6134
▁완벽	-6135
▁브레	-6136
친다	-6137
▁톱	-6138
▁화산	-6139
▁수상하였다	-6140
▁프리드리히	-6141
▁큐	-6142
▁64	-6143
▁연산	-6144
만한	-6145
▁미국은	-6146
▁핫	-6147
▁상관	-6148
▁아오	-6149
베리아	-6150
▁직원	-6151
ck	-6152
▁반응을	-6153
(-	-6154
▁게임의	-6155
▁비롯하여	-6156
행성	-6157
▁발레	-6158
▁시가	-6159
사이다	-6160
▁권력	-6161
▁지니고	-6162
▁이온	-6163
비디오	-6164
판은	-6165
▁전문가	-6166
▁(200	-6167
클리	-6168
▁글로벌	-6169
▁지구의	-6170
▁이르렀다	-6171
즈를	-6172
폴리스	-6173
▁개념을	-6174
▁확산	-6175
▁받아들이	-6176
▁계속해서	-6177
▁들어갔다	-6178
어에	-6179
강을	-6180
▁추방	-6181
▁타이거	-6182
▁포항	-6183
▁화려	-6184
▁광복	-6185
▁차지하고	-6186
▁전송	-6187
우가	-6188
지마	-6189
▁고위	-6190
▁나왔	-6191
▁왕이	-6192
▁사우스	-6193
▁짜	-6194
▁사전	-6195
시장	-6196
▁장소	-6197
▁대한민국에서	-6198
느냐	-6199
▁알고리즘	-6200
▁선포	-6201
▁이른바	-6202
아나	-6203
▁속의	-6204
▁권리를	-6205
▁전쟁의	-6206
어버	-6207
펙트	-6208
▁배포	-6209
▁SS	-6210
▁바르셀로나	-6211
▁왕의	-6212
▁출전하여	-6213
타카	-6214
▁후인	-6215
ee	-6216
▁1929	-6217
문제	-6218
▁Sp	-6219
▁당시에	-6220
▁1925	-6221
▁공개되었다	-6222
▁발음	-6223
▁자이언	-6224
▁세웠	-6225
렸으며	-6226
▁이루는	-6227
▁꾸준	-6228
▁서구	-6229
▁아틀	-6230
▁사용자	-6231
먼트	-6232
스트라	-6233
▁탐사	-6234
▁아래와	-6235
▁구성된다	-6236
▁수십	-6237
▁방법은	-6238
▁밥	-6239
▁한자	-6240
했다가	-6241
▁양쪽	-6242
계약	-6243
▁(201	-6244
▁동북	-6245
▁바둑	-6246
▁사람들에게	-6247
▁에서	-6248
▁덧붙	-6249
▁단순한	-6250
가락	-6251
▁디스크	-6252
레나	-6253
▁농촌	-6254
▁이라크	-6255
▁1923	-6256
▁만다	-6257
▁롱	-6258
▁앤드	-6259
▁별도의	-6260
▁갖는다	-6261
이치	-6262
당시	-6263
▁시드	-6264
▁히로시마	-6265
속에	-6266
ath	-6267
IS	-6268
▁1921	-6269
▁미쓰	-6270
▁조선총독	-6271
▁대량	-6272
▁아버지의	-6273
영을	-6274
▁재학	-6275
되거나	-6276
▁아래에	-6277
ex	-6278
▁개방	-6279
▁내놓	-6280
등이	-6281
마뱀	-6282
방향	-6283
▁말이	-6284
활동을	-6285
▁노선을	-6286
▁소식을	-6287
목을	-6288
▁농구	-6289
▁좋지	-6290
남도의	-6291
▁조건을	-6292
▁고객	-6293
제르	-6294
▁파크	-6295
▁정교	-6296
▁가깝	-6297
▁위에서	-6298
▁내세	-6299
▁비트	-6300
▁클라	-6301
▁형식으로	-6302
▁입단하였다	-6303
▁순환	-6304
▁무대	-6305
▁직전	-6306
▁자원	-6307
등의	-6308
중한	-6309
▁대상이	-6310
▁참여한	-6311
과정	-6312
▁사퇴	-6313
관이다	-6314
▁넓이는	-6315
렬한	-6316
조차	-6317
▁없게	-6318
▁서쪽으로	-6319
부사	-6320
▁충분히	-6321
법인	-6322
▁발간	-6323
olog	-6324
주의자	-6325
▁발언	-6326
▁칠레	-6327
다란	-6328
▁최우수	-6329
▁선호	-6330
▁오페라	-6331
▁분기	-6332
▁구성하는	-6333
▁호는	-6334
▁유학	-6335
▁달하는	-6336
▁윗	-6337
▁알레	-6338
▁북아메리카	-6339
▁문제는	-6340
ier	-6341
▁영화의	-6342
▁아티스트	-6343
▁지불	-6344
OR	-6345
▁상실	-6346
▁화장	-6347
▁드래프트	-6348
▁단순히	-6349
yn	-6350
▁부문에	-6351
프라	-6352
▁아동	-6353
하시	-6354
▁뮌헨	-6355
▁출연했다	-6356
열을	-6357
ohn	-6358
▁교차	-6359
▁일은	-6360
▁일으켜	-6361
▁수소	-6362
▁등장인	-6363
즈니	-6364
▁독립을	-6365
▁1922	-6366
이닝	-6367
▁포트	-6368
▁그들을	-6369
▁동쪽으로	-6370
▁De	-6371
주군	-6372
하기를	-6373
▁경향이	-6374
▁출신이다	-6375
▁가마	-6376
▁개인의	-6377
▁장수	-6378
▁싸움	-6379
▁입고	-6380
족은	-6381
▁지향	-6382
▁최대의	-6383
▁특징을	-6384
▁몸을	-6385
분으로	-6386
▁AP	-6387
율이	-6388
lar	-6389
▁병원	-6390
원군	-6391
▁대대	-6392
▁거짓	-6393
▁추기	-6394
▁모터	-6395
▁호수	-6396
감이	-6397
▁임무를	-6398
률은	-6399
arl	-6400
▁역임하였다	-6401
▁멈	-6402
▁들면	-6403
보이	-6404
▁차단	-6405
ite	-6406
▁상태를	-6407
▁성공했다	-6408
본을	-6409
▁골드	-6410
▁명칭을	-6411
▁번호는	-6412
노스	-6413
되게	-6414
됨에	-6415
▁체육	-6416
에서부터	-6417
▁뻗	-6418
공을	-6419
▁했는데	-6420
모가	-6421
슬링	-6422
▁장르	-6423
리티	-6424
▁영구	-6425
▁코치	-6426
▁폭탄	-6427
▁유발	-6428
▁사건은	-6429
▁가까이	-6430
교는	-6431
▁벡터	-6432
▁스프링	-6433
▁손을	-6434
역에	-6435
대신	-6436
▁성직	-6437
▁1,000	-6438
름이	-6439
▁모바일	-6440
▁하나가	-6441
▁끝내	-6442
츠는	-6443
▁Re	-6444
▁메달	-6445
▁비스	-6446
▁산화	-6447
▁천안	-6448
조건	-6449
포로	-6450
▁미리	-6451
▁전투를	-6452
▁대부분을	-6453
월의	-6454
▁성경	-6455
▁재생	-6456
▁항의	-6457
▁보편	-6458
▁영화배우이다	-6459
사전	-6460
양이	-6461
아서	-6462
▁삶을	-6463
▁상호작용	-6464
▁넣어	-6465
▁연료	-6466
▁웹사이트	-6467
aw	-6468
▁클레	-6469
▁돌아온	-6470
▁사회의	-6471
▁하기도	-6472
▁격파	-6473
▁본질	-6474
▁재임	-6475
▁도쿠가와	-6476
▁사람들	-6477
▁크로아티아	-6478
프와	-6479
▁오카	-6480
유가	-6481
▁겉	-6482
▁순위	-6483
우를	-6484
▁인도의	-6485
▁카라	-6486
서와	-6487
▁벨라	-6488
▁일으켰다	-6489
▁46	-6490
▁그리하여	-6491
았으나	-6492
▁44	-6493
▁모토	-6494
▁County	-6495
비트	-6496
▁흑인	-6497
발을	-6498
▁드물	-6499
▁기반을	-6500
프란	-6501
형에	-6502
기구	-6503
▁기병	-6504
▁DVD	-6505
▁170	-6506
▁유배	-6507
인조	-6508
▁근로	-6509
▁이재	-6510
▁우수	-6511
▁이상을	-6512
(3	-6513
MA	-6514
게이	-6515
왕을	-6516
▁47	-6517
▁수컷	-6518
▁원인이	-6519
▁사건으로	-6520
▁철거	-6521
▁업무를	-6522
무장	-6523
▁배경으로	-6524
비히	-6525
▁올스타	-6526
양의	-6527
▁집에	-6528
▁이벤	-6529
▁한일	-6530
▁일종의	-6531
▁마드리드	-6532
종합	-6533
▁웨일	-6534
▁왕조의	-6535
▁걸친	-6536
중인	-6537
▁아메리칸	-6538
▁쌀	-6539
▁세우	-6540
▁정부에	-6541
▁본격적으로	-6542
▁랑	-6543
-10	-6544
▁자라	-6545
공간	-6546
로써	-6547
슬라	-6548
▁시작했고	-6549
▁북미	-6550
▁블록	-6551
▁사랑을	-6552
▁수술	-6553
하여야	-6554
▁구멍	-6555
▁이외의	-6556
▁있으므로	-6557
▁가설	-6558
▁탄압	-6559
▁드라마이다	-6560
신문	-6561
해에	-6562
▁팔레	-6563
바의	-6564
▁성남	-6565
▁1926	-6566
▁텐	-6567
전자	-6568
▁도쿄도	-6569
▁가난	-6570
▁기본적으로	-6571
호에	-6572
▁강릉	-6573
▁웃	-6574
스포	-6575
▁동성애	-6576
재가	-6577
▁속도	-6578
▁스탈	-6579
▁재능	-6580
▁판타	-6581
▁호흡	-6582
▁인기가	-6583
▁보여주는	-6584
▁쾌	-6585
▁보이지	-6586
▁그녀가	-6587
▁오키	-6588
▁앞으로	-6589
▁신고	-6590
▁체제	-6591
▁환승	-6592
▁대표로	-6593
▁마음을	-6594
크래프트	-6595
결승	-6596
마가	-6597
본부	-6598
▁갈색	-6599
유를	-6600
테이	-6601
크와	-6602
▁싱어	-6603
였는데	-6604
프가니스탄	-6605
MS	-6606
ED	-6607
▁곱	-6608
같이	-6609
ile	-6610
▁포함되었다	-6611
슬로	-6612
▁돌파	-6613
▁자가	-6614
▁향토	-6615
▁나라의	-6616
▁입단했다	-6617
집을	-6618
▁1927	-6619
미술	-6620
▁고종	-6621
▁십자	-6622
▁용어는	-6623
▁획득했다	-6624
▁멀티	-6625
▁기여했다	-6626
▁짝	-6627
실로	-6628
%),	-6629
▁식품	-6630
호와	-6631
▁마틴	-6632
▁콘텐츠	-6633
치기	-6634
▁명으로	-6635
▁밝은	-6636
▁지중	-6637
▁비판을	-6638
▁41	-6639
▁인천광역시	-6640
▁위대한	-6641
▁보냈	-6642
▁배급	-6643
▁핸	-6644
하를	-6645
▁1917	-6646
▁43	-6647
▁대장	-6648
▁마주	-6649
▁칼리	-6650
(17	-6651
키퍼	-6652
▁공장	-6653
▁보험	-6654
▁힙합	-6655
해군	-6656
▁교류	-6657
학은	-6658
▁스타디움	-6659
ick	-6660
▁세부	-6661
▁시정	-6662
로서는	-6663
▁랩	-6664
▁본다	-6665
▁줄어들	-6666
▁서서	-6667
▁주에	-6668
▁낸	-6669
▁덩	-6670
▁며	-6671
▁탓	-6672
▁입법	-6673
리코	-6674
파이	-6675
▁주장하는	-6676
기인	-6677
▁대법	-6678
하기에	-6679
인인	-6680
지면	-6681
▁방언	-6682
▁이명	-6683
,0	-6684
▁콜롬	-6685
▁파키스탄	-6686
ound	-6687
▁결의	-6688
▁메탈	-6689
▁잠재	-6690
▁이외에도	-6691
스팅	-6692
▁개척	-6693
▁그럼	-6694
▁일상	-6695
▁바이러스	-6696
왕후	-6697
용을	-6698
▁옵	-6699
▁되기	-6700
기지	-6701
▁초청	-6702
▁1912	-6703
are	-6704
▁중추	-6705
▁태양의	-6706
환을	-6707
▁고급	-6708
▁입장	-6709
▁차트에서	-6710
힌다	-6711
ung	-6712
▁개국	-6713
▁검색	-6714
▁하여금	-6715
▁가속	-6716
▁크루	-6717
▁이용할	-6718
공신	-6719
▁알리	-6720
제도	-6721
우라	-6722
▁CP	-6723
▁지칭	-6724
▁노동자	-6725
▁닌텐	-6726
▁카자	-6727
체이다	-6728
▁홋카이도	-6729
란색	-6730
너스	-6731
▁가상	-6732
▁신화	-6733
▁전화	-6734
▁처음에	-6735
▁Love	-6736
▁틈	-6737
▁대다	-6738
▁매장	-6739
단에서	-6740
▁교회의	-6741
▁모험	-6742
old	-6743
▁유통	-6744
▁1907	-6745
▁싱가포르	-6746
▁참고	-6747
▁발생하였다	-6748
▁단어	-6749
▁열었다	-6750
▁제도를	-6751
yst	-6752
▁생태	-6753
▁안토니	-6754
▁함경	-6755
▁루마니아	-6756
▁인터뷰에서	-6757
▁소프트웨	-6758
▁우리는	-6759
▁개명	-6760
▁유전자	-6761
슨이	-6762
베리	-6763
산과	-6764
▁1.	-6765
▁사항	-6766
학교를	-6767
크스	-6768
▁다큐	-6769
▁비공	-6770
▁안동	-6771
로에	-6772
파와	-6773
▁경기가	-6774
▁발표되었다	-6775
▁입은	-6776
드리아	-6777
가능	-6778
▁위치에	-6779
목에	-6780
▁강요	-6781
▁EP	-6782
▁작품의	-6783
▁발생한다	-6784
▁아버지가	-6785
▁리그의	-6786
▁수준의	-6787
59	-6788
▁제네	-6789
럼비아	-6790
▁오다	-6791
씨를	-6792
▁약칭	-6793
▁주된	-6794
▁사건의	-6795
▁사가	-6796
▁탄핵	-6797
▁살아남	-6798
▁데이터를	-6799
▁입력	-6800
▁발매한	-6801
트랙	-6802
ish	-6803
VP	-6804
▁지리	-6805
▁전동차	-6806
▁권리	-6807
▁골키퍼	-6808
▁대동	-6809
▁질량	-6810
▁중학교이다	-6811
다시	-6812
▁이익	-6813
▁행복	-6814
▁부르고	-6815
▁오케	-6816
▁원시	-6817
53	-6818
무네	-6819
미아	-6820
▁젠	-6821
다리	-6822
▁몬테	-6823
▁보물	-6824
▁꼬리	-6825
▁그라	-6826
▁자랑	-6827
▁진학	-6828
민의	-6829
환경	-6830
ime	-6831
차의	-6832
▁혼자	-6833
▁공주	-6834
율은	-6835
화하는	-6836
▁영토를	-6837
▁미국으로	-6838
▁놓여	-6839
▁말로	-6840
▁적극적으로	-6841
▁HD	-6842
특별자치	-6843
▁상대식	-6844
▁쓰러	-6845
▁편의	-6846
▁수를	-6847
▁하인	-6848
az	-6849
층에	-6850
▁일원	-6851
되었기	-6852
자이자	-6853
▁이즈	-6854
▁변호사	-6855
ps	-6856
역과	-6857
▁집필	-6858
▁실천	-6859
▁토착	-6860
▁열리는	-6861
▁뼈	-6862
▁140	-6863
▁펑	-6864
▁신도	-6865
▁운송	-6866
▁현존	-6867
▁아프가니스탄	-6868
등급	-6869
브로	-6870
▁소득	-6871
▁최근에는	-6872
▁사막	-6873
▁이어서	-6874
▁마감	-6875
56	-6876
▁주변의	-6877
▁원래는	-6878
▁베어	-6879
▁예방	-6880
▁올해의	-6881
ox	-6882
신경	-6883
▁자금	-6884
▁담고	-6885
▁부동	-6886
▁건물은	-6887
▁끝으로	-6888
▁Bl	-6889
▁Sc	-6890
▁촉진	-6891
▁나뉘어	-6892
▁특별히	-6893
odice	-6894
OM	-6895
▁화가	-6896
▁도움이	-6897
▁엘리자	-6898
▁방송된	-6899
러는	-6900
체인	-6901
▁첫째	-6902
▁영향으로	-6903
침을	-6904
▁매주	-6905
▁명시	-6906
▁오리지	-6907
▁몸길	-6908
▁레이블	-6909
▁이어졌다	-6910
▁전작	-6911
▁대학교의	-6912
▁갖게	-6913
라이터	-6914
▁영화를	-6915
▁정식으로	-6916
▁남녀	-6917
그래	-6918
▁주력	-6919
▁보스턴	-6920
ork	-6921
▁자매	-6922
▁뚜렷	-6923
▁심지어	-6924
▁감독은	-6925
미사	-6926
▁메모리	-6927
▁음반을	-6928
▁강남	-6929
▁부드	-6930
▁유대인	-6931
att	-6932
▁거느	-6933
▁서명	-6934
와이	-6935
▁위상	-6936
하라는	-6937
타가	-6938
▁할아버	-6939
지니아	-6940
▁치렀다	-6941
▁수호	-6942
▁불가리아	-6943
TA	-6944
▁US	-6945
▁타격	-6946
▁소집	-6947
▁용인	-6948
▁요코하마	-6949
조참	-6950
▁오는	-6951
▁섹	-6952
▁주재	-6953
▁죽음을	-6954
▁후보가	-6955
▁한성	-6956
▁내가	-6957
▁대학의	-6958
클레	-6959
▁파트너	-6960
58	-6961
치오	-6962
▁로렌	-6963
▁물려	-6964
▁발표된	-6965
스피	-6966
일리	-6967
▁감시	-6968
▁중성	-6969
▁600	-6970
▁1908	-6971
▁프로그래밍	-6972
중을	-6973
▁청구	-6974
▁않았지만	-6975
안전	-6976
학에	-6977
로미터	-6978
▁구성원	-6979
54	-6980
인가	-6981
▁서기	-6982
▁실업	-6983
▁약탈	-6984
▁유적	-6985
▁강하게	-6986
보다도	-6987
▁유나이티드	-6988
ey	-6989
릭스	-6990
령의	-6991
▁유튜브	-6992
▁소속의	-6993
▁초기에는	-6994
라면	-6995
절을	-6996
▁관객	-6997
▁동반	-6998
▁소규모	-6999
브레	-7000
▁인상	-7001
))	-7002
▁유력	-7003
▁닉	-7004
통합	-7005
▁복음	-7006
니스트	-7007
▁1905	-7008
▁""	-7009
▁그러므로	-7010
▁압도	-7011
계와	-7012
년까지는	-7013
▁싸우	-7014
우스는	-7015
▁벼슬	-7016
▁호주	-7017
식에서	-7018
▁사건에	-7019
대장	-7020
▁착용	-7021
로지	-7022
_4	-7023
▁론	-7024
▁크라	-7025
당으로	-7026
▁목숨	-7027
▁우리가	-7028
지방선거	-7029
나르	-7030
물과	-7031
▁주제	-7032
▁맨체스터	-7033
티스	-7034
▁집을	-7035
▁도시는	-7036
▁발렌	-7037
▁번주	-7038
▁퀘	-7039
머리	-7040
▁정확히	-7041
▁풋	-7042
▁개량	-7043
▁백성	-7044
나마	-7045
▁개찰	-7046
목으로	-7047
▁이적하였다	-7048
▁소스	-7049
시스트	-7050
▁진격	-7051
▁맺었다	-7052
▁어두	-7053
▁면역	-7054
▁산하	-7055
▁청주	-7056
스테이션	-7057
▁안내	-7058
았지만	-7059
▁반대하는	-7060
▁뛰고	-7061
사이드	-7062
디는	-7063
▁후퇴	-7064
시스템	-7065
▁정치인	-7066
▁가치를	-7067
▁이론을	-7068
▁공원	-7069
각형	-7070
국과	-7071
▁않기	-7072
▁공기	-7073
▁훌륭	-7074
,7	-7075
예를	-7076
▁사도	-7077
▁신의	-7078
후에	-7079
▁소요	-7080
작으로	-7081
▁스톤	-7082
▁만들기	-7083
▁상황에	-7084
토벤	-7085
▁소리	-7086
베이스	-7087
▁Sch	-7088
▁세계대전	-7089
▁군대	-7090
▁막기	-7091
▁또다른	-7092
▁기도	-7093
▁축소	-7094
▁포함된	-7095
현은	-7096
토는	-7097
▁새벽	-7098
▁시모	-7099
하르트	-7100
▁방송을	-7101
▁부르기도	-7102
판에	-7103
▁많았다	-7104
카는	-7105
▁붙어	-7106
▁새끼	-7107
▁필립	-7108
▁미국인	-7109
대문	-7110
연구소	-7111
▁다이묘	-7112
▁그렇다면	-7113
리브	-7114
▁남극	-7115
▁위키	-7116
▁적응	-7117
▁관계에	-7118
▁가고	-7119
▁연안	-7120
▁소화	-7121
▁코믹	-7122
▁투어	-7123
편의	-7124
▁감정	-7125
▁원인	-7126
int	-7127
▁폭력	-7128
바키아	-7129
▁종이	-7130
▁1906	-7131
SP	-7132
▁일단	-7133
▁올라가	-7134
토미	-7135
▁열매	-7136
수도	-7137
▁개장	-7138
▁대화	-7139
▁트라	-7140
모의	-7141
치와	-7142
실에서	-7143
land	-7144
und	-7145
▁문신	-7146
▁오이	-7147
▁말라	-7148
▁밀라노	-7149
▁정통	-7150
57	-7151
결을	-7152
▁관계는	-7153
▁적어도	-7154
▁조선민주주의인민공화국의	-7155
필드	-7156
▁맺고	-7157
심이	-7158
▁대변	-7159
▁전형적인	-7160
▁아리	-7161
▁역에서	-7162
▁딜	-7163
고리	-7164
행이	-7165
▁상주	-7166
▁부속	-7167
▁보르	-7168
▁후에도	-7169
배를	-7170
ium	-7171
▁그만	-7172
▁주니어	-7173
▁부담	-7174
▁사찰	-7175
▁(18	-7176
▁콘스탄티노	-7177
구조	-7178
름은	-7179
▁필라	-7180
▁리드	-7181
니와	-7182
올린	-7183
훈련	-7184
pt	-7185
▁수도권	-7186
▁전체를	-7187
한다면	-7188
▁영향력을	-7189
밀한	-7190
▁발휘	-7191
▁우에	-7192
▁상태가	-7193
▁역사가	-7194
▁게르	-7195
▁구사	-7196
▁오리지널	-7197
▁조선시대의	-7198
드르	-7199
용의	-7200
▁의도	-7201
▁살았다	-7202
▁가끔	-7203
▁이수	-7204
렀고	-7205
▁공산당	-7206
▁비틀	-7207
▁허락	-7208
군에게	-7209
▁그리스의	-7210
ase	-7211
▁주거	-7212
▁재즈	-7213
▁집안	-7214
ool	-7215
▁관해	-7216
았는데	-7217
마에	-7218
▁이끌어	-7219
▁황제의	-7220
▁리그에서	-7221
금은	-7222
님의	-7223
보험	-7224
이면	-7225
곡은	-7226
▁증언	-7227
▁실내	-7228
▁회사의	-7229
▁곤충	-7230
건의	-7231
▁아르메	-7232
▁코너	-7233
▁파생	-7234
▁유용	-7235
▁결승전	-7236
▁홈런을	-7237
슬라비아	-7238
하에서	-7239
▁없지만	-7240
보로	-7241
까지도	-7242
▁허가	-7243
▁콘서트	-7244
▁다음으로	-7245
▁평론	-7246
▁사이트	-7247
▁셔	-7248
▁연구는	-7249
▁꺼	-7250
▁800	-7251
▁말해	-7252
▁차지한다	-7253
▁일본은	-7254
▁전국동시	-7255
▁닮	-7256
아웃	-7257
군에서	-7258
▁구로	-7259
▁영양	-7260
au	-7261
적이며	-7262
▁맞추	-7263
▁마법	-7264
▁베네치아	-7265
모델	-7266
유한	-7267
▁행위를	-7268
(18	-7269
▁삽입	-7270
▁뜻이다	-7271
국인	-7272
▁데려	-7273
▁전국동시지방선거	-7274
향을	-7275
▁백제	-7276
폴리	-7277
▁심장	-7278
▁이념	-7279
▁나타난	-7280
▁Con	-7281
▁스크린	-7282
▁준결승	-7283
▁커다란	-7284
▁논리	-7285
▁하던	-7286
관계를	-7287
▁바이러	-7288
▁재료	-7289
▁on	-7290
▁교사	-7291
▁적도	-7292
▁원하는	-7293
▁패턴	-7294
▁아이스	-7295
운동을	-7296
▁고안	-7297
500	-7298
▁KT	-7299
▁예외	-7300
▁다큐멘	-7301
▁이은	-7302
▁클리	-7303
갔고	-7304
▁베른	-7305
교도	-7306
▁메트로	-7307
됐고	-7308
살이	-7309
▁무릎	-7310
▁든	-7311
플로	-7312
▁의견을	-7313
▁고고	-7314
▁단층	-7315
▁웨이	-7316
▁미국에	-7317
비행	-7318
기이다	-7319
말로	-7320
모는	-7321
▁미나	-7322
▁좁은	-7323
▁("	-7324
차에	-7325
▁과도	-7326
▁도메	-7327
▁혼인	-7328
받침	-7329
▁클로	-7330
코프	-7331
▁마그	-7332
ram	-7333
▁재위	-7334
▁손에	-7335
▁지었다	-7336
카르	-7337
▁땅을	-7338
▁발전을	-7339
CC	-7340
▁트럼	-7341
세기의	-7342
▁센트	-7343
래의	-7344
▁시게	-7345
주의와	-7346
▁남겨	-7347
대상	-7348
▁북극	-7349
졌던	-7350
▁부탁	-7351
▁선조	-7352
▁영혼	-7353
▁다루는	-7354
▁형성된	-7355
류에	-7356
투표	-7357
▁감옥	-7358
▁그럼에도	-7359
▁군사를	-7360
sc	-7361
카미	-7362
▁타워	-7363
▁극복	-7364
▁연평균	-7365
▁이미지	-7366
▁강수	-7367
▁일으킨	-7368
버드	-7369
▁대칭	-7370
▁모습이	-7371
▁주목을	-7372
▁수직	-7373
호선의	-7374
애나	-7375
ica	-7376
▁감각	-7377
▁야스	-7378
▁시절에	-7379
▁자체가	-7380
▁MS	-7381
▁매니	-7382
▁법적	-7383
▁나이에	-7384
비와	-7385
▁석사	-7386
지구	-7387
경기에서	-7388
▁그들	-7389
▁밴드의	-7390
▁명칭으로	-7391
▁130	-7392
하면서도	-7393
청은	-7394
▁행정구	-7395
▁접속	-7396
▁49	-7397
▁그녀를	-7398
▁동일본	-7399
▁스웨덴의	-7400
▁잡고	-7401
▁국경을	-7402
▁늑	-7403
우스의	-7404
당하고	-7405
▁본선에	-7406
▁설립한	-7407
▁없었고	-7408
▁서방	-7409
오로	-7410
이게	-7411
▁에너지를	-7412
▁플로리다	-7413
▁지나지	-7414
사우루스	-7415
Hz	-7416
되던	-7417
-15	-7418
▁레코드	-7419
주년	-7420
▁나고야	-7421
점과	-7422
▁지자	-7423
▁세계를	-7424
보통	-7425
학회	-7426
▁동굴	-7427
▁몸무	-7428
중의	-7429
▁성과를	-7430
▁남아메리카	-7431
ix	-7432
▁당나라	-7433
▁지역이	-7434
▁플루	-7435
쳤고	-7436
▁정수	-7437
주의는	-7438
▁참가하였다	-7439
▁일곱	-7440
▁상태에	-7441
▁양산	-7442
▁음성	-7443
rist	-7444
▁레벨	-7445
▁유키	-7446
IT	-7447
니에	-7448
▁모임	-7449
중이다	-7450
▁본명은	-7451
▁아케	-7452
▁HIV	-7453
▁의정부	-7454
▁콜롬비아	-7455
▁갱	-7456
률이	-7457
▁르네	-7458
▁모음	-7459
▁해협	-7460
▁기능이	-7461
ron	-7462
▁소형	-7463
▁승부	-7464
▁특허	-7465
▁쏘	-7466
▁싫	-7467
▁기구	-7468
▁파티	-7469
▁때마다	-7470
▁보이고	-7471
▁철저	-7472
▁클라우	-7473
▁이르기까지	-7474
▁마스터	-7475
자였다	-7476
▁시조	-7477
3)	-7478
면과	-7479
▁콜로	-7480
병원	-7481
오고	-7482
카드	-7483
프스	-7484
▁거리를	-7485
재위	-7486
▁수백	-7487
▁중국에서	-7488
▁경남	-7489
▁규슈	-7490
▁재산	-7491
▁담은	-7492
▁본토	-7493
령으로	-7494
▁국가가	-7495
▁|	-7496
판의	-7497
ous	-7498
▁레인	-7499
▁지원하는	-7500
▁생애	-7501
노미야	-7502
권과	-7503
▁구원	-7504
▁거리에	-7505
(6	-7506
가수	-7507
▁동시	-7508
▁그려져	-7509
▁codice	-7510
▁SF	-7511
▁탑승	-7512
대사	-7513
▁기부	-7514
▁비정	-7515
▁성격을	-7516
률을	-7517
▁받으며	-7518
▁맞춰	-7519
▁51	-7520
문이다	-7521
▁폐지되었다	-7522
OC	-7523
▁중에서도	-7524
이라며	-7525
졌으나	-7526
▁삼았다	-7527
▁제후	-7528
▁드래곤	-7529
▁사람이다	-7530
소수	-7531
프란시스코	-7532
▁하우스	-7533
▁영원	-7534
▁힘들	-7535
51	-7536
발전	-7537
▁광역	-7538
▁쇠퇴	-7539
▁되기도	-7540
,6	-7541
▁오늘날의	-7542
호쿠	-7543
▁기동	-7544
▁세리에	-7545
▁크기가	-7546
이즈	-7547
▁석방	-7548
▁해설	-7549
▁사이를	-7550
▁앨범을	-7551
▁강을	-7552
레이드	-7553
▁서쪽으로는	-7554
작가	-7555
청년	-7556
▁54	-7557
▁발명	-7558
르키	-7559
족을	-7560
▁상하	-7561
속의	-7562
되었다는	-7563
함은	-7564
▁기하	-7565
▁다녔	-7566
▁1/	-7567
▁고리	-7568
▁결과로	-7569
▁커뮤니티	-7570
▁빨간	-7571
▁토너	-7572
▁있어야	-7573
▁독점	-7574
▁수반	-7575
▁와서	-7576
자이너	-7577
▁김대중	-7578
▁싱어송	-7579
▁미나미	-7580
▁페이스	-7581
▁현상을	-7582
▁곳은	-7583
▁라는	-7584
▁탄소	-7585
석으로	-7586
▁노선은	-7587
당에서	-7588
문과	-7589
▁교수로	-7590
▁유고슬라비아	-7591
▁비롯해	-7592
사랑	-7593
▁OS	-7594
▁람	-7595
도니아	-7596
▁주변에	-7597
유로	-7598
▁유입	-7599
훼손	-7600
▁앱	-7601
▁남쪽으로는	-7602
▁레지	-7603
▁음악가	-7604
▁익스	-7605
▁들었다	-7606
▁동쪽으로는	-7607
▁무관	-7608
성에서	-7609
▁베토벤	-7610
레는	-7611
hy	-7612
▁적절한	-7613
▁스트라이	-7614
▁참가하여	-7615
▁이정	-7616
▁52	-7617
▁넘겨	-7618
▁지바	-7619
ET	-7620
나게	-7621
본은	-7622
▁56	-7623
▁풍부한	-7624
센트	-7625
▁순서	-7626
졌지만	-7627
▁세력이	-7628
▁의미가	-7629
▁권한을	-7630
개는	-7631
의가	-7632
▁브레이	-7633
▁돌아왔다	-7634
마저	-7635
▁Man	-7636
체에서	-7637
▁국정	-7638
▁인물로	-7639
▁1904	-7640
▁비례대표	-7641
▁스마트폰	-7642
▁끈	-7643
▁입사	-7644
이라면	-7645
▁세워진	-7646
▁지역에서는	-7647
▁캡	-7648
계열	-7649
오리	-7650
▁운반	-7651
▁파울	-7652
▁운동에	-7653
▁부상으로	-7654
▁했	-7655
▁감사	-7656
▁책은	-7657
▁트위	-7658
▁기본적인	-7659
▁블라디	-7660
▁포유	-7661
▁유럽에서	-7662
▁전술	-7663
▁라이프	-7664
oll	-7665
▁삭제	-7666
데이트	-7667
▁음반의	-7668
▁압축	-7669
▁순수	-7670
▁차지하였다	-7671
orn	-7672
▁무산	-7673
▁전북	-7674
▁뱀	-7675
▁아울	-7676
▁도시를	-7677
▁먹는다	-7678
▁뮤직비디오	-7679
개국	-7680
보기	-7681
다이라	-7682
▁졸업했다	-7683
▁단행	-7684
▁110	-7685
ism	-7686
▁지대	-7687
▁당사	-7688
▁예산	-7689
▁3.1	-7690
▁공무원	-7691
즈와	-7692
▁죽자	-7693
▁퓨	-7694
▁크로스	-7695
▁효과가	-7696
바흐	-7697
▁거대	-7698
▁급격	-7699
▁결승전에서	-7700
▁수감	-7701
▁납치	-7702
▁이행	-7703
▁공간을	-7704
바다	-7705
ve	-7706
▁그랑	-7707
▁코스	-7708
▁뤼	-7709
▁탐험	-7710
pr	-7711
마쓰	-7712
▁Pr	-7713
▁놀라	-7714
상이다	-7715
▁덕분에	-7716
▁마치고	-7717
▁빅토리아	-7718
▁차지하는	-7719
노의	-7720
트롤	-7721
▁실제로는	-7722
AP	-7723
▁사촌	-7724
▁되었는데	-7725
타와	-7726
▁AC	-7727
▁가시	-7728
자들과	-7729
▁반면에	-7730
▁대해서도	-7731
▁거둔	-7732
▁고통	-7733
▁게임은	-7734
▁배열	-7735
▁중시	-7736
▁꾸준히	-7737
▁이하의	-7738
▁수록되어	-7739
클린	-7740
▁가쓰	-7741
▁되찾	-7742
▁리듬	-7743
시즌을	-7744
▁토벌	-7745
TC	-7746
자였던	-7747
▁이날	-7748
▁아무런	-7749
▁정도이다	-7750
▁변화가	-7751
▁빗	-7752
▁추적	-7753
▁주식회사	-7754
▁엔터테인먼트	-7755
우에	-7756
▁싱어송라이터	-7757
▁주요한	-7758
청의	-7759
고에	-7760
▁WW	-7761
▁지질	-7762
▁장례	-7763
돌프	-7764
법과	-7765
▁찬성	-7766
▁영감을	-7767
▁중립	-7768
▁휴대	-7769
▁기타리스트	-7770
▁?)	-7771
▁대원	-7772
▁보이며	-7773
▁툴	-7774
▁흰색	-7775
에게도	-7776
▁이었다	-7777
▁케이블	-7778
▁결정했다	-7779
▁독재	-7780
▁스릴	-7781
▁초래	-7782
▁패러	-7783
▁사용하지	-7784
▁모로	-7785
▁입증	-7786
노는	-7787
년만에	-7788
▁플레	-7789
▁자신은	-7790
현재의	-7791
반의	-7792
즈키	-7793
▁등장한	-7794
▁아래의	-7795
▁심사	-7796
나를	-7797
▁수밖에	-7798
(4	-7799
원숭	-7800
토가	-7801
▁상영	-7802
▁BBC	-7803
▁없었던	-7804
리케이션	-7805
▁쿼	-7806
▁내는	-7807
▁생기	-7808
▁화폐	-7809
▁정이다	-7810
▁샌프란시스코	-7811
마루	-7812
▁사로	-7813
▁현대의	-7814
▁건담	-7815
▁계층	-7816
▁매각	-7817
▁이어져	-7818
보의	-7819
▁방위	-7820
▁도중에	-7821
▁명성을	-7822
▁영국과	-7823
▁두드	-7824
▁브로	-7825
▁하사	-7826
▁상황이	-7827
▁특성을	-7828
▁모양으로	-7829
▁발생했다	-7830
▁앨런	-7831
치며	-7832
▁옮겼다	-7833
▁셋째	-7834
▁창간	-7835
▁인류	-7836
▁정부를	-7837
란다	-7838
▁겨우	-7839
▁북쪽으로는	-7840
▁JR	-7841
▁소리를	-7842
▁추락	-7843
졌는데	-7844
펙트럼	-7845
▁종교적	-7846
연의	-7847
오와	-7848
▁퀴	-7849
▁게시	-7850
▁크기는	-7851
co	-7852
실에	-7853
집합	-7854
ign	-7855
ina	-7856
▁불리며	-7857
▁약간의	-7858
기능	-7859
▁y	-7860
▁경유	-7861
▁추산으로	-7862
▁가미	-7863
▁테오	-7864
▁그랜드	-7865
?"	-7866
▁띤	-7867
▁망원	-7868
생산	-7869
▁경전	-7870
▁밀접	-7871
였다고	-7872
이었는데	-7873
▁카메라	-7874
▁학사	-7875
▁대서양	-7876
근혜	-7877
▁세월	-7878
▁유아	-7879
▁크기의	-7880
야는	-7881
▁그중	-7882
▁대학에서	-7883
▁고가	-7884
▁정류	-7885
▁My	-7886
▁하느	-7887
▁1911	-7888
▁리눅	-7889
▁왕립	-7890
▁이종	-7891
슬림	-7892
▁들여	-7893
▁예로	-7894
▁인증	-7895
▁않았으며	-7896
내의	-7897
총리	-7898
해지고	-7899
▁돔	-7900
령은	-7901
정도	-7902
▁긴급	-7903
▁노래이다	-7904
▁안드로이드	-7905
리온	-7906
▁먹는	-7907
▁문화적	-7908
졌을	-7909
카스	-7910
현을	-7911
▁등도	-7912
▁모노	-7913
▁혁신	-7914
▁졸업한	-7915
▁알렉산더	-7916
▁무리	-7917
▁운항	-7918
오가	-7919
해는	-7920
▁때문이었다	-7921
끼리	-7922
▁곧바로	-7923
▁목포	-7924
▁역의	-7925
▁생각을	-7926
ance	-7927
▁집에서	-7928
▁전망	-7929
▁Mar	-7930
▁개발을	-7931
▁락	-7932
▁공정	-7933
▁사람으로	-7934
터와	-7935
▁결심	-7936
▁대의	-7937
▁러브	-7938
▁선형	-7939
▁못하게	-7940
건설	-7941
▁가능성을	-7942
▁제공하고	-7943
천의	-7944
▁대선	-7945
▁한반도	-7946
▁필요로	-7947
▁최상	-7948
▁입었다	-7949
▁크림	-7950
▁넥	-7951
루살	-7952
▁트라이	-7953
▁전해진다	-7954
▁첩	-7955
"()	-7956
▁동경	-7957
▁일본인	-7958
▁뚫	-7959
러리	-7960
▁타입	-7961
페이지	-7962
관광	-7963
▁안양	-7964
▁모듈	-7965
▁모래	-7966
▁일어난다	-7967
▁걸려	-7968
▁우라	-7969
▁과학자	-7970
▁바람에	-7971
▁성과	-7972
▁길이가	-7973
▁지연	-7974
▁방법이	-7975
ll	-7976
▁외계	-7977
나고	-7978
주의에	-7979
제품	-7980
▁동영	-7981
▁소위	-7982
▁걷	-7983
스톤	-7984
자나	-7985
▁이세	-7986
▁진출에	-7987
든지	-7988
▁이용하는	-7989
너는	-7990
닉스	-7991
▁동아시아	-7992
▁일환으로	-7993
▁SN	-7994
▁은퇴한	-7995
ES	-7996
▁사다	-7997
▁일대	-7998
▁지표	-7999
▁디자이너	-8000
▁프랑스는	-8001
미국	-8002
ala	-8003
▁수익	-8004
▁1896	-8005
공학	-8006
북도의	-8007
▁칙	-8008
▁병력을	-8009
▁시간에	-8010
▁딴	-8011
▁붙잡	-8012
병으로	-8013
▁정권을	-8014
52	-8015
피를	-8016
▁Le	-8017
▁아웃	-8018
▁관심이	-8019
▁딱	-8020
디스	-8021
▁산악	-8022
▁쿠바	-8023
▁방향을	-8024
▁연락	-8025
▁자세	-8026
▁대회는	-8027
▁세우고	-8028
▁중지	-8029
합니다	-8030
▁거친	-8031
탄을	-8032
▁창당	-8033
▁에스토	-8034
▁에스파	-8035
마리	-8036
▁폭격	-8037
루살렘	-8038
▁실시된	-8039
▁나이트	-8040
▁업데이트	-8041
▁SC	-8042
▁신분	-8043
류로	-8044
플러	-8045
▁습격	-8046
▁유닛	-8047
▁판타지	-8048
▁교향곡	-8049
▁역사는	-8050
AD	-8051
▁밸	-8052
▁공룡	-8053
▁예전	-8054
직에서	-8055
▁서북	-8056
▁있다가	-8057
▁부분에	-8058
▁지원한다	-8059
,3	-8060
고자	-8061
▁김해	-8062
▁살펴	-8063
▁빌딩	-8064
▁총선에서	-8065
▁시달	-8066
▁중동	-8067
▁스릴러	-8068
▁유니버	-8069
▁세계에	-8070
▁공식적인	-8071
성도	-8072
▁노무	-8073
▁색깔	-8074
▁조기	-8075
▁의미로	-8076
▁굽	-8077
▁오염	-8078
▁임신	-8079
▁않았던	-8080
▁작품이	-8081
▁Te	-8082
▁얻게	-8083
▁연설	-8084
긴다	-8085
▁관련하여	-8086
때로	-8087
iel	-8088
▁대구광역시	-8089
▁대조	-8090
▁리가	-8091
▁규모가	-8092
▁고립	-8093
▁분포한다	-8094
문으로	-8095
▁모델로	-8096
▁상의	-8097
▁시스템은	-8098
중이	-8099
▁초상	-8100
▁못한다	-8101
▁실수	-8102
▁요미	-8103
▁밖으로	-8104
▁보여주었다	-8105
▁만난	-8106
▁성질	-8107
▁합동	-8108
▁노선이	-8109
메르	-8110
ru	-8111
▁압박	-8112
▁테마	-8113
▁눈을	-8114
▁전남	-8115
▁오디션	-8116
실한	-8117
▁추대	-8118
생활을	-8119
▁열차는	-8120
▁추가되었다	-8121
즈카	-8122
▁뷰	-8123
ree	-8124
▁홀로	-8125
▁고양이	-8126
▁회색	-8127
▁흐르는	-8128
▁대회이다	-8129
▁별로	-8130
▁영광	-8131
유산	-8132
▁서울시	-8133
▁토마스	-8134
션을	-8135
▁부처	-8136
▁들어간	-8137
▁믹	-8138
들인	-8139
▁단선	-8140
▁물이	-8141
▁1909	-8142
케이팅	-8143
▁사진을	-8144
▁스펙트럼	-8145
▁이루어진다	-8146
하겠다고	-8147
▁플레이스테이션	-8148
단계	-8149
족과	-8150
▁테크	-8151
스티벌	-8152
기서	-8153
▁마카	-8154
▁아우구	-8155
▁클래식	-8156
▁벗어	-8157
된다는	-8158
널드	-8159
▁갤럭	-8160
▁곳을	-8161
▁대회를	-8162
▁것이고	-8163
꼬리	-8164
▁뒤로	-8165
식이다	-8166
중심	-8167
▁진술	-8168
▁초점을	-8169
▁모습으로	-8170
▁삼아	-8171
▁옹호	-8172
▁청동	-8173
▁브라질의	-8174
보병	-8175
앨범	-8176
▁모르	-8177
▁올린	-8178
▁라이벌	-8179
▁윤치	-8180
론적	-8181
own	-8182
.5%	-8183
▁깊이	-8184
▁유인	-8185
위원회가	-8186
▁전염	-8187
▁제조업	-8188
.25	-8189
▁사형	-8190
▁황태	-8191
루미	-8192
▁간섭	-8193
시대에	-8194
ley	-8195
▁입대	-8196
▁친선	-8197
▁못했고	-8198
전투	-8199
▁Cl	-8200
▁전의	-8201
▁결과는	-8202
연한	-8203
▁아나운	-8204
AS	-8205
둥이	-8206
▁Ex	-8207
▁히가시	-8208
▁영주	-8209
▁퍼져	-8210
▁엔진을	-8211
▁경험을	-8212
르바	-8213
▁참모	-8214
▁캘리포니아주	-8215
▁주말	-8216
▁두려워	-8217
▁향년	-8218
포스	-8219
▁섬식	-8220
클라	-8221
▁전한	-8222
▁문화를	-8223
▁World	-8224
▁성공적으로	-8225
▁막을	-8226
▁과거에	-8227
~3	-8228
여래	-8229
▁Wh	-8230
나라는	-8231
위에서	-8232
보가	-8233
▁체험	-8234
▁작전을	-8235
화학	-8236
▁하다가	-8237
▁냈다	-8238
▁변신	-8239
▁죽고	-8240
론과	-8241
▁남양	-8242
▁되었다고	-8243
▁설치되었다	-8244
iversity	-8245
_10	-8246
▁기용	-8247
▁사과	-8248
▁사양	-8249
▁어드	-8250
▁무슬림	-8251
▁미얀	-8252
▁종로	-8253
복지	-8254
파에	-8255
편을	-8256
팀이	-8257
지방법원	-8258
▁레닌	-8259
▁박쥐	-8260
▁사제	-8261
▁재발	-8262
▁관하여	-8263
▁미치는	-8264
▁보기	-8265
▁동기	-8266
▁세계적인	-8267
▁다룬	-8268
▁임금	-8269
구리	-8270
▁간에	-8271
▁아마추어	-8272
황후	-8273
▁천체	-8274
▁Col	-8275
▁자유를	-8276
▁활동에	-8277
▁아들이다	-8278
▁빵	-8279
▁펄	-8280
▁극단	-8281
▁출전했다	-8282
령에	-8283
사상	-8284
▁라이온	-8285
▁우루	-8286
▁프랜	-8287
지기도	-8288
타임	-8289
▁대단	-8290
▁명단에	-8291
▁전체적으로	-8292
테스	-8293
페이스	-8294
▁정교회	-8295
보면	-8296
▁가득	-8297
▁무인	-8298
면서도	-8299
▁FM	-8300
▁가야	-8301
▁동맹을	-8302
▁지정되어	-8303
류와	-8304
▁선두	-8305
▁명칭이	-8306
등한	-8307
▁거슬러	-8308
▁스페셜	-8309
▁Gr	-8310
▁고시	-8311
▁경계를	-8312
▁공동으로	-8313
▁아르메니아	-8314
▁원로	-8315
▁250	-8316
▁뿐이다	-8317
▁존재를	-8318
다니	-8319
▁마라	-8320
▁비로	-8321
▁없기	-8322
▁우익	-8323
▁비평가	-8324
ame	-8325
▁Is	-8326
리시	-8327
▁해병	-8328
▁박물관	-8329
IM	-8330
린이	-8331
▁브라이언	-8332
▁직접적인	-8333
▁스토리	-8334
▁지어진	-8335
▁미국이	-8336
▁분산	-8337
▁호르	-8338
▁자료를	-8339
광역시의	-8340
▁이야기가	-8341
ML	-8342
교가	-8343
하였을	-8344
▁말하며	-8345
▁획득하였다	-8346
우치	-8347
▁이적했다	-8348
▁과학적	-8349
투아니아	-8350
▁결과적으로	-8351
800	-8352
▁대답	-8353
▁천황의	-8354
▁램	-8355
작은	-8356
타나	-8357
▁역전	-8358
▁대만	-8359
박스	-8360
▁복수	-8361
▁손상	-8362
▁옆에	-8363
▁예능	-8364
▁나열	-8365
▁NHK	-8366
고한	-8367
재인	-8368
▁문화의	-8369
▁유지하고	-8370
가루	-8371
ale	-8372
▁일부로	-8373
아프리카	-8374
Ar	-8375
토를	-8376
▁메리	-8377
▁스승	-8378
▁모양을	-8379
▁아니었다	-8380
▁구간은	-8381
▁분야의	-8382
소리	-8383
티는	-8384
ose	-8385
▁카페	-8386
번호	-8387
으려	-8388
▁마시	-8389
▁발라	-8390
▁옛날	-8391
▁출현	-8392
습을	-8393
조판서	-8394
됐으며	-8395
▁경기장	-8396
대원	-8397
▁설이	-8398
학과를	-8399
Un	-8400
▁흙	-8401
그로	-8402
▁쓴다	-8403
▁1915	-8404
▁!	-8405
청이	-8406
-17	-8407
▁찾는	-8408
▁지방에	-8409
ult	-8410
▁전원	-8411
▁질환	-8412
▁1913	-8413
공의	-8414
▁계기가	-8415
▁때때로	-8416
▁광범위한	-8417
▁수천	-8418
▁결과가	-8419
▁리이다	-8420
▁일본어	-8421
히로	-8422
▁의거	-8423
▁중화인민공화국의	-8424
▁탱	-8425
롤라	-8426
대학원	-8427
▁전체의	-8428
▁고지	-8429
▁프랑스에서	-8430
▁경력을	-8431
▁에릭	-8432
▁토머스	-8433
▁일원으로	-8434
식물	-8435
편이	-8436
▁보인	-8437
▁이치	-8438
데스리가	-8439
위원회는	-8440
▁호남	-8441
▁히어로	-8442
▁료	-8443
▁벌였다	-8444
▁자전거	-8445
▁발매했다	-8446
▁가질	-8447
▁금강	-8448
▁내륙	-8449
ta	-8450
▁말은	-8451
▁소나	-8452
▁예루살렘	-8453
곡이	-8454
▁당선되었다	-8455
스포츠	-8456
▁배제	-8457
▁야기	-8458
▁염색	-8459
▁장갑	-8460
방에	-8461
▁라운드	-8462
▁그리스도	-8463
▁53	-8464
▁전승	-8465
▁한국인	-8466
▁젤	-8467
우옌	-8468
년으로	-8469
▁낳았다	-8470
▁버지니아	-8471
▁가라	-8472
▁유성	-8473
▁조약을	-8474
▁다가	-8475
▁메가	-8476
▁보좌	-8477
▁세균	-8478
▁항구	-8479
▁모순	-8480
▁시를	-8481
▁찾을	-8482
▁인간이	-8483
▁결정을	-8484
▁아니고	-8485
과도	-8486
▁57	-8487
▁구상	-8488
스트는	-8489
▁박근혜	-8490
▁접하고	-8491
▁카자흐	-8492
디의	-8493
▁원형	-8494
▁유물	-8495
▁계획은	-8496
전기	-8497
▁막부	-8498
▁적색	-8499
▁티베트	-8500
토시	-8501
활동	-8502
▁애플리케이션	-8503
▁용어	-8504
▁관광객	-8505
▁애틀	-8506
▁두번째	-8507
▁목숨을	-8508
▁빨리	-8509
▁야생	-8510
▁얼마나	-8511
▁차이를	-8512
▁데뷔전을	-8513
//	-8514
▁일렉	-8515
▁태조	-8516
▁봉해졌다	-8517
▁아베	-8518
▁아비	-8519
▁군대는	-8520
▁내용의	-8521
▁사용을	-8522
▁활동이	-8523
▁중심지	-8524
브를	-8525
4)	-8526
▁95	-8527
▁서일본	-8528
▁이곳에서	-8529
▁내지	-8530
▁반사	-8531
▁계획이	-8532
▁그룹의	-8533
▁시스템의	-8534
기획	-8535
▁국가에서	-8536
하라고	-8537
해진다	-8538
▁사이클	-8539
▁지역과	-8540
안군	-8541
효소	-8542
row	-8543
글로	-8544
▁랭킹	-8545
▁활동한	-8546
▁이지	-8547
▁발견했다	-8548
민이	-8549
보에	-8550
영이	-8551
▁이익을	-8552
▁2.	-8553
▁심한	-8554
▁훈련을	-8555
▁시대에는	-8556
뱅크	-8557
▁명단	-8558
▁별도로	-8559
▁위기에	-8560
군사	-8561
▁무신	-8562
▁확인할	-8563
▁직무	-8564
IP	-8565
▁후의	-8566
▁웰	-8567
음력	-8568
▁가면	-8569
▁미시	-8570
▁피렌	-8571
반을	-8572
왔고	-8573
▁발효	-8574
▁시마	-8575
▁대한제국	-8576
리크	-8577
▁MVP	-8578
▁후반에	-8579
CD	-8580
TS	-8581
enn	-8582
▁댄스	-8583
▁첫번째	-8584
▁합계	-8585
▁해제	-8586
▁튜	-8587
▁기재	-8588
▁떠난	-8589
▁통화	-8590
▁아직도	-8591
▁타원	-8592
▁위치하며	-8593
▁아울러	-8594
▁컬럼비아	-8595
▁진단	-8596
권으로	-8597
▁센트럴	-8598
출을	-8599
▁대로	-8600
▁빌헬	-8601
프랑스	-8602
▁않도록	-8603
▁It	-8604
년대부터	-8605
▁이곳에	-8606
석에	-8607
음에	-8608
주인	-8609
▁전향	-8610
토스	-8611
미디어	-8612
▁원자력	-8613
▁행정구역	-8614
ii	-8615
클럽	-8616
▁대승	-8617
▁책봉	-8618
▁잊	-8619
초의	-8620
판으로	-8621
▁정리한	-8622
▁폐기	-8623
바나	-8624
▁선거에	-8625
▁좋아하는	-8626
산맥	-8627
▁신장	-8628
▁네덜란드의	-8629
EN	-8630
액을	-8631
▁충분한	-8632
▁서식한다	-8633
니를	-8634
▁구마	-8635
글라	-8636
▁역이	-8637
유키	-8638
▁장편	-8639
▁쪽으로	-8640
인들에게	-8641
▁마르크스	-8642
▁힌두	-8643
▁개념은	-8644
▁항공기	-8645
▁프리미어리그	-8646
▁요구하는	-8647
▁담당하는	-8648
진흥	-8649
▁도심	-8650
▁무료	-8651
▁New	-8652
▁능력이	-8653
말을	-8654
▁아틀레	-8655
란트	-8656
▁간단한	-8657
▁트윈	-8658
▁요소를	-8659
히고	-8660
▁미네	-8661
여성	-8662
▁대지	-8663
▁버전은	-8664
츠와	-8665
▁자손	-8666
▁당했다	-8667
▁운동의	-8668
범죄	-8669
▁아트	-8670
▁적대	-8671
▁시작했으며	-8672
분은	-8673
▁나선	-8674
▁측은	-8675
적이었다	-8676
▁행정구역이다	-8677
마자	-8678
ww	-8679
▁호환	-8680
▁구간이	-8681
▁디즈니	-8682
시켰고	-8683
▁라틴어	-8684
▁했다고	-8685
전에서는	-8686
ise	-8687
▁무선	-8688
▁피난	-8689
▁우승에	-8690
급의	-8691
아를	-8692
▁5,	-8693
▁내내	-8694
쪽의	-8695
▁모집	-8696
▁서독	-8697
▁충족	-8698
▁브라우	-8699
▁다큐멘터리	-8700
작을	-8701
▁사령관	-8702
▁역사적으로	-8703
--	-8704
▁사용하며	-8705
▁곁	-8706
▁험	-8707
▁DJ	-8708
▁점은	-8709
▁관점에서	-8710
현이	-8711
▁건물이	-8712
▁기록하고	-8713
▁선제	-8714
▁데리고	-8715
▁최근에	-8716
Mar	-8717
▁성벽	-8718
▁주제로	-8719
▁흩	-8720
회로	-8721
▁신사	-8722
▁주파	-8723
물질	-8724
▁AM	-8725
▁식별	-8726
▁연계	-8727
▁최신	-8728
▁군대가	-8729
▁영화로	-8730
▁우수한	-8731
▁거주하는	-8732
우드	-8733
지사	-8734
ius	-8735
▁로빈	-8736
▁협상	-8737
▁이외에	-8738
▁동남아시아	-8739
▁쏟	-8740
맨스	-8741
▁타율	-8742
▁막대한	-8743
▁학교를	-8744
▁부통령	-8745
▁하나를	-8746
리자	-8747
부문	-8748
▁낱	-8749
▁당해	-8750
▁목격	-8751
▁조용	-8752
▁근처의	-8753
▁원래의	-8754
민당	-8755
코가	-8756
▁la	-8757
▁여동생	-8758
▁사장	-8759
하가	-8760
▁국가를	-8761
▁타카	-8762
▁얇	-8763
▁방면	-8764
▁1895	-8765
▁등이다	-8766
▁아들을	-8767
음의	-8768
▁메르	-8769
▁전임	-8770
▁실패했다	-8771
재의	-8772
▁동치	-8773
▁수업	-8774
▁(20	-8775
▁끝났다	-8776
▁겸임	-8777
▁재단	-8778
▁저택	-8779
▁최종적으로	-8780
▁일로	-8781
▁개최되었다	-8782
▁마친	-8783
▁두드러	-8784
▁말하고	-8785
▁읍	-8786
신과	-8787
▁잃고	-8788
▁리그에	-8789
▁보살	-8790
▁현급	-8791
▁편지를	-8792
커스	-8793
▁많고	-8794
▁성의	-8795
임은	-8796
▁후보에	-8797
▁생각했다	-8798
병이	-8799
경기를	-8800
들과의	-8801
▁타이틀을	-8802
재는	-8803
▁섬의	-8804
▁여왕	-8805
▁하노	-8806
▁활성화	-8807
▁아파트	-8808
der	-8809
▁자격을	-8810
▁지내고	-8811
▁독자적인	-8812
바시	-8813
▁이글	-8814
나라를	-8815
ystem	-8816
▁급진	-8817
통일	-8818
▁짙	-8819
▁막아	-8820
▁For	-8821
▁맡았으며	-8822
▁서브	-8823
▁황후	-8824
함으로	-8825
▁있으면	-8826
건은	-8827
▁비잔	-8828
▁추산	-8829
▁페이지	-8830
▁UN	-8831
▁그동안	-8832
▁언어로	-8833
사지	-8834
▁가해	-8835
ax	-8836
바는	-8837
간을	-8838
▁간접	-8839
편성	-8840
▁왕위	-8841
▁퍼시	-8842
▁이론은	-8843
▁인물이다	-8844
▁크리스토	-8845
▁앨범은	-8846
▁58	-8847
▁SM	-8848
▁친척	-8849
▁700	-8850
▁북쪽에	-8851
▁아니며	-8852
이사	-8853
▁연구가	-8854
하러	-8855
▁섬유	-8856
▁열어	-8857
스틴	-8858
▁이복	-8859
▁내장	-8860
▁취약	-8861
▁대학원	-8862
▁주장이	-8863
▁지역이다	-8864
▁동서	-8865
▁감독이다	-8866
▁일본에서는	-8867
수엘	-8868
▁백인	-8869
,500	-8870
▁스틸	-8871
▁온도	-8872
▁좌익	-8873
▁버리고	-8874
형과	-8875
▁나의	-8876
증이	-8877
▁빛을	-8878
▁없애	-8879
▁힘이	-8880
▁회사는	-8881
악의	-8882
▁범주	-8883
▁않는다는	-8884
본이	-8885
out	-8886
▁입문	-8887
▁준공	-8888
▁코치로	-8889
ke	-8890
인치	-8891
터로	-8892
편에	-8893
▁달러를	-8894
▁발생할	-8895
▁지배를	-8896
▁플레이어	-8897
-6	-8898
▁이토	-8899
산에서	-8900
▁성공적인	-8901
공동	-8902
▁가요	-8903
▁적을	-8904
▁쿨	-8905
온다	-8906
▁메디	-8907
▁발족	-8908
▁사카	-8909
▁사용해	-8910
▁전통적으로	-8911
았을	-8912
▁제목으로	-8913
양군	-8914
▁돌아오	-8915
▁선수단	-8916
▁1916	-8917
▁경고	-8918
▁연구소	-8919
▁치료를	-8920
▁후쿠시마	-8921
미에	-8922
▁일본이	-8923
▁사유	-8924
▁우리의	-8925
▁선언했다	-8926
랑이	-8927
받지	-8928
변을	-8929
▁성균	-8930
▁일관	-8931
▁충격	-8932
▁잘못된	-8933
▁가능하게	-8934
iam	-8935
▁개성	-8936
▁주한	-8937
▁제도의	-8938
▁부정적인	-8939
문관	-8940
트르	-8941
oci	-8942
▁못해	-8943
스부르크	-8944
▁모델이다	-8945
▁문화재자료	-8946
▁금메달	-8947
▁불렀	-8948
▁엉	-8949
ome	-8950
▁브래	-8951
▁시정촌	-8952
▁출시된	-8953
▁톨	-8954
조와	-8955
▁포함해	-8956
민족행위	-8957
▁오스트레일리아의	-8958
!"	-8959
림을	-8960
▁고베	-8961
▁모니	-8962
▁들어와	-8963
▁와카	-8964
▁이자	-8965
▁디젤	-8966
▁어릴	-8967
▁깔	-8968
▁휩	-8969
▁애국	-8970
▁전투가	-8971
▁자리에서	-8972
▁월간	-8973
▁응답	-8974
▁머리를	-8975
밀리	-8976
▁어워드	-8977
▁있다면	-8978
▁뒤인	-8979
▁중이던	-8980
팩트	-8981
▁김동	-8982
▁말할	-8983
▁약한	-8984
▁물리학	-8985
▁사로잡	-8986
▁사이에는	-8987
성한	-8988
▁때도	-8989
▁스콧	-8990
▁되었으나	-8991
▁왕실	-8992
▁갤럭시	-8993
▁근거로	-8994
방이	-8995
:00	-8996
▁나라를	-8997
▁남한	-8998
▁사격	-8999
▁콩고	-9000
▁평생	-9001
학자인	-9002
▁목적은	-9003
▁팽창	-9004
▁불만을	-9005
금융	-9006
▁꺾고	-9007
▁포맷	-9008
주곡	-9009
▁융합	-9010
▁세워졌다	-9011
수아	-9012
▁정벌	-9013
▁제약	-9014
▁소속되어	-9015
년은	-9016
ade	-9017
스테르	-9018
▁전두	-9019
▁지지하는	-9020
▁크리스티	-9021
▁해임	-9022
▁아리스	-9023
그는	-9024
▁하천	-9025
▁스파이	-9026
▁항해	-9027
▁지중해	-9028
▁베타	-9029
▁삶의	-9030
▁연루	-9031
파크	-9032
▁값을	-9033
▁곳곳	-9034
▁시기는	-9035
▁후기의	-9036
▁1500	-9037
▁현의	-9038
▁대신에	-9039
▁된다는	-9040
reat	-9041
▁제국이	-9042
명인	-9043
무르	-9044
▁간다	-9045
▁게재	-9046
▁아가	-9047
▁언어를	-9048
미와	-9049
anc	-9050
▁계열의	-9051
▁수록된	-9052
▁인근에	-9053
▁시기의	-9054
강점	-9055
이후	-9056
▁날개	-9057
▁타운	-9058
▁플라스	-9059
▁베이스볼	-9060
▁달아	-9061
▁섭취	-9062
▁트럭	-9063
▁중력	-9064
▁고등학교이다	-9065
리타	-9066
-16	-9067
HO	-9068
▁포크	-9069
▁기업이	-9070
▁싱글이다	-9071
▁고교	-9072
▁비극	-9073
▁여기에는	-9074
▁굉	-9075
세스	-9076
▁정도가	-9077
된다고	-9078
니까	-9079
▁주립	-9080
▁사람에게	-9081
등록	-9082
현악	-9083
▁합리	-9084
▁긍정적인	-9085
런스	-9086
소한	-9087
▁법학	-9088
▁양식	-9089
▁제휴	-9090
▁프로그램은	-9091
▁사용자가	-9092
섬의	-9093
▁경북	-9094
▁고조	-9095
▁반환	-9096
▁미스터	-9097
사추	-9098
▁캠페	-9099
▁시작해	-9100
▁이스트	-9101
▁불리기도	-9102
였기	-9103
▁상무	-9104
▁연애	-9105
라이더	-9106
스컵	-9107
▁시호는	-9108
▁한동안	-9109
▁말하였다	-9110
▁활약하였다	-9111
▁미분	-9112
▁루트비히	-9113
칸센	-9114
▁가사	-9115
▁비즈	-9116
▁주문	-9117
▁승리로	-9118
ft	-9119
▁곰	-9120
홈런	-9121
▁기호	-9122
▁약물	-9123
항은	-9124
"("	-9125
▁피부	-9126
▁바이올린	-9127
pl	-9128
발의	-9129
차별	-9130
▁국토	-9131
▁손자	-9132
▁당한	-9133
▁구체적인	-9134
▁시간은	-9135
▁젖	-9136
▁컸	-9137
시타	-9138
▁상태이다	-9139
▁점성	-9140
아키	-9141
렸던	-9142
민은	-9143
실록	-9144
켰다	-9145
▁대결	-9146
▁철도의	-9147
▁말한	-9148
▁부착	-9149
▁악화	-9150
▁지목	-9151
▁제작되었다	-9152
즈에	-9153
▁라트	-9154
▁무라	-9155
▁무용	-9156
▁속도를	-9157
▁폼	-9158
▁MC	-9159
▁번호	-9160
▁기술이	-9161
▁노르웨	-9162
▁전투에	-9163
▁등재	-9164
▁커피	-9165
▁필라델	-9166
▁있습니다	-9167
▁맞는	-9168
▁자바	-9169
▁어렵다	-9170
져서	-9171
바이러스	-9172
▁한국에서는	-9173
▁미하	-9174
▁결혼을	-9175
▁남쪽에	-9176
▁다이아	-9177
▁페루	-9178
▁착륙	-9179
▁통칭	-9180
▁흔들	-9181
▁프레임	-9182
▁복구	-9183
▁임상	-9184
속으로	-9185
▁조사를	-9186
▁방영되었다	-9187
등에	-9188
▁감지	-9189
▁이명박	-9190
▁바꾸었다	-9191
▁설립했다	-9192
겼고	-9193
▁정원	-9194
▁트레	-9195
▁한화	-9196
▁내부의	-9197
▁슐	-9198
▁용산	-9199
▁전투는	-9200
▁우리나라	-9201
바야	-9202
▁남긴	-9203
▁합법	-9204
▁어두운	-9205
츠키	-9206
▁다루고	-9207
▁면에서	-9208
ook	-9209
▁법원	-9210
▁예언	-9211
▁방식은	-9212
▁의장	-9213
▁속도로	-9214
▁스카이	-9215
▁아마도	-9216
규칙	-9217
니치	-9218
▁카탈	-9219
▁운행하는	-9220
▁자유롭게	-9221
▁향한	-9222
▁현존하는	-9223
▁탕	-9224
아와	-9225
▁화려한	-9226
석과	-9227
▁호칭	-9228
스트의	-9229
▁구조의	-9230
▁기업의	-9231
▁일했다	-9232
▁마쓰다이라	-9233
도사	-9234
시피	-9235
▁맞게	-9236
▁착수	-9237
▁채로	-9238
▁목적을	-9239
▁유소년	-9240
Th	-9241
▁닐	-9242
아스	-9243
▁포로	-9244
▁개발된	-9245
▁훌륭한	-9246
ics	-9247
▁구름	-9248
▁법무	-9249
▁오렌	-9250
▁마케팅	-9251
▁지어졌다	-9252
▁여덟	-9253
▁조치를	-9254
디에	-9255
온의	-9256
프에	-9257
▁수치	-9258
▁적의	-9259
ans	-9260
▁귀환	-9261
▁메모	-9262
▁WWE	-9263
▁이오	-9264
▁달러의	-9265
▁방식의	-9266
▁제국은	-9267
▁주어졌다	-9268
▁발전에	-9269
▁서서히	-9270
장관	-9271
▁당의	-9272
▁서남	-9273
▁전성	-9274
▁동메달을	-9275
▁무력	-9276
▁실용	-9277
▁시작된다	-9278
▁테일러	-9279
▁포인	-9280
▁형태가	-9281
▁몰락	-9282
▁때로는	-9283
▁알려지지	-9284
톤의	-9285
▁고성	-9286
_6	-9287
▁칩	-9288
▁82	-9289
▁가지게	-9290
▁템	-9291
패로	-9292
렸을	-9293
차전에서	-9294
▁닿	-9295
400	-9296
▁세로	-9297
▁차남	-9298
▁기생	-9299
▁비서	-9300
▁해적	-9301
▁주에서	-9302
▁코리아	-9303
▁본격적인	-9304
▁파리에서	-9305
팀인	-9306
음은	-9307
자연	-9308
▁학자	-9309
▁발견되는	-9310
▁폴란드의	-9311
▁인조	-9312
▁남아있다	-9313
▁72	-9314
▁프로그램의	-9315
AL	-9316
▁한신	-9317
▁사용이	-9318
▁시대를	-9319
▁올림	-9320
▁바티	-9321
▁스리	-9322
건이	-9323
▁끝이	-9324
▁무늬	-9325
▁바가	-9326
그리	-9327
세츠	-9328
▁빌리	-9329
▁이승만	-9330
▁진정한	-9331
▁리메이	-9332
▁교과	-9333
▁종전	-9334
▁과정은	-9335
행은	-9336
▁박탈	-9337
▁오고	-9338
▁사용하기	-9339
▁굵	-9340
검찰	-9341
조정	-9342
청을	-9343
▁비공식	-9344
의에	-9345
enc	-9346
PC	-9347
숙한	-9348
▁개업	-9349
▁무대에	-9350
▁이처럼	-9351
▁달의	-9352
곡으로	-9353
erv	-9354
▁술탄	-9355
▁쿠르	-9356
자리에	-9357
▁늘어나	-9358
▁현상이	-9359
▁푸른	-9360
▁오디오	-9361
▁규제	-9362
▁포괄	-9363
▁일제강점	-9364
▁얻는	-9365
제이	-9366
▁85	-9367
▁고분	-9368
▁무효	-9369
▁해군의	-9370
가스	-9371
▁관통	-9372
▁은메달을	-9373
수산	-9374
플라	-9375
▁부품	-9376
▁부흥	-9377
▁미카	-9378
▁도로이다	-9379
▁여의	-9380
안으로	-9381
시절	-9382
▁한양	-9383
▁원작으로	-9384
티움	-9385
▁대폭	-9386
▁세대	-9387
주년을	-9388
▁응우옌	-9389
▁대우	-9390
▁둘은	-9391
▁닌텐도	-9392
▁지속적인	-9393
▁페스티벌	-9394
GC	-9395
org	-9396
▁보충	-9397
ple	-9398
▁동지	-9399
▁엘리자베스	-9400
블로	-9401
있고	-9402
투쟁	-9403
the	-9404
▁닥터	-9405
▁피에	-9406
금으로	-9407
네스코	-9408
라이트	-9409
▁주도는	-9410
-7	-9411
▁수단	-9412
▁양도	-9413
▁아니면	-9414
▁꾀	-9415
▁인텔	-9416
챌린	-9417
▁공략	-9418
▁청와	-9419
▁대주교	-9420
▁신칸센	-9421
▁승차	-9422
▁의원이	-9423
▁가능하며	-9424
▁알바니아	-9425
▁길고	-9426
▁아서	-9427
▁이원	-9428
▁축제	-9429
▁특수한	-9430
▁졸업하였다	-9431
igh	-9432
▁베네수엘	-9433
▁곳이	-9434
▁김용	-9435
▁측근	-9436
▁일찍이	-9437
(10	-9438
▁고도	-9439
ake	-9440
경으로	-9441
▁Mus	-9442
▁곡으로	-9443
▁사고로	-9444
▁애틀랜	-9445
▁후지와	-9446
▁독일에서	-9447
formula	-9448
▁펴	-9449
직한	-9450
카를	-9451
▁공용	-9452
▁박영	-9453
▁노래는	-9454
▁떼	-9455
▁쟁	-9456
▁무려	-9457
서에서	-9458
▁뒤에는	-9459
ai	-9460
▁시작하는	-9461
라미	-9462
매치	-9463
▁59	-9464
▁교섭	-9465
▁오세	-9466
▁죽을	-9467
▁돌연	-9468
▁알코	-9469
▁따르는	-9470
rit	-9471
▁장면	-9472
받는다	-9473
주일	-9474
▁곡의	-9475
▁할당	-9476
▁마리오	-9477
▁나가사키	-9478
▁햄	-9479
시민	-9480
오르	-9481
ild	-9482
▁선진	-9483
▁하버드	-9484
년대에는	-9485
▁연구하는	-9486
▁회의에서	-9487
게이머	-9488
▁군사적	-9489
백을	-9490
▁얻기	-9491
▁의지	-9492
▁착공	-9493
▁밴드는	-9494
▁중앙에	-9495
▁북한의	-9496
▁하나님의	-9497
▁드림	-9498
▁구조는	-9499
▁부르며	-9500
▁최저	-9501
PG	-9502
마치	-9503
조약	-9504
▁낮아	-9505
▁라우	-9506
▁맡게	-9507
▁산타	-9508
▁시집	-9509
-21	-9510
▁교외	-9511
▁기록에	-9512
▁프로토콜	-9513
▁스타크래프트	-9514
▁경력	-9515
▁끊임	-9516
▁배정	-9517
▁오가	-9518
▁지각	-9519
디아라비아	-9520
▁로저	-9521
▁조치	-9522
란을	-9523
색이	-9524
▁마찰	-9525
만명	-9526
과이	-9527
▁각기	-9528
▁갑작	-9529
▁비가	-9530
▁원산	-9531
▁시드니	-9532
▁영화제	-9533
터에	-9534
▁지점	-9535
▁밖의	-9536
▁부패	-9537
▁작고	-9538
▁윙	-9539
▁가즈	-9540
▁All	-9541
▁마산	-9542
▁자식	-9543
▁하와이	-9544
▁복사	-9545
▁덴마크의	-9546
▁중순	-9547
▁민주주의	-9548
고속	-9549
위대	-9550
▁들은	-9551
▁활약했다	-9552
타케	-9553
▁부른	-9554
태평양	-9555
▁보내는	-9556
):	-9557
▁조선총독부	-9558
OP	-9559
▁''	-9560
▁Ph	-9561
어진다	-9562
▁규정하고	-9563
불교	-9564
▁근접	-9565
▁훼손	-9566
▁여성이	-9567
▁주축	-9568
▁작품에	-9569
▁과거의	-9570
ternational	-9571
▁희극	-9572
▁모델을	-9573
란의	-9574
내기	-9575
모니	-9576
ons	-9577
▁Ad	-9578
▁공학	-9579
▁중구	-9580
▁pro	-9581
▁토대로	-9582
▁부분적으로	-9583
▁살던	-9584
슨과	-9585
▁싫어	-9586
▁창업	-9587
▁초연	-9588
▁통근	-9589
▁병력	-9590
▁보상	-9591
▁종의	-9592
▁토마	-9593
▁퇴각	-9594
▁피고	-9595
▁롬	-9596
진과	-9597
희는	-9598
▁Or	-9599
▁그림을	-9600
▁둘러싼	-9601
수수	-9602
▁엔지	-9603
하우스	-9604
▁일본군	-9605
▁배틀	-9606
▁이순	-9607
동에서	-9608
▁또다시	-9609
▁선수이자	-9610
▁체제를	-9611
스에게	-9612
▁연방의	-9613
▁Se	-9614
▁한강	-9615
내에서	-9616
▁별칭	-9617
▁부과	-9618
서이다	-9619
▁다음이	-9620
회와	-9621
▁물에	-9622
관찰	-9623
▁이듬해인	-9624
후보	-9625
▁산림	-9626
▁상임	-9627
▁초창	-9628
교회의	-9629
▁발견한	-9630
장한	-9631
▁바위	-9632
▁전세계	-9633
반응	-9634
▁득점을	-9635
▁신규	-9636
▁이나	-9637
▁멤버로	-9638
고도	-9639
모로	-9640
병의	-9641
대한민	-9642
르와	-9643
▁사실은	-9644
▁조직의	-9645
▁황제가	-9646
▁88	-9647
▁보잉	-9648
▁들어가는	-9649
▁어려움을	-9650
▁학생들이	-9651
▁5.1	-9652
▁성공한	-9653
네의	-9654
▁특징은	-9655
인구	-9656
치현	-9657
▁평행	-9658
▁정확하게	-9659
▁디스플레이	-9660
심한	-9661
포트	-9662
하우	-9663
▁알라	-9664
▁출력	-9665
▁건물을	-9666
▁빌헬름	-9667
▁펀	-9668
열이	-9669
▁아세	-9670
▁하인리히	-9671
억원	-9672
▁일어날	-9673
▁껍	-9674
lay	-9675
▁매개	-9676
▁좋다	-9677
▁펜실	-9678
▁현장	-9679
▁명예의	-9680
▁정의할	-9681
▁이미지를	-9682
▁샹	-9683
스파	-9684
하니	-9685
브리지	-9686
▁르네상	-9687
▁목록은	-9688
▁영국은	-9689
~2	-9690
▁반지	-9691
▁노력을	-9692
▁지점에	-9693
8)	-9694
형이다	-9695
▁연고로	-9696
▁운동이	-9697
▁이르고	-9698
▁전부터	-9699
▁비슷하다	-9700
형태	-9701
▁날짜	-9702
▁창시	-9703
▁흐름	-9704
▁1.5	-9705
상으로는	-9706
티에	-9707
.2%	-9708
▁카이사	-9709
▁컨트롤	-9710
▁오스트리아의	-9711
:1	-9712
측의	-9713
▁동구	-9714
▁추증	-9715
▁확인되었다	-9716
▁네이션	-9717
▁분류된다	-9718
▁아르헨티	-9719
▁우즈	-9720
▁일으키는	-9721
용은	-9722
▁번뇌	-9723
▁중독	-9724
▁화면	-9725
슈타인	-9726
사추세츠	-9727
EP	-9728
▁따뜻	-9729
▁사육	-9730
▁요르	-9731
▁자발	-9732
▁보여주고	-9733
레의	-9734
성이다	-9735
▁보니	-9736
▁이영	-9737
▁과정에	-9738
OV	-9739
▁아인	-9740
테쓰	-9741
▁사기	-9742
▁소재로	-9743
▁에스토니아	-9744
티의	-9745
▁바그	-9746
▁수신	-9747
▁여론	-9748
▁피어	-9749
▁관계로	-9750
▁독일어	-9751
▁사상을	-9752
▁트랜스	-9753
자원	-9754
있으며	-9755
▁실험을	-9756
▁판결을	-9757
스러	-9758
용이	-9759
▁급속	-9760
▁동화	-9761
▁땅에	-9762
▁실종	-9763
▁털이	-9764
▁않았기	-9765
▁출전해	-9766
만원	-9767
▁차기	-9768
사령부	-9769
▁건너가	-9770
▁보스니아	-9771
제프	-9772
▁메타	-9773
▁미스	-9774
▁중심의	-9775
▁5000	-9776
▁사이타마	-9777
해주	-9778
▁도구	-9779
치면서	-9780
▁디비시	-9781
▁마케도니아	-9782
ife	-9783
▁없으나	-9784
독일	-9785
▁의견이	-9786
▁차례로	-9787
▁구체적으로	-9788
▁장의	-9789
▁사우디아라비아	-9790
몬드	-9791
▁받기도	-9792
▁On	-9793
▁목조	-9794
▁이마	-9795
런트	-9796
세에게	-9797
▁포인트	-9798
분야	-9799
▁공전	-9800
▁며칠	-9801
▁케네	-9802
▁동명의	-9803
▁시작되어	-9804
아리	-9805
▁챌린	-9806
▁사용될	-9807
▁전한다	-9808
르노	-9809
▁당대	-9810
▁후보를	-9811
님이	-9812
▁뜻의	-9813
견을	-9814
목의	-9815
▁캠퍼	-9816
▁풋볼	-9817
▁철학자	-9818
to	-9819
▁샬	-9820
▁팩	-9821
소스	-9822
타니	-9823
팀은	-9824
한을	-9825
▁PD	-9826
▁아즈	-9827
▁칼리지	-9828
▁건의	-9829
▁뿌리	-9830
▁끝나고	-9831
▁찾아가	-9832
오를	-9833
인들	-9834
초에	-9835
▁프랑스와	-9836
sk	-9837
▁정찰	-9838
▁진도	-9839
▁그렇지	-9840
▁목표를	-9841
러의	-9842
▁부장	-9843
▁사료	-9844
▁풀려	-9845
▁레이다	-9846
▁성질을	-9847
로동	-9848
우며	-9849
▁아이를	-9850
▁유니폼	-9851
▁제외하고는	-9852
누리	-9853
ition	-9854
네는	-9855
▁달린	-9856
▁줄어	-9857
▁본선의	-9858
▁형식을	-9859
자책	-9860
해방	-9861
▁풀어	-9862
▁분리되어	-9863
기준	-9864
che	-9865
▁백악	-9866
▁돌아갔다	-9867
헤이	-9868
▁공무	-9869
▁법을	-9870
▁일조	-9871
▁진영	-9872
ology	-9873
▁총괄	-9874
▁팔레스타	-9875
수사	-9876
연이	-9877
▁석탄	-9878
음으로	-9879
▁정부와	-9880
me	-9881
▁성씨	-9882
▁오키나와	-9883
▁시로	-9884
버스터	-9885
ward	-9886
▁싶어	-9887
▁특유의	-9888
더는	-9889
▁항일	-9890
트리올	-9891
▁프랑스어	-9892
▁휠	-9893
교로	-9894
르를	-9895
지대	-9896
eth	-9897
▁장난	-9898
생으로	-9899
▁집으로	-9900
기관이다	-9901
▁시즌에는	-9902
▁잃은	-9903
도서관	-9904
▁유네스코	-9905
▁임명되어	-9906
▁진출했다	-9907
▁옐	-9908
.6%	-9909
▁이틀	-9910
▁추모	-9911
▁아래로	-9912
▁63	-9913
▁성은	-9914
케이션	-9915
▁여행을	-9916
▁3000	-9917
천을	-9918
▁사직	-9919
▁리눅스	-9920
▁김태	-9921
▁리얼	-9922
▁흥행	-9923
▁거기에	-9924
▁공동체	-9925
▁학교에	-9926
생이	-9927
회장	-9928
les	-9929
▁나이지	-9930
▁형식의	-9931
▁소유하고	-9932
열의	-9933
▁쓰인	-9934
.19	-9935
▁역과	-9936
▁경우를	-9937
에너	-9938
▁생각된다	-9939
▁얘	-9940
론에서	-9941
EO	-9942
전사	-9943
▁안쪽	-9944
▁캄보	-9945
▁CPU	-9946
▁누르고	-9947
▁일본으로	-9948
경영	-9949
▁계절	-9950
▁배를	-9951
이거나	-9952
위원회의	-9953
(7	-9954
▁드럼	-9955
▁레전	-9956
▁명문	-9957
▁학부	-9958
▁구미	-9959
▁피에르	-9960
화하고	-9961
▁하거나	-9962
이었다고	-9963
▁서울에서	-9964
▁명백	-9965
▁에우	-9966
▁영향력	-9967
▁차지한	-9968
▁걱	-9969
너의	-9970
▁왕으로	-9971
곡의	-9972
▁두산	-9973
▁침해	-9974
▁줄여서	-9975
▁한국방송	-9976
▁외곽	-9977
▁후한	-9978
▁레이저	-9979
▁전에는	-9980
▁몸무게는	-9981
▁비즈니스	-9982
▁신속	-9983
내셔널	-9984
▁문서는	-9985
▁카자흐스탄	-9986
카라	-9987
▁재산을	-9988
▁인정받아	-9989
결합	-9990
▁리스	-9991
▁점유	-9992
▁활약하고	-9993
▁성별	-9994
US	-9995
_7	-9996
▁MP	-9997
▁가벼	-9998
▁민속	-9999
▁안타	-10000
색은	-10001
▁대외	-10002
▁무죄	-10003
▁만났다	-10004
MI	-10005
▁느낀	-10006
▁동독	-10007
▁운행을	-10008
롤라이나	-10009
▁수수	-10010
▁수평	-10011
▁자율	-10012
가와현	-10013
심의	-10014
▁ch	-10015
▁못할	-10016
▁안의	-10017
리면서	-10018
▁왕위를	-10019
▁특이한	-10020
▁셈	-10021
htt	-10022
▁미토	-10023
▁빛의	-10024
역사	-10025
우와	-10026
▁66	-10027
▁남부의	-10028
ink	-10029
▁동년	-10030
▁쇼군	-10031
▁선거를	-10032
▁전쟁은	-10033
▁수행하는	-10034
eta	-10035
▁IT	-10036
▁쫓겨	-10037
▁모두가	-10038
▁우연히	-10039
▁이곳은	-10040
▁1894	-10041
마일	-10042
▁래퍼	-10043
▁밀양	-10044
▁위기	-10045
▁1890	-10046
▁기온은	-10047
▁모델은	-10048
▁분야에	-10049
▁원자로	-10050
-18	-10051
▁모시	-10052
▁식량	-10053
▁아이템	-10054
▁68	-10055
▁각본을	-10056
▁만화가	-10057
▁조직을	-10058
▁미국에서는	-10059
▁관직	-10060
▁사르	-10061
▁필름	-10062
▁삼고	-10063
▁액체	-10064
디가	-10065
▁약화	-10066
▁하야	-10067
▁친일반	-10068
▁조건으로	-10069
범한	-10070
석기	-10071
▁그러자	-10072
▁기록된	-10073
▁리투아니아	-10074
▁관습	-10075
▁이리	-10076
▁무거운	-10077
▁죽이고	-10078
▁럭	-10079
▁99	-10080
▁스핀	-10081
▁중요하다	-10082
▁기요	-10083
▁소수의	-10084
▁리메이크	-10085
way	-10086
▁비슷하게	-10087
▁시나리오	-10088
▁룩	-10089
▁밝혔	-10090
▁작곡한	-10091
그러	-10092
목적	-10093
▁꿈을	-10094
▁바꿔	-10095
▁조상	-10096
시까지	-10097
▁영역을	-10098
티모	-10099
▁심판	-10100
▁필라델피아	-10101
바닥	-10102
.4%	-10103
▁중계	-10104
▁후보는	-10105
▁추정되는	-10106
▁도서관	-10107
▁연속으로	-10108
▁클린	-10109
▁어려움	-10110
자리를	-10111
▁물리적	-10112
▁점이다	-10113
▁몬트리올	-10114
▁분광	-10115
▁자신에게	-10116
▁역임한	-10117
격이	-10118
▁th	-10119
▁별의	-10120
▁쉬운	-10121
▁외의	-10122
▁라이선	-10123
▁진출하였다	-10124
▁모드	-10125
▁김영삼	-10126
자스	-10127
터스	-10128
▁급행	-10129
▁진행된	-10130
아메리카	-10131
▁설립하였다	-10132
.3%	-10133
▁버튼	-10134
▁숙종	-10135
▁김재	-10136
▁김진	-10137
학교에	-10138
▁거리가	-10139
▁네이버	-10140
▁의원은	-10141
▁이인	-10142
슬란드	-10143
이라도	-10144
ream	-10145
▁대전광역시	-10146
▁교도	-10147
▁특급	-10148
교수	-10149
▁군을	-10150
▁촉구	-10151
▁니가타	-10152
▁언제나	-10153
턴은	-10154
▁멈추	-10155
▁미치	-10156
중에는	-10157
ames	-10158
▁형태는	-10159
▁기록하여	-10160
▁라트비아	-10161
석탑	-10162
러시아	-10163
안타	-10164
층은	-10165
▁용이	-10166
란이	-10167
▁시라	-10168
▁주와	-10169
▁움직이는	-10170
업이	-10171
://	-10172
▁낙선	-10173
▁외야	-10174
▁평소	-10175
바이잔	-10176
▁태종	-10177
▁꽤	-10178
▁얀	-10179
▁정책에	-10180
▁지냈으며	-10181
▁반박	-10182
으로의	-10183
▁우주의	-10184
▁굿	-10185
온이	-10186
▁IP	-10187
▁누군	-10188
▁속도가	-10189
▁영화에	-10190
▁언더	-10191
▁도호쿠	-10192
▁출연한	-10193
▁측면에서	-10194
▁텔	-10195
▁증권	-10196
▁맡았고	-10197
▁생기는	-10198
▁1902	-10199
▁대통령을	-10200
▁헐	-10201
고쿠	-10202
러가	-10203
메라	-10204
▁단종	-10205
▁친정	-10206
▁한국에	-10207
HE	-10208
실과	-10209
연속	-10210
▁무소	-10211
▁증기	-10212
▁독일은	-10213
▁항공모	-10214
제르바이잔	-10215
FM	-10216
났을	-10217
▁mm	-10218
▁서경	-10219
하려면	-10220
▁동물의	-10221
▁스타일	-10222
목이	-10223
▁Co	-10224
▁내외	-10225
▁전세	-10226
▁기간에	-10227
하였다는	-10228
▁마오	-10229
▁왕족	-10230
▁짓고	-10231
▁리버풀	-10232
▁중심이	-10233
▁체계를	-10234
6)	-10235
능력	-10236
▁건물의	-10237
▁국가에	-10238
▁신라의	-10239
▁대처	-10240
▁전인	-10241
가에서	-10242
있던	-10243
▁등장했다	-10244
OL	-10245
▁갓	-10246
츠가	-10247
▁두개	-10248
▁침몰	-10249
▁선거구	-10250
▁전쟁으로	-10251
현에	-10252
▁라스	-10253
▁경제학	-10254
명이었다	-10255
▁턱	-10256
진에	-10257
짜리	-10258
▁공의	-10259
▁마천	-10260
▁화재	-10261
lass	-10262
▁소설을	-10263
▁식으로	-10264
▁사적	-10265
▁친일반민족행위	-10266
번을	-10267
▁바뀐	-10268
▁서머	-10269
▁지명을	-10270
▁이어진다	-10271
▁참가하는	-10272
▁국가대표팀의	-10273
공이	-10274
▁유출	-10275
▁의뢰	-10276
▁첨가	-10277
타리오	-10278
▁소속이다	-10279
▁아니지만	-10280
▁신생	-10281
▁유신	-10282
▁장로	-10283
박물관	-10284
▁개혁을	-10285
▁도움으로	-10286
▁기체	-10287
▁소총	-10288
UN	-10289
ma	-10290
설이	-10291
인명	-10292
▁들어오	-10293
▁결혼했다	-10294
.7%	-10295
▁강경	-10296
▁된다고	-10297
미로	-10298
ener	-10299
▁캐스팅	-10300
▁과학기술	-10301
자본	-10302
▁62	-10303
▁하얀	-10304
▁붓	-10305
예프	-10306
▁내보	-10307
▁의사를	-10308
반도	-10309
주택	-10310
학위를	-10311
받을	-10312
~20	-10313
▁나아	-10314
▁내야	-10315
▁위안	-10316
▁이바	-10317
▁활동은	-10318
yl	-10319
▁찾기	-10320
▁개발에	-10321
▁위협을	-10322
▁중심기압	-10323
▁트레이드	-10324
▁하였는데	-10325
목은	-10326
▁순천	-10327
▁급격히	-10328
▁뉴욕에서	-10329
▁이상으로	-10330
▁밟	-10331
▁잦	-10332
ata	-10333
▁Tr	-10334
▁고무	-10335
베트남	-10336
이었기	-10337
▁스티브	-10338
▁지금도	-10339
고종	-10340
박사	-10341
일간	-10342
▁신용	-10343
▁안장	-10344
▁화살	-10345
▁사회에	-10346
▁관람	-10347
▁수렴	-10348
업에	-10349
치료	-10350
▁눈이	-10351
▁다녀	-10352
▁에버	-10353
▁이슈	-10354
▁북부에	-10355
일드	-10356
▁소니	-10357
▁아는	-10358
▁전당	-10359
▁1898	-10360
▁그룹이다	-10361
▁세미	-10362
▁소닉	-10363
▁써서	-10364
▁창건	-10365
▁결과에	-10366
▁University	-10367
▁받기	-10368
▁형법	-10369
스와의	-10370
▁코무네	-10371
▁미주	-10372
▁아폴	-10373
레를	-10374
▁분배	-10375
▁마쳤다	-10376
~4	-10377
▁몰려	-10378
▁일시적으로	-10379
▁림	-10380
간이	-10381
▁객관	-10382
▁팀에	-10383
▁강제로	-10384
▁물고기	-10385
▁이루었다	-10386
▁앓	-10387
연구원	-10388
▁스위스의	-10389
▁주행	-10390
▁헤드	-10391
중에서	-10392
.8%	-10393
년간의	-10394
▁디아	-10395
▁불을	-10396
▁인플	-10397
▁일에	-10398
▁차가	-10399
▁총선거	-10400
EE	-10401
두는	-10402
▁선구	-10403
▁출산	-10404
▁싱글로	-10405
카타	-10406
▁막내	-10407
▁숨겨	-10408
▁에티오	-10409
▁끌려	-10410
▁듯한	-10411
▁오오	-10412
▁좌절	-10413
▁되었	-10414
▁입체	-10415
▁치열	-10416
▁다음에	-10417
▁문재인	-10418
▁스튜어	-10419
▁달성했다	-10420
그레	-10421
▁양키	-10422
▁키프로	-10423
▁총재	-10424
▁출토	-10425
▁디비전	-10426
기기	-10427
▁2)	-10428
▁제품을	-10429
▁AS	-10430
▁조반	-10431
▁자신과	-10432
oo	-10433
작품	-10434
▁시점	-10435
▁요금	-10436
▁코트	-10437
▁교차로	-10438
▁전체가	-10439
▁제네바	-10440
작곡	-10441
해와	-10442
▁권위	-10443
▁선을	-10444
커니즘	-10445
▁가난한	-10446
▁신흥	-10447
▁어울	-10448
커는	-10449
투를	-10450
▁구리	-10451
▁우울	-10452
하였기	-10453
▁아이슬란드	-10454
항에	-10455
▁나이가	-10456
▁실시간	-10457
▁아미노	-10458
▁요소가	-10459
누엘	-10460
백과	-10461
여객	-10462
▁구동	-10463
▁리치	-10464
▁시그	-10465
▁연령	-10466
▁주제가	-10467
-8	-10468
주기	-10469
크리	-10470
▁좌파	-10471
▁남부에	-10472
▁있었다는	-10473
que	-10474
▁것인	-10475
▁관중	-10476
▁소환	-10477
▁쇼핑	-10478
▁편리	-10479
▁홈페이지	-10480
무기	-10481
▁신비	-10482
▁외무	-10483
량으로	-10484
▁연결된	-10485
벤처	-10486
▁치명	-10487
▁인물을	-10488
▁전두환	-10489
▁분데스리가	-10490
▁삿	-10491
▁기지	-10492
ement	-10493
▁깨달	-10494
▁볼리	-10495
▁부를	-10496
▁탓에	-10497
▁시설이	-10498
▁1901	-10499
TP	-10500
민을	-10501
버러	-10502
▁다중	-10503
▁에디	-10504
John	-10505
▁되었을	-10506
4,	-10507
▁이광	-10508
▁훔	-10509
▁내고	-10510
▁장려	-10511
▁재활	-10512
▁전진	-10513
▁할리우	-10514
▁알제	-10515
화하여	-10516
▁잠수함	-10517
▁되었지만	-10518
7)	-10519
▁끓	-10520
저는	-10521
▁군단	-10522
▁개발하고	-10523
▁그리스어	-10524
▁스파르타	-10525
▁시점에서	-10526
▁소실	-10527
▁원내	-10528
▁구조가	-10529
▁마을의	-10530
▁지나치게	-10531
▁걸어	-10532
-12	-10533
스트를	-10534
▁선교사	-10535
▁지방에서	-10536
책임	-10537
▁목사	-10538
▁향을	-10539
▁환원	-10540
우주연	-10541
▁구조로	-10542
▁아사히	-10543
월드	-10544
▁둥근	-10545
▁은퇴를	-10546
▁멕시코의	-10547
소득	-10548
▁군수	-10549
▁신하	-10550
▁준우승을	-10551
▁형성한다	-10552
▁옷을	-10553
▁프로듀싱	-10554
주식	-10555
▁경비	-10556
▁안티	-10557
피는	-10558
▁경사	-10559
▁왕자	-10560
시부터	-10561
▁치러진	-10562
▁투르크	-10563
▁뿔	-10564
마사	-10565
▁실린	-10566
▁왕비	-10567
▁다리를	-10568
풍을	-10569
▁두루	-10570
▁죄를	-10571
▁후일	-10572
DS	-10573
▁곡이	-10574
▁도미	-10575
▁주차	-10576
itt	-10577
▁바닷	-10578
▁석조	-10579
▁전념	-10580
▁검은색	-10581
▁것에서	-10582
▁에스파냐	-10583
▁보완	-10584
▁RNA	-10585
편으로	-10586
▁퍼시픽	-10587
돌이	-10588
시노	-10589
▁상원	-10590
▁아버지와	-10591
▁엘리베이	-10592
레아	-10593
.1%	-10594
▁향후	-10595
▁상징하는	-10596
유는	-10597
▁있어서는	-10598
▁하나였다	-10599
먼은	-10600
▁회담	-10601
▁칭호를	-10602
▁공채	-10603
▁나타낼	-10604
▁광산	-10605
▁군은	-10606
▁의병	-10607
정부의	-10608
▁나갔다	-10609
▁방송국	-10610
▁자체는	-10611
▁*	-10612
선조	-10613
▁모방	-10614
▁스쿨	-10615
▁개발되었다	-10616
부르	-10617
▁종결	-10618
▁추상	-10619
▁특징으로	-10620
ank	-10621
▁검증	-10622
▁용어를	-10623
마와	-10624
▁진행된다	-10625
터널	-10626
▁간부	-10627
▁병행	-10628
▁이노	-10629
▁한쪽	-10630
▁대회의	-10631
▁영어로	-10632
▁일요일	-10633
자도	-10634
하이오	-10635
나우	-10636
분석	-10637
▁내린	-10638
▁관현악	-10639
산성	-10640
▁격퇴	-10641
▁열고	-10642
▁나라에서	-10643
▁부문에서	-10644
▁생각하는	-10645
▁전례	-10646
▁영상을	-10647
▁연결된다	-10648
ute	-10649
▁날아	-10650
▁노비	-10651
▁봉사	-10652
▁대법원	-10653
▁받았으나	-10654
▁거론	-10655
▁시절부터	-10656
▁시즌의	-10657
▁j	-10658
작전	-10659
ict	-10660
▁플랑	-10661
▁회고	-10662
▁효소	-10663
▁군대의	-10664
▁수록곡	-10665
▁인접한	-10666
▁시스템이	-10667
▁않았으나	-10668
▁서해	-10669
▁이화	-10670
▁페어	-10671
푸르트	-10672
▁경험이	-10673
라트	-10674
▁상상	-10675
▁여수	-10676
해왔다	-10677
▁성립한다	-10678
카트	-10679
▁쌓아	-10680
▁예배	-10681
▁이긴	-10682
위원장	-10683
▁마을을	-10684
하겠다는	-10685
▁실질적인	-10686
~1	-10687
지나	-10688
▁부천	-10689
▁비단	-10690
▁지혜	-10691
▁알렸다	-10692
▁봐	-10693
사태	-10694
▁대학을	-10695
▁하나이며	-10696
_9	-10697
브의	-10698
▁들이	-10699
▁주류	-10700
항으로	-10701
▁참여하고	-10702
포의	-10703
(14	-10704
▁공직	-10705
RA	-10706
지붕	-10707
▁바실	-10708
▁국가로	-10709
▁먹이를	-10710
▁저명한	-10711
▁프랭크	-10712
▁화제가	-10713
▁둘러싸고	-10714
경과	-10715
노프	-10716
▁kg	-10717
▁해인	-10718
보도	-10719
▁김상	-10720
▁수도원	-10721
_8	-10722
야가	-10723
초를	-10724
.9%	-10725
▁ST	-10726
▁강이	-10727
▁유죄	-10728
▁활발한	-10729
주쿠	-10730
▁DS	-10731
▁오빠	-10732
▁의회는	-10733
▁토니	-10734
▁2.0	-10735
▁공사가	-10736
▁동로마	-10737
▁리비아	-10738
▁일컫는	-10739
▁1899	-10740
LS	-10741
▁98	-10742
▁인생	-10743
▁만나게	-10744
▁민주화	-10745
▁아제르바이잔	-10746
▁갇	-10747
▁안드레	-10748
▁방법이다	-10749
▁설명했다	-10750
▁cm	-10751
▁개관	-10752
▁잭슨	-10753
▁규모는	-10754
▁인물이	-10755
▁자금을	-10756
▁평등	-10757
▁이에야	-10758
▁생각한다	-10759
▁스테이지	-10760
수인	-10761
올로	-10762
▁No	-10763
▁고발	-10764
▁에이스	-10765
▁중기의	-10766
포는	-10767
공산당	-10768
▁매사추세츠	-10769
처리	-10770
▁기상청	-10771
층이	-10772
▁링컨	-10773
▁실려	-10774
▁추출	-10775
▁했다는	-10776
▁자본주의	-10777
코드	-10778
▁중소	-10779
▁공간의	-10780
▁본사는	-10781
▁1903	-10782
▁하락	-10783
▁마이크	-10784
▁요구했다	-10785
▁참여하여	-10786
▁학교에서	-10787
▁애덤	-10788
▁탈환	-10789
▁곡이다	-10790
▁서쪽에	-10791
▁남아있는	-10792
▁이관	-10793
▁입자	-10794
▁초과	-10795
래스카	-10796
▁마이너	-10797
MP	-10798
무스	-10799
▁극히	-10800
▁범위	-10801
▁산소	-10802
권에서	-10803
▁정신적	-10804
▁나눌	-10805
▁나섰다	-10806
▁선수들이	-10807
▁비용을	-10808
대구	-10809
▁리뷰	-10810
▁세션	-10811
ject	-10812
▁계획에	-10813
좌상	-10814
▁말기	-10815
▁매달	-10816
▁일도	-10817
▁주장하고	-10818
▁그날	-10819
▁끝까지	-10820
▁제외하면	-10821
▁낼	-10822
느러	-10823
▁활약한	-10824
▁조별리그	-10825
란히	-10826
▁이식	-10827
▁호세	-10828
▁넣었다	-10829
▁가톨릭교회	-10830
▁67	-10831
점이다	-10832
ower	-10833
되지는	-10834
lect	-10835
바스	-10836
rop	-10837
▁누적	-10838
▁슬로베	-10839
▁번식	-10840
▁사천	-10841
화에서	-10842
▁ISO	-10843
▁승인을	-10844
▁충격을	-10845
▁존재하며	-10846
▁기념물	-10847
▁대학에	-10848
▁음악의	-10849
▁교수는	-10850
하였다가	-10851
서야	-10852
▁출처	-10853
my	-10854
▁면적	-10855
▁서사	-10856
▁상원의	-10857
▁음식을	-10858
▁진동	-10859
lack	-10860
▁행성의	-10861
▁생각하고	-10862
보건	-10863
비나	-10864
▁것보다	-10865
작의	-10866
▁권고	-10867
▁먹고	-10868
▁현저	-10869
식품	-10870
음과	-10871
▁왜냐	-10872
제국의	-10873
▁휴스턴	-10874
▁인정하지	-10875
▁댐	-10876
전도	-10877
ble	-10878
▁Ed	-10879
▁시즈	-10880
▁제수	-10881
산면	-10882
▁파운드	-10883
▁가마쿠라	-10884
▁발매하였다	-10885
▁정렬	-10886
▁요크	-10887
▁작센	-10888
▁진짜	-10889
원들은	-10890
▁기리기	-10891
▁지정된	-10892
▁데이터베이스	-10893
원들이	-10894
▁교수가	-10895
5)	-10896
▁(,	-10897
▁물고	-10898
▁시칠	-10899
▁중의원	-10900
▁루스	-10901
▁힘입	-10902
▁호평을	-10903
▁나쁜	-10904
▁영의	-10905
▁Cent	-10906
▁학자들은	-10907
▁광주광역시	-10908
전선	-10909
▁맞지	-10910
해지는	-10911
▁조금씩	-10912
▁SP	-10913
▁이반	-10914
▁제갈	-10915
▁직면	-10916
자이며	-10917
▁생겼다	-10918
▁꼴	-10919
ene	-10920
▁61	-10921
▁김수	-10922
▁줄기	-10923
▁오렌지	-10924
▁참고로	-10925
길을	-10926
ere	-10927
▁시계	-10928
▁부족한	-10929
▁신호를	-10930
▁여기에서	-10931
▁배구	-10932
달라고	-10933
▁승리한	-10934
▁부적	-10935
▁안산	-10936
일에서	-10937
▁NBA	-10938
학적으로	-10939
▁76	-10940
▁칭찬	-10941
▁다룬다	-10942
▁드러나	-10943
▁맞추어	-10944
▁최후의	-10945
▁2,000	-10946
▁제주특별자치	-10947
▁거행	-10948
▁글리	-10949
▁단위로	-10950
베이니아	-10951
▁근처에서	-10952
▁성공하였다	-10953
oul	-10954
▁1)	-10955
▁길게	-10956
▁딸을	-10957
▁후안	-10958
▁이어진	-10959
▁기록하면서	-10960
▁관장	-10961
▁기차	-10962
▁영남	-10963
▁워너	-10964
▁주를	-10965
▁도착한	-10966
▁스피드	-10967
▁승강장은	-10968
gr	-10969
▁닭	-10970
▁롤링	-10971
▁존중	-10972
가들은	-10973
거리는	-10974
▁공사를	-10975
▁초반에	-10976
▁존재했던	-10977
권도	-10978
▁도마뱀	-10979
ual	-10980
▁흔한	-10981
극장	-10982
망이	-10983
셰비	-10984
▁작위를	-10985
▁김포	-10986
▁깨닫	-10987
▁폐위	-10988
▁함유	-10989
프라이	-10990
▁설명한다	-10991
▁톈	-10992
▁로열	-10993
▁미만	-10994
▁확진	-10995
가고	-10996
▁궁극	-10997
글리	-10998
▁모으	-10999
▁복제	-11000
▁학위	-11001
▁시설을	-11002
▁회사를	-11003
▁관리하고	-11004
▁정부로부터	-11005
류이다	-11006
진으로	-11007
▁새겨져	-11008
▁담긴	-11009
▁사라졌다	-11010
▁상반	-11011
▁통틀	-11012
가이자	-11013
려서	-11014
질로	-11015
채를	-11016
▁레바	-11017
(13	-11018
▁아예	-11019
▁초등	-11020
▁논문을	-11021
결정	-11022
▁레논	-11023
▁겪었다	-11024
▁신념	-11025
▁이래로	-11026
▁준비를	-11027
보안	-11028
유행	-11029
왔으며	-11030
▁움직임	-11031
▁잃어버	-11032
▁참가하고	-11033
▁단단	-11034
▁전도	-11035
▁스미스	-11036
▁알코올	-11037
▁담당하고	-11038
▁로즈	-11039
▁한계	-11040
▁해밀	-11041
▁동쪽에	-11042
▁별다른	-11043
▁속으로	-11044
▁이산화	-11045
▁중에서는	-11046
▁야당	-11047
소송법	-11048
▁친일인명	-11049
니시	-11050
▁시뮬	-11051
▁육성	-11052
▁채권	-11053
이면서	-11054
▁마음이	-11055
▁요미우리	-11056
▁찌	-11057
고래	-11058
속을	-11059
약품	-11060
▁업그	-11061
▁정사	-11062
▁지폐	-11063
▁쓰였다	-11064
▁웨일스	-11065
▁관할하는	-11066
▁성취	-11067
▁시골	-11068
▁유격	-11069
▁조달	-11070
층석탑	-11071
▁다니엘	-11072
구성	-11073
로니	-11074
▁여신	-11075
▁전선	-11076
▁진정	-11077
▁바꾸어	-11078
RE	-11079
▁톤	-11080
▁대피	-11081
▁무승	-11082
▁이끈	-11083
▁기능은	-11084
▁생산하는	-11085
▁슬라	-11086
▁주석	-11087
▁기반의	-11088
▁하드웨어	-11089
▁공화당	-11090
▁레전드	-11091
▁십자가	-11092
려면	-11093
파일	-11094
▁마약	-11095
▁좌표	-11096
▁사이가	-11097
▁중간에	-11098
▁결정적인	-11099
라기	-11100
▁77	-11101
▁건물로	-11102
▁성균관	-11103
GB	-11104
열차	-11105
▁복지	-11106
▁변경하였다	-11107
▁척추	-11108
▁라이언	-11109
▁사이드	-11110
▁조문이다	-11111
Co	-11112
운트	-11113
▁유래한	-11114
▁의미의	-11115
rad	-11116
▁뻗어	-11117
▁수동	-11118
▁해를	-11119
▁사랑의	-11120
▁쓰이고	-11121
▁않았다고	-11122
놓은	-11123
irl	-11124
▁섬에	-11125
서도	-11126
신라	-11127
증으로	-11128
▁국가는	-11129
▁밑에서	-11130
▁배웠다	-11131
톨레	-11132
300	-11133
▁굉장	-11134
▁종은	-11135
▁부대를	-11136
▁얻는다	-11137
▁쫓아	-11138
▁이론의	-11139
▁비판했다	-11140
나스	-11141
말라	-11142
번에	-11143
야를	-11144
철도의	-11145
▁시켜	-11146
▁야간	-11147
거리를	-11148
▁거주하고	-11149
ris	-11150
▁느껴	-11151
▁영문	-11152
▁직선	-11153
▁시장에	-11154
▁사망하고	-11155
▁계속되었다	-11156
르지	-11157
▁패키	-11158
▁일본을	-11159
▁보지	-11160
▁전제	-11161
대교	-11162
변이	-11163
-11	-11164
과정을	-11165
▁여름에	-11166
▁페르디	-11167
나라에	-11168
▁선보였다	-11169
과로	-11170
단위	-11171
수리	-11172
▁전자기	-11173
▁최근의	-11174
▁않는다고	-11175
실험	-11176
쟁이	-11177
▁해운	-11178
▁강점기	-11179
▁시절에는	-11180
▁몸에	-11181
▁억압	-11182
▁주소	-11183
▁보한다	-11184
▁펼쳤다	-11185
▁비잔티움	-11186
▁활동하는	-11187
▁강과	-11188
▁발원	-11189
▁버전의	-11190
▁기점으로	-11191
▁alpha	-11192
▁어휘	-11193
▁III	-11194
▁엔진은	-11195
▁운행한다	-11196
감에	-11197
▁서식하는	-11198
냈고	-11199
씨와	-11200
▁쇼와	-11201
▁협의	-11202
동맥	-11203
람쥐	-11204
▁놓은	-11205
▁닛폰	-11206
▁손해	-11207
▁허리케	-11208
▁설치류의	-11209
▁참여하는	-11210
▁블라디미르	-11211
▁설탕	-11212
▁대상을	-11213
▁사회를	-11214
▁특징이	-11215
▁동래	-11216
▁아벨	-11217
▁기업이다	-11218
we	-11219
십자	-11220
▁최적	-11221
▁최하	-11222
▁도주	-11223
▁아래는	-11224
강과	-11225
▁69	-11226
▁마츠	-11227
마르크	-11228
▁선수를	-11229
▁런던에서	-11230
포가	-11231
▁PS	-11232
렸으나	-11233
적이지	-11234
▁향하는	-11235
▁솟	-11236
▁결코	-11237
▁사헌	-11238
▁트루	-11239
▁무기를	-11240
인간	-11241
urn	-11242
▁(1	-11243
▁NA	-11244
▁데뷔를	-11245
▁디자인을	-11246
구르	-11247
▁관념	-11248
▁높고	-11249
▁명에	-11250
▁이내	-11251
-200	-11252
턴의	-11253
인들과	-11254
▁덧붙여	-11255
▁전투기	-11256
▁관리하는	-11257
▁대한민국은	-11258
rid	-11259
▁96	-11260
▁세계대	-11261
놓고	-11262
뉴스	-11263
ash	-11264
▁경부	-11265
▁추격	-11266
▁화석	-11267
라디오	-11268
시키며	-11269
기관으로	-11270
▁신설되었다	-11271
▁멋	-11272
▁킨	-11273
oph	-11274
▁개그	-11275
▁브뤼	-11276
▁국방부	-11277
pen	-11278
▁기갑	-11279
▁비오	-11280
▁사사	-11281
▁성모	-11282
▁정면	-11283
▁생각해	-11284
▁히데요	-11285
브는	-11286
▁평면	-11287
▁장학	-11288
▁감정을	-11289
▁의회의	-11290
▁사건이다	-11291
▁부호	-11292
작이다	-11293
▁제안을	-11294
▁남해	-11295
▁차원에서	-11296
▁도입되었다	-11297
▁개화	-11298
▁공인	-11299
▁위임	-11300
▁조명	-11301
년대의	-11302
▁최상위	-11303
▁성우이다	-11304
▁모델이	-11305
희의	-11306
▁DC	-11307
강에서	-11308
▁양식을	-11309
▁자세한	-11310
▁왜냐하면	-11311
▁일어나자	-11312
▁로스앤젤레스에서	-11313
위안	-11314
▁빠진	-11315
▁사자	-11316
▁지식을	-11317
▁경기에서는	-11318
▁발트	-11319
사우루	-11320
▁거리는	-11321
Le	-11322
통의	-11323
let	-11324
▁임기	-11325
▁총대	-11326
,9	-11327
▁탤	-11328
통이	-11329
황을	-11330
▁김기	-11331
▁10%	-11332
▁시즌이	-11333
▁엽	-11334
박한	-11335
▁사원	-11336
▁재현	-11337
▁잃었다	-11338
▁회사가	-11339
란은	-11340
▁통행	-11341
▁피트	-11342
▁밀접한	-11343
▁종으로	-11344
▁유지하는	-11345
▁지적했다	-11346
▁시작하였고	-11347
▁두어	-11348
▁미노	-11349
▁미터	-11350
▁암시	-11351
년동안	-11352
▁그레고	-11353
▁북부의	-11354
▁제목의	-11355
▁환경을	-11356
▁구릉	-11357
▁터뜨	-11358
▁표명	-11359
▁도시가	-11360
▁분명히	-11361
▁위험한	-11362
▁자동으로	-11363
디언	-11364
▁간호	-11365
ican	-11366
▁부대는	-11367
▁유형의	-11368
▁중심지는	-11369
▁우승하였다	-11370
봉을	-11371
크에	-11372
▁앨범의	-11373
▁이야기는	-11374
▁한국전쟁	-11375
각이	-11376
섬에	-11377
▁연호	-11378
▁희귀	-11379
rans	-11380
sch	-11381
▁로이	-11382
▁축하	-11383
▁셸	-11384
▁전압	-11385
리아는	-11386
▁기술의	-11387
▁조건이	-11388
고등학교를	-11389
▁기름	-11390
▁드문	-11391
▁감독과	-11392
▁떠올	-11393
▁북쪽의	-11394
▁오프닝	-11395
▁운동은	-11396
루션	-11397
▁나눠	-11398
▁담겨	-11399
▁문장	-11400
▁스스로를	-11401
La	-11402
▁보일	-11403
▁서정	-11404
▁순회	-11405
▁다양하다	-11406
▁대신하여	-11407
덕션	-11408
멘트	-11409
▁합창	-11410
▁태도를	-11411
fer	-11412
▁붙은	-11413
자들에	-11414
▁오하이오	-11415
▁조선인민	-11416
▁크리스마스	-11417
ald	-11418
▁디오	-11419
▁편곡	-11420
▁엄격한	-11421
▁고수	-11422
▁성당	-11423
▁수도인	-11424
▁앨범이다	-11425
반에	-11426
층을	-11427
hel	-11428
누스는	-11429
라이어	-11430
▁소속된	-11431
LA	-11432
~5	-11433
그의	-11434
ola	-11435
▁대관	-11436
▁몰래	-11437
▁쇼트	-11438
▁유언	-11439
▁최대한	-11440
▁Comp	-11441
▁하더라도	-11442
▁직접적으로	-11443
미쓰	-11444
▁IBM	-11445
▁조선인	-11446
▁마루	-11447
▁얻고	-11448
▁협약	-11449
▁시장을	-11450
▁이사회	-11451
▁협주곡	-11452
됨으로써	-11453
▁중단되었다	-11454
lo	-11455
지휘	-11456
아일랜드	-11457
소방	-11458
▁부사	-11459
갔으며	-11460
나갔다	-11461
▁굉장히	-11462
▁진출을	-11463
▁만의	-11464
쳤으며	-11465
▁마일	-11466
▁매출	-11467
▁샘플	-11468
▁고려의	-11469
모와	-11470
▁불교의	-11471
▁가축	-11472
▁사토	-11473
▁제사	-11474
방에서	-11475
▁뜨거운	-11476
외선	-11477
▁폭스	-11478
▁교회에	-11479
서원	-11480
▁교구	-11481
▁영동	-11482
▁오라	-11483
▁컬러	-11484
▁해주	-11485
▁힘든	-11486
▁찾아볼	-11487
▁크레이	-11488
▁온타리오	-11489
▁체포되어	-11490
RT	-11491
▁봤	-11492
▁밀어	-11493
▁숭배	-11494
▁하마	-11495
▁수술을	-11496
▁대회에서는	-11497
▁월드컵에서	-11498
na	-11499
uk	-11500
▁결론	-11501
▁내리	-11502
▁리틀	-11503
▁시초	-11504
▁시흥	-11505
▁투구	-11506
시에는	-11507
▁위기를	-11508
중은	-11509
채널	-11510
▁게오	-11511
▁마블	-11512
▁변수	-11513
▁업적을	-11514
▁주장한	-11515
캐롤라이나	-11516
감과	-11517
디나	-11518
▁색을	-11519
▁이진	-11520
▁미얀마	-11521
당하였다	-11522
▁이집트의	-11523
▁이루어지고	-11524
▁군에	-11525
▁아부	-11526
▁만나는	-11527
▁학생이	-11528
▁햇	-11529
▁앉아	-11530
▁제안했다	-11531
▁울산광역시	-11532
▁부부	-11533
▁귀중한	-11534
▁페르난	-11535
▁1884	-11536
연은	-11537
평화	-11538
▁불확	-11539
▁탐지	-11540
▁경찰은	-11541
▁생각할	-11542
▁평택	-11543
▁장거리	-11544
▁1897	-11545
▁평균자책	-11546
cc	-11547
무는	-11548
ane	-11549
▁넣고	-11550
▁부수	-11551
▁부유한	-11552
▁순수한	-11553
▁등장인물	-11554
!!	-11555
▁버려	-11556
▁소셜	-11557
▁지방을	-11558
클랜드	-11559
▁종이다	-11560
청에	-11561
▁역설	-11562
▁연쇄	-11563
▁이름인	-11564
▁자회사	-11565
▁대한민국에	-11566
▁힘입어	-11567
즈에서	-11568
▁아름다	-11569
▁와중에	-11570
▁이후로는	-11571
OD	-11572
▁횟	-11573
도어	-11574
▁가도	-11575
▁선사	-11576
▁팀인	-11577
▁허브	-11578
▁중국과	-11579
eng	-11580
▁We	-11581
베르토	-11582
▁게이트	-11583
▁광장	-11584
▁난이	-11585
▁매입	-11586
무역	-11587
▁투옥	-11588
▁전체에	-11589
다지	-11590
선언	-11591
였을	-11592
▁분화	-11593
▁야쿠	-11594
▁집계	-11595
크에서	-11596
▁거느리고	-11597
▁설명하는	-11598
▁건설되었다	-11599
슬리	-11600
▁느꼈	-11601
▁부딪	-11602
▁연세	-11603
▁재무	-11604
기독교	-11605
▁있었을	-11606
▁직전에	-11607
도리	-11608
히메	-11609
▁노선의	-11610
풍속	-11611
▁밤에	-11612
▁그러던	-11613
▁아일랜드의	-11614
양은	-11615
▁즉각	-11616
▁케냐	-11617
~6	-11618
▁모형	-11619
▁이윤	-11620
도이다	-11621
▁우라늄	-11622
▁의식을	-11623
▁상태였다	-11624
KB	-11625
다르	-11626
이시	-11627
정당	-11628
질은	-11629
▁상수	-11630
▁진급	-11631
액은	-11632
▁78	-11633
▁2.5	-11634
▁자택	-11635
eter	-11636
▁자체를	-11637
사기	-11638
스페	-11639
▁신임	-11640
▁공로로	-11641
▁시즌은	-11642
▁갈아	-11643
▁왕은	-11644
▁증후	-11645
▁회계	-11646
▁테이블	-11647
▁프로젝트를	-11648
번은	-11649
hPa	-11650
▁구출	-11651
▁기습	-11652
▁발현	-11653
▁후궁	-11654
▁이유를	-11655
▁중국어	-11656
▁아케이드	-11657
▁있으면서	-11658
▁자연스럽게	-11659
▁봉쇄	-11660
(8	-11661
월과	-11662
▁사슬	-11663
▁이가	-11664
▁내부에	-11665
▁출전한	-11666
▁선출했다	-11667
▁안보	-11668
▁진군	-11669
년이다	-11670
정원	-11671
평군	-11672
red	-11673
▁360	-11674
▁개발이	-11675
inc	-11676
▁민사	-11677
▁시트	-11678
리노이	-11679
▁독립된	-11680
▁장치를	-11681
▁기록하는	-11682
▁엔지니어	-11683
림이	-11684
종과	-11685
▁부서	-11686
▁빈곤	-11687
문제연구	-11688
내어	-11689
도르프	-11690
▁일본과	-11691
▁편입되었다	-11692
일체	-11693
▁베니	-11694
▁전통을	-11695
FF	-11696
▁냄	-11697
구나	-11698
종인	-11699
▁대니	-11700
▁비평	-11701
▁with	-11702
▁대통령에	-11703
작이	-11704
포구	-11705
함의	-11706
▁올바	-11707
▁춘천	-11708
▁물질을	-11709
▁본사를	-11710
벌레	-11711
어지는	-11712
▁부동산	-11713
▁심리학	-11714
대회에서	-11715
▁옌	-11716
▁왓	-11717
▁제곱	-11718
스트리	-11719
▁사람과	-11720
▁성장을	-11721
▁할머니	-11722
▁환경에서	-11723
▁펜실베이니아	-11724
▁경신	-11725
▁일컬	-11726
▁모르는	-11727
▁파이어	-11728
▁표현을	-11729
▁기록했고	-11730
▁선수이며	-11731
MC	-11732
척의	-11733
▁마스	-11734
▁드러머	-11735
▁실패로	-11736
▁부분으로	-11737
츠를	-11738
풍의	-11739
▁가죽	-11740
▁정한	-11741
▁침투	-11742
▁여부를	-11743
지능	-11744
ins	-11745
res	-11746
▁가짜	-11747
▁개원	-11748
▁냉각	-11749
▁코어	-11750
▁프레스	-11751
▁돋	-11752
con	-11753
mun	-11754
▁낭만	-11755
▁입원	-11756
▁천문학	-11757
▁이후부터	-11758
하루	-11759
▁모친	-11760
▁밑에	-11761
교육을	-11762
▁런던의	-11763
▁토요일	-11764
▁자리잡고	-11765
▁니콜라	-11766
▁새누리	-11767
▁들어간다	-11768
거는	-11769
분해	-11770
일으	-11771
▁송시	-11772
▁옥스	-11773
▁중도	-11774
▁축적	-11775
▁다운로드	-11776
▁만남	-11777
▁소매	-11778
▁컨셉	-11779
르키예	-11780
▁기간을	-11781
▁주장은	-11782
▁철도가	-11783
▁슬로바키아	-11784
가족	-11785
▁불평	-11786
▁방식이	-11787
열대	-11788
하키	-11789
ott	-11790
▁그냥	-11791
▁낸다	-11792
▁쓰기	-11793
▁시리즈를	-11794
▁딘	-11795
바타	-11796
▁구제	-11797
▁Car	-11798
▁가지며	-11799
▁뒤집	-11800
▁불편	-11801
도마뱀	-11802
▁극장판	-11803
▁되돌아	-11804
▁속도는	-11805
▁이벤트	-11806
▁계몽	-11807
▁엄격	-11808
▁취재	-11809
▁나가노	-11810
세기부터	-11811
▁물건	-11812
▁배치되어	-11813
▁헌법재판	-11814
네가	-11815
절한	-11816
▁노리	-11817
▁순교	-11818
▁이케	-11819
▁놓았다	-11820
▁환경에	-11821
▁획득한	-11822
▁넬	-11823
▁라파	-11824
▁칸의	-11825
▁노란색	-11826
▁다항	-11827
▁띠고	-11828
사령관	-11829
▁그쳤다	-11830
▁사이버	-11831
▁제국을	-11832
▁제노	-11833
▁채워	-11834
▁거기서	-11835
▁들어온	-11836
▁레바논	-11837
악한	-11838
▁상류	-11839
▁팀에서	-11840
매매	-11841
야만	-11842
훈장	-11843
▁개교	-11844
▁우편	-11845
▁도미니	-11846
▁제주도	-11847
네시	-11848
항이	-11849
▁문제의	-11850
▁스트리트	-11851
▁의미에서	-11852
렉스	-11853
티코	-11854
▁발을	-11855
▁효고	-11856
▁아니라고	-11857
ym	-11858
만여	-11859
영어	-11860
▁뒷받침	-11861
▁자신도	-11862
▁역에	-11863
▁제트	-11864
▁카타	-11865
▁올랐고	-11866
▁피해가	-11867
녀를	-11868
▁촉매	-11869
▁캠프	-11870
="	-11871
▁노무현	-11872
▁Live	-11873
방위	-11874
▁제압	-11875
특히	-11876
▁이빨	-11877
▁동아일보	-11878
님을	-11879
▁경로	-11880
▁띤다	-11881
▁영조	-11882
▁지능	-11883
임에도	-11884
▁101	-11885
▁기록해	-11886
▁사고가	-11887
▁요청을	-11888
▁사회에서	-11889
테르부르크	-11890
까지만	-11891
▁변화에	-11892
공은	-11893
▁증손	-11894
▁독립적인	-11895
▁문서이다	-11896
지역의	-11897
▁원인은	-11898
▁일종으로	-11899
가르	-11900
▁난징	-11901
▁바른	-11902
▁해변	-11903
▁GDP	-11904
▁나오지	-11905
▁느낌을	-11906
순위	-11907
▁강도	-11908
▁숫자	-11909
▁위탁	-11910
▁이남	-11911
▁평일	-11912
▁배우로	-11913
▁황제로	-11914
▁불러일으	-11915
▁김경	-11916
▁믿고	-11917
▁바퀴	-11918
▁포르투갈의	-11919
,8	-11920
▁팜	-11921
반이	-11922
▁노인	-11923
▁미즈	-11924
▁협박	-11925
▁요구를	-11926
▁코스타	-11927
▁경우에도	-11928
▁대거	-11929
▁불리게	-11930
▁우승한	-11931
▁아시안컵	-11932
▁콘스탄티노폴리스	-11933
▁산다	-11934
▁가수로	-11935
▁차량을	-11936
▁지구에서	-11937
ye	-11938
▁뉘	-11939
감한	-11940
▁국소	-11941
▁구단은	-11942
▁출시한	-11943
▁나눈	-11944
ings	-11945
▁그룹은	-11946
▁남쪽의	-11947
릴라	-11948
▁내전	-11949
▁스톡	-11950
▁구간을	-11951
▁발렌시아	-11952
▁사용되며	-11953
▁옴	-11954
▁문법	-11955
▁존스	-11956
면에는	-11957
▁움직임을	-11958
칼라	-11959
.11	-11960
▁카롤	-11961
▁기술은	-11962
▁장관을	-11963
했습니다	-11964
시즘	-11965
▁책의	-11966
▁피츠	-11967
▁And	-11968
▁부분의	-11969
위원으로	-11970
,4	-11971
총장	-11972
황제	-11973
스카야	-11974
▁다음해	-11975
▁지휘관	-11976
반은	-11977
버는	-11978
버리	-11979
▁상용	-11980
▁있는지	-11981
▁시내버스	-11982
리조	-11983
토르	-11984
port	-11985
▁승부차	-11986
▁난민	-11987
▁넣은	-11988
▁에미	-11989
▁클라이	-11990
▁메시지를	-11991
▁일컫는다	-11992
저지	-11993
▁일러	-11994
▁적고	-11995
▁제자	-11996
▁중합	-11997
루미늄	-11998
▁적합한	-11999
▁메커니즘	-12000
▁고려대학교	-12001
욕을	-12002
▁동명	-12003
▁채무	-12004
▁보호를	-12005
▁비로소	-12006
form	-12007
▁간단히	-12008
▁관리를	-12009
기사	-12010
ner	-12011
▁시키	-12012
▁지고	-12013
9)	-12014
▁반경	-12015
▁제독	-12016
▁주민들이	-12017
▁함으로써	-12018
▁용어로	-12019
▁파이널	-12020
▁과거에는	-12021
▁캄보디아	-12022
▁프랑크푸르트	-12023
EL	-12024
장치	-12025
▁아홉	-12026
▁애비	-12027
▁잎은	-12028
▁관련한	-12029
▁왕위에	-12030
▁엿	-12031
수용	-12032
oss	-12033
▁불이	-12034
▁물러났다	-12035
▁민족주의	-12036
나리	-12037
운영	-12038
▁예술가	-12039
▁인근의	-12040
검사	-12041
도바	-12042
브루	-12043
▁김씨	-12044
▁온천	-12045
▁자문	-12046
▁본인의	-12047
▁시장에서	-12048
더니	-12049
ini	-12050
▁딸인	-12051
▁법조	-12052
▁일명	-12053
▁그래프	-12054
▁프로그램이	-12055
만년	-12056
▁오노	-12057
▁차량은	-12058
▁등지에서	-12059
▁체코슬로	-12060
▁선언하였다	-12061
족에	-12062
▁정서	-12063
uper	-12064
▁목표는	-12065
▁비율은	-12066
▁상처	-12067
▁짙은	-12068
▁하우	-12069
▁가리키	-12070
▁블로그	-12071
▁것으로서	-12072
▁이름에서	-12073
▁교역	-12074
▁재혼	-12075
▁어머니의	-12076
▁실패하였다	-12077
Ph	-12078
렸는데	-12079
원숭이	-12080
▁2-1	-12081
DA	-12082
푸스	-12083
▁불어	-12084
▁평창	-12085
▁주민들은	-12086
약성	-12087
ret	-12088
▁어려워	-12089
▁황해도	-12090
▁프로게이머	-12091
▁플레이어는	-12092
판과	-12093
▁NC	-12094
▁마하	-12095
▁붙인	-12096
▁버전이	-12097
▁차량이	-12098
▁강수량은	-12099
▁마음작용	-12100
▁머물렀다	-12101
각의	-12102
공주	-12103
로우	-12104
~18	-12105
▁부가	-12106
▁존경	-12107
▁했을	-12108
▁것인데	-12109
▁언급했다	-12110
대책	-12111
링을	-12112
ubl	-12113
▁Go	-12114
▁만성	-12115
▁카스	-12116
▁바이오	-12117
▁언어의	-12118
▁유로파	-12119
▁카를로	-12120
킬로미터	-12121
▁자유주의	-12122
▁Am	-12123
▁쏟아	-12124
▁앙리	-12125
▁완화	-12126
▁조리	-12127
▁어머니가	-12128
')	-12129
▁지주	-12130
▁표본	-12131
▁시호를	-12132
▁조사에	-12133
▁전체적인	-12134
환의	-12135
▁기사를	-12136
▁이론에	-12137
▁차이는	-12138
정신	-12139
▁원리	-12140
▁이룬	-12141
▁중국에	-12142
▁거울	-12143
▁고백	-12144
▁공모	-12145
▁이의	-12146
▁최연	-12147
▁측의	-12148
▁독일이	-12149
yc	-12150
참모	-12151
▁97	-12152
▁생략	-12153
▁컴퍼	-12154
▁수상한	-12155
▁우즈베	-12156
▁인문	-12157
▁시기를	-12158
▁디비시온	-12159
▁날카	-12160
▁반해	-12161
▁1880	-12162
로이	-12163
▁그랜	-12164
uro	-12165
▁Bo	-12166
▁존속	-12167
▁칼라	-12168
ever	-12169
▁일하는	-12170
▁투어를	-12171
로부터의	-12172
▁조선일보	-12173
칸의	-12174
▁비난을	-12175
▁지역구	-12176
▁결정되었다	-12177
명당	-12178
어요	-12179
▁바꾼	-12180
▁싶은	-12181
▁인격	-12182
▁임용	-12183
▁일으킬	-12184
근의	-12185
동성	-12186
수소	-12187
학이	-12188
▁골프	-12189
▁디자	-12190
▁소금	-12191
▁원수	-12192
정에서	-12193
파이어	-12194
제한	-12195
▁전속	-12196
▁파스	-12197
▁보전	-12198
▁봉건	-12199
▁합작	-12200
▁프랑수아	-12201
시나	-12202
net	-12203
▁어긋	-12204
▁상트	-12205
▁결성된	-12206
▁공격에	-12207
▁증가했다	-12208
▁추가적인	-12209
IG	-12210
UC	-12211
▁펌	-12212
대륙	-12213
대왕	-12214
액의	-12215
▁제프	-12216
▁갈등을	-12217
▁구성되었다	-12218
IL	-12219
be	-12220
아파	-12221
▁가량	-12222
▁에밀	-12223
▁규모로	-12224
▁그래미	-12225
▁다니는	-12226
▁음악에	-12227
illiam	-12228
군다	-12229
▁고령	-12230
▁당일	-12231
▁정밀	-12232
▁중기	-12233
▁카트	-12234
▁One	-12235
▁블랙홀	-12236
▁평범한	-12237
▁확실히	-12238
▁승격되었다	-12239
철의	-12240
▁테니스	-12241
▁통틀어	-12242
▁베트남의	-12243
▁벨라루스	-12244
▁브라우저	-12245
▁쇄	-12246
▁낱말	-12247
▁트래	-12248
▁피하기	-12249
▁말씀	-12250
▁종류가	-12251
▁아버지를	-12252
▁타이틀곡	-12253
▁복귀하였다	-12254
▁시리즈에서	-12255
▁이준	-12256
▁초월	-12257
버렸다	-12258
▁살았던	-12259
▁출신인	-12260
FL	-12261
▁고체	-12262
▁삼촌	-12263
방으로	-12264
▁is	-12265
▁단기	-12266
▁두는	-12267
▁오타	-12268
선이다	-12269
▁1885	-12270
▁Part	-12271
▁역사적인	-12272
강이	-12273
군단	-12274
▁누르	-12275
▁맥스	-12276
▁아랫	-12277
af	-12278
방울	-12279
보르	-12280
▁총칭	-12281
하이드	-12282
ater	-12283
▁게르만	-12284
▁일이다	-12285
▁적극적인	-12286
아래	-12287
oup	-12288
▁따온	-12289
▁폭넓	-12290
▁환자	-12291
▁따른다	-12292
▁지휘하는	-12293
▁튀르키예	-12294
더의	-12295
버린	-12296
▁),	-12297
▁고쳐	-12298
▁남원	-12299
▁홈구	-12300
▁잡았다	-12301
▁사모	-12302
▁종속	-12303
일이다	-12304
▁나가는	-12305
ution	-12306
▁인터내셔널	-12307
스런	-12308
종교	-12309
▁조언	-12310
▁가족은	-12311
▁성격이	-12312
▁회의를	-12313
애를	-12314
▁누가	-12315
▁시외	-12316
▁구단의	-12317
▁왕국을	-12318
사리	-12319
▁난다	-12320
전문학교	-12321
▁방식이다	-12322
미노	-12323
차와	-12324
▁구할	-12325
▁더글	-12326
▁수습	-12327
▁교황의	-12328
▁제도가	-12329
▁신시	-12330
▁정신을	-12331
프로그램	-12332
▁아래에서	-12333
▁벵	-12334
연방	-12335
oug	-12336
▁태평	-12337
able	-12338
▁위치는	-12339
▁합류했다	-12340
▁경상남도의	-12341
팀의	-12342
▁빌려	-12343
▁세속	-12344
바이트	-12345
서비스	-12346
▁독일과	-12347
▁않으나	-12348
▁팀으로	-12349
▁협상을	-12350
▁구마모토	-12351
.,	-12352
▁신이	-12353
▁나머지는	-12354
▁정도였다	-12355
널티	-12356
도비	-12357
코쿠	-12358
ana	-12359
▁하트	-12360
야마현	-12361
▁개념이	-12362
▁속하며	-12363
▁프로레	-12364
과학기술	-12365
▁구역이다	-12366
▁월드컵에	-12367
▁김현	-12368
▁성분	-12369
▁옹립	-12370
▁적혀	-12371
▁게임이	-12372
▁루이지	-12373
▁시위를	-12374
▁벌어졌다	-12375
있었다	-12376
▁김일성	-12377
▁합스부르크	-12378
래스	-12379
▁문명	-12380
▁플랜	-12381
▁세상에	-12382
▁존재가	-12383
▁민족문제연구	-12384
국어	-12385
▁랜드	-12386
▁신한	-12387
▁카디	-12388
▁핸드	-12389
▁호위	-12390
이어서	-12391
▁단어는	-12392
▁장군의	-12393
▁질량은	-12394
▁네오	-12395
▁이유가	-12396
▁최악의	-12397
▁선거구이다	-12398
림의	-12399
"),	-12400
▁필사	-12401
겼으며	-12402
▁마음에	-12403
▁총리가	-12404
▁프로그램에	-12405
▁깎	-12406
▁73	-12407
▁서재	-12408
▁사례가	-12409
▁선정한	-12410
▁그들에게	-12411
▁공민	-12412
▁받침	-12413
▁어항	-12414
▁오를	-12415
▁위장	-12416
▁한스	-12417
▁매니저	-12418
▁연기를	-12419
▁클래스	-12420
▁시즌이다	-12421
▁발급	-12422
▁용도로	-12423
▁출전하였다	-12424
제작	-12425
▁슈팅	-12426
암으로	-12427
▁밴드이다	-12428
▁알렉산드로	-12429
▁이탈리아에서	-12430
▁설도	-12431
▁웹툰	-12432
▁중요성을	-12433
학부	-12434
▁노트	-12435
▁Day	-12436
▁알려지게	-12437
이하	-12438
커의	-12439
파인	-12440
▁꼭짓	-12441
▁디렉	-12442
▁엔딩	-12443
▁가벼운	-12444
▁언급한	-12445
파르	-12446
학원	-12447
▁방패	-12448
▁진흥	-12449
▁가지가	-12450
▁뛰어나	-12451
▁투표를	-12452
▁뭉	-12453
회담	-12454
▁Ag	-12455
▁권장	-12456
책으로	-12457
▁제사를	-12458
▁텍스트	-12459
▁인정하고	-12460
▁3.	-12461
▁항소	-12462
▁군대에	-12463
▁1860	-12464
▁조선로동	-12465
▁에티오피아	-12466
▁맏	-12467
oon	-12468
▁86	-12469
▁덮여	-12470
▁줄무늬	-12471
▁아시카가	-12472
▁스튜디오에서	-12473
▁자치구	-12474
▁50%	-12475
▁프로리그	-12476
▁땄	-12477
인한	-12478
지아	-12479
▁양이	-12480
▁최후	-12481
▁3,000	-12482
레타	-12483
리라	-12484
▁삼각형	-12485
▁올라간다	-12486
De	-12487
유적	-12488
-14	-12489
▁나올	-12490
▁초록	-12491
지는데	-12492
▁담배	-12493
▁목을	-12494
▁오리콘	-12495
▁진행되고	-12496
▁고민	-12497
▁기각	-12498
▁중재	-12499
(2011	-12500
▁아기	-12501
▁악기	-12502
▁이경	-12503
▁토르	-12504
obert	-12505
피의	-12506
▁광둥	-12507
▁리우	-12508
▁명성	-12509
▁밀집	-12510
▁본거	-12511
라에서	-12512
▁미국을	-12513
▁패배를	-12514
▁존재하고	-12515
▁양국	-12516
그라드	-12517
▁수학자	-12518
▁인터페이스	-12519
예정	-12520
하임	-12521
uck	-12522
▁생식	-12523
▁양주	-12524
▁창의	-12525
▁국내외	-12526
▁주도로	-12527
▁음반으로	-12528
▁장성	-12529
▁존슨	-12530
결과를	-12531
▁없었기	-12532
▁복귀했다	-12533
▁미루	-12534
▁차량의	-12535
▁행사를	-12536
▁노동조합	-12537
▁대학교에	-12538
▁물질의	-12539
▁프톨레	-12540
측에	-12541
ral	-12542
▁말의	-12543
▁가족의	-12544
▁부작용	-12545
▁사망하자	-12546
▁플라스틱	-12547
아들	-12548
▁부의	-12549
▁수면	-12550
측은	-12551
▁마우	-12552
▁쓰지	-12553
(;	-12554
블리	-12555
차량	-12556
▁던져	-12557
▁마인	-12558
▁분비	-12559
▁업체	-12560
▁74	-12561
▁맥락	-12562
▁이라	-12563
▁들어갈	-12564
▁박스	-12565
▁피신	-12566
▁역사에	-12567
▁장면을	-12568
▁더불어민주당	-12569
▁닦	-12570
▁오쿠	-12571
▁왕복	-12572
▁천도	-12573
▁축출	-12574
풍으로	-12575
▁말기의	-12576
▁나이지리아	-12577
ike	-12578
▁선물	-12579
▁수축	-12580
▁토요	-12581
▁해소	-12582
▁보유한	-12583
▁결정하는	-12584
▁알루미늄	-12585
▁방송되었다	-12586
붙이	-12587
위스	-12588
ail	-12589
▁가져왔다	-12590
▁떨어지는	-12591
▁처음부터	-12592
손은	-12593
오늘	-12594
▁일방	-12595
▁달한다	-12596
▁선거는	-12597
▁학교의	-12598
노가	-12599
체제	-12600
태후	-12601
택을	-12602
▁감행	-12603
▁마에	-12604
▁조르	-12605
등으로	-12606
stit	-12607
▁정부에서	-12608
▁갈릴	-12609
▁밴드를	-12610
▁자격으로	-12611
▁중앙위원회	-12612
고와	-12613
병에	-12614
준은	-12615
함마	-12616
any	-12617
▁단축	-12618
해양	-12619
▁플러	-12620
▁카리브	-12621
▁국제적인	-12622
▁정치인으로	-12623
한테	-12624
▁춘추	-12625
으려고	-12626
코르	-12627
▁술을	-12628
▁카우	-12629
▁미시간	-12630
▁글루	-12631
▁대웅	-12632
▁유교	-12633
▁패한	-12634
▁몬스터	-12635
▁소행성	-12636
따라	-12637
▁가까워	-12638
▁다녔다	-12639
▁간주된다	-12640
언어	-12641
▁거제	-12642
▁기슭	-12643
▁정해	-12644
그리스	-12645
▁회사이다	-12646
밴드	-12647
번뇌	-12648
▁얻지	-12649
▁1-0	-12650
▁베네딕	-12651
▁스리랑	-12652
▁타격을	-12653
▁몸이	-12654
▁스캔	-12655
▁리그를	-12656
▁전역에서	-12657
▁얹	-12658
▁미쳤다	-12659
▁끊임없이	-12660
▁이용한다	-12661
▁5,000	-12662
▁국영	-12663
▁성주	-12664
▁지형	-12665
▁경찰에	-12666
▁81	-12667
▁네팔	-12668
▁배신	-12669
▁중대	-12670
▁아무도	-12671
▁형태이다	-12672
폭력	-12673
▁크리스토퍼	-12674
달아	-12675
히토	-12676
ler	-12677
▁해수	-12678
하자면	-12679
▁말기에	-12680
▁버렸다	-12681
▁1889	-12682
▁임시정부	-12683
▁아타	-12684
▁페리	-12685
▁별명을	-12686
▁비율이	-12687
▁됐	-12688
값을	-12689
국장	-12690
▁사살	-12691
▁잡은	-12692
▁뚜렷한	-12693
▁마을에	-12694
▁브로드	-12695
▁손가락	-12696
적에	-12697
▁가구	-12698
▁라마	-12699
▁유저	-12700
▁펠리	-12701
검찰청	-12702
▁연구의	-12703
▁얽	-12704
미스	-12705
▁우드	-12706
▁지방자치	-12707
▁헝가리의	-12708
코와	-12709
▁고기	-12710
▁모서	-12711
▁슈트	-12712
▁용의	-12713
▁손으로	-12714
근은	-12715
▁ex	-12716
▁연금	-12717
▁케임	-12718
▁기자회	-12719
▁기초를	-12720
창을	-12721
▁도는	-12722
idae	-12723
ital	-12724
▁스탈린	-12725
▁정보가	-12726
▁맑	-12727
투자	-12728
협의회	-12729
▁관직을	-12730
▁개봉되었다	-12731
▁친일인명사전	-12732
열에	-12733
▁팔라	-12734
▁것들이	-12735
▁무대를	-12736
계급	-12737
▁페널티	-12738
사나	-12739
열은	-12740
천여	-12741
▁헤비	-12742
▁CON	-12743
▁시베리아	-12744
▁유사하다	-12745
▁총대주교	-12746
▁쉐	-12747
리야	-12748
순환	-12749
웠고	-12750
자르	-12751
▁||	-12752
▁딸로	-12753
▁막시	-12754
올림픽	-12755
운동에	-12756
▁com	-12757
▁많으며	-12758
▁서유럽	-12759
▁선수는	-12760
▁전역에	-12761
▁시기에는	-12762
▁대합	-12763
▁데스	-12764
▁비유	-12765
▁정조	-12766
▁주가	-12767
▁견해를	-12768
학교에서	-12769
회의에서	-12770
▁아리스토	-12771
▁대통령으로	-12772
▁법인	-12773
▁수확	-12774
▁스폰	-12775
▁아크	-12776
▁충주	-12777
레이터	-12778
▁날에	-12779
▁어른	-12780
▁나폴리	-12781
▁그리스도의	-12782
aj	-12783
결과	-12784
어리	-12785
▁여진	-12786
어지고	-12787
▁있기도	-12788
포드	-12789
▁비타	-12790
▁사절	-12791
▁시범	-12792
▁신중	-12793
가지의	-12794
▁되었다가	-12795
세종	-12796
플레	-12797
ors	-12798
▁상태의	-12799
▁설치한	-12800
▁올리고	-12801
▁부분에서	-12802
▁지정하여	-12803
즈로	-12804
희가	-12805
▁기저	-12806
▁부지	-12807
▁비자	-12808
▁게임에	-12809
▁일리노이	-12810
께서	-12811
ole	-12812
▁벌인	-12813
▁산란	-12814
문에서	-12815
▁지구와	-12816
▁캠퍼스	-12817
▁기아	-12818
▁암흑	-12819
▁갈수록	-12820
▁시리즈는	-12821
▁결혼하였다	-12822
골로	-12823
▁포획	-12824
▁인증을	-12825
▁회장을	-12826
우지	-12827
항의	-12828
▁처녀	-12829
▁하원	-12830
▁것임을	-12831
▁안에는	-12832
▁완벽한	-12833
▁전했다	-12834
집이	-12835
하자는	-12836
▁과정이	-12837
▁주목할	-12838
▁게임으로	-12839
▁옳	-12840
ero	-12841
▁소지	-12842
▁20%	-12843
▁육군의	-12844
▁1871	-12845
▁노르웨이의	-12846
타입	-12847
▁00	-12848
▁먹을	-12849
▁승계	-12850
▁흥선	-12851
▁개인이	-12852
▁민족의	-12853
▁Colle	-12854
▁교전	-12855
▁봉안	-12856
▁고통을	-12857
▁추기경	-12858
미즈	-12859
증은	-12860
▁87	-12861
▁단절	-12862
▁협동	-12863
▁생산을	-12864
▁중추원	-12865
대학교에서	-12866
소녀	-12867
테면	-12868
트륨	-12869
협력	-12870
화물	-12871
▁무성	-12872
▁시와	-12873
▁한미	-12874
▁변화는	-12875
▁가고시마	-12876
▁School	-12877
먼드	-12878
문자	-12879
방은	-12880
푸르	-12881
▁89	-12882
▁개종	-12883
▁상장	-12884
▁점프	-12885
들과는	-12886
인구의	-12887
사용	-12888
▁사면	-12889
▁하부	-12890
▁구스타	-12891
▁1800	-12892
▁프랑스에	-12893
푸아	-12894
▁아야	-12895
▁오바	-12896
▁호의	-12897
▁정해진	-12898
▁받았지만	-12899
▁자유로운	-12900
▁등극	-12901
▁환상	-12902
▁얼굴을	-12903
▁주제를	-12904
▁추측된다	-12905
판매	-12906
ery	-12907
▁CJ	-12908
▁더욱이	-12909
▁구분된다	-12910
▁덤	-12911
▁만일	-12912
▁철회	-12913
▁수행할	-12914
▁영화가	-12915
▁르네상스	-12916
세트	-12917
연료	-12918
▁AR	-12919
▁고산	-12920
▁규범	-12921
▁끝날	-12922
▁전라도	-12923
고려	-12924
수원	-12925
품의	-12926
▁HT	-12927
▁괴롭	-12928
▁안성	-12929
▁콜린	-12930
재단	-12931
▁CH	-12932
▁응원	-12933
~200	-12934
▁데뷔한	-12935
▁시절의	-12936
▁주장하며	-12937
▁핀란드의	-12938
왕에	-12939
줬다	-12940
▁석가	-12941
▁아담	-12942
▁넘어가	-12943
▁비판이	-12944
▁떨어졌다	-12945
업은	-12946
클로	-12947
▁다크	-12948
▁중산	-12949
▁공간이	-12950
▁무료로	-12951
▁아레나	-12952
▁위험을	-12953
▁제작을	-12954
▁자이언츠	-12955
oth	-12956
▁그루	-12957
▁본부	-12958
▁신탁	-12959
▁심의	-12960
▁드물게	-12961
▁사고를	-12962
▁결정하였다	-12963
▁되지만	-12964
▁조약에	-12965
▁자신들이	-12966
▁프톨레마이	-12967
▁BC	-12968
▁하라	-12969
▁중반에	-12970
▁동행	-12971
▁왕세	-12972
▁자선	-12973
▁남기고	-12974
공격	-12975
기계	-12976
길이	-12977
▁담아	-12978
▁미디	-12979
▁분당	-12980
▁우호	-12981
▁인산	-12982
▁입성	-12983
▁증거가	-12984
▁득표율을	-12985
▁프로덕션	-12986
▁해상에서	-12987
▁메소	-12988
▁양호	-12989
▁대가로	-12990
▁균형	-12991
글라데	-12992
▁발견하였다	-12993
대손	-12994
▁EC	-12995
▁헤라	-12996
▁길이의	-12997
▁담당했다	-12998
어스	-12999
집행	-13000
▁비주	-13001
품이	-13002
▁Ab	-13003
▁세금	-13004
▁목록에	-13005
(2002	-13006
▁1870	-13007
▁급제하여	-13008
▁카를로스	-13009
▁표현하는	-13010
▁해결하기	-13011
Sh	-13012
해주는	-13013
▁표면에	-13014
페테르부르크	-13015
량과	-13016
chn	-13017
▁백색	-13018
▁즐겨	-13019
▁충남	-13020
▁목소리를	-13021
▁맞은	-13022
▁불명	-13023
▁우르	-13024
▁커널	-13025
▁6.25	-13026
▁쥬	-13027
▁신선	-13028
▁표방	-13029
▁방문한	-13030
▁소말	-13031
군이다	-13032
ouse	-13033
▁기존에	-13034
▁유래된	-13035
▁지진이	-13036
셈부르크	-13037
▁실전	-13038
▁호조	-13039
▁음악은	-13040
▁공익	-13041
▁빛이	-13042
마스터	-13043
▁수익을	-13044
▁압력을	-13045
▁전력을	-13046
▁시칠리아	-13047
▁예정이었으나	-13048
▁두께	-13049
▁장군이	-13050
▁접하며	-13051
▁보호하기	-13052
▁승강장이	-13053
▁왈	-13054
키와	-13055
▁Of	-13056
▁북위	-13057
▁포병	-13058
▁기회가	-13059
▁성능을	-13060
▁진행되는	-13061
▁한나라당	-13062
화이다	-13063
▁차이로	-13064
▁아버지인	-13065
내며	-13066
▁CN	-13067
▁연상	-13068
▁자국	-13069
▁죽이	-13070
▁케빈	-13071
▁교육과	-13072
▁블루스	-13073
▁할아버지	-13074
▁$	-13075
각은	-13076
기니	-13077
▁놀이	-13078
▁Ass	-13079
▁그다지	-13080
(0	-13081
▁콰	-13082
탄의	-13083
▁손꼽	-13084
층으로	-13085
▁도시에	-13086
▁성공회	-13087
▁설립되었으며	-13088
두를	-13089
테크	-13090
▁규격	-13091
▁꼭대	-13092
▁신부	-13093
▁문자를	-13094
▁미래의	-13095
▁일대를	-13096
▁회사인	-13097
▁근무했다	-13098
▁스케이팅	-13099
▁차지하며	-13100
GM	-13101
▁감안	-13102
▁시는	-13103
▁퀘벡	-13104
▁제국에	-13105
▁진나라	-13106
▁맵	-13107
갈색	-13108
것도	-13109
루냐	-13110
▁Ro	-13111
▁으로	-13112
렸다고	-13113
소이다	-13114
▁레스토	-13115
▁일대에	-13116
▁지냈고	-13117
거를	-13118
잡이	-13119
통제	-13120
▁밝힌	-13121
시키지	-13122
inal	-13123
▁시대부터	-13124
▁알려져있다	-13125
-9	-13126
Mic	-13127
orm	-13128
▁71	-13129
▁산출	-13130
▁서초	-13131
▁선이	-13132
불교의	-13133
▁접근할	-13134
▁게임에서	-13135
비서	-13136
▁대가	-13137
▁동생인	-13138
▁북아프리카	-13139
레스의	-13140
타이드	-13141
▁어드벤처	-13142
위인	-13143
탈리아	-13144
▁이스라엘의	-13145
발이	-13146
보수	-13147
술의	-13148
▁물어	-13149
▁수에	-13150
▁공부를	-13151
▁동안의	-13152
▁범위를	-13153
▁학생들은	-13154
▁몫	-13155
ino	-13156
▁루터	-13157
▁정도를	-13158
▁아르헨티나의	-13159
Re	-13160
금지	-13161
인터	-13162
▁각자	-13163
▁리오	-13164
▁횡단	-13165
▁단계에서	-13166
▁문화방송	-13167
▁안으로	-13168
▁언어는	-13169
▁마을에서	-13170
강전	-13171
▁오비	-13172
주의가	-13173
▁점령한	-13174
▁존재할	-13175
alpha	-13176
▁토너먼트	-13177
라톱	-13178
▁84	-13179
▁둥글	-13180
▁필드	-13181
스카르	-13182
▁1.2	-13183
교에	-13184
친구	-13185
col	-13186
▁물의	-13187
▁자의	-13188
▁단어를	-13189
▁대전이	-13190
▁프란츠	-13191
운을	-13192
집에	-13193
▁나은	-13194
▁유연	-13195
▁헌정	-13196
는지는	-13197
▁그곳에	-13198
▁두개골	-13199
▁문서를	-13200
▁밝히고	-13201
▁코드를	-13202
현과	-13203
프레스	-13204
▁작용을	-13205
▁결혼하여	-13206
땃쥐	-13207
레가	-13208
상규	-13209
증의	-13210
▁거북	-13211
▁브란	-13212
▁에콰	-13213
▁적지	-13214
▁문화가	-13215
▁소비자	-13216
▁운영을	-13217
두에	-13218
믹스	-13219
▁곳의	-13220
▁동국	-13221
▁유년	-13222
orea	-13223
▁뮤지션	-13224
▁중점을	-13225
▁차례의	-13226
해온	-13227
▁직결	-13228
▁즉위한	-13229
보통학교	-13230
하로	-13231
▁JT	-13232
▁북구	-13233
▁유산	-13234
▁피로	-13235
▁바르샤	-13236
▁기독교의	-13237
▁킬로미터	-13238
▁고등학교를	-13239
신도	-13240
음반	-13241
허가	-13242
KBS	-13243
▁문예	-13244
▁선종	-13245
▁자를	-13246
▁포드	-13247
▁선수들을	-13248
두로	-13249
지리	-13250
▁때인	-13251
▁재미	-13252
▁저렴	-13253
▁병으로	-13254
▁재능을	-13255
▁마찬가지	-13256
▁페르디난	-13257
▁평가했다	-13258
▁극동	-13259
▁노태	-13260
▁퇴적	-13261
회의원	-13262
▁수준으로	-13263
▁정의한다	-13264
ren	-13265
▁강연	-13266
▁맥도	-13267
▁점에	-13268
사업을	-13269
▁결정된다	-13270
▁사랑하는	-13271
▁사망자가	-13272
노리	-13273
홀름	-13274
▁79	-13275
▁CF	-13276
▁선배	-13277
▁실망	-13278
▁있음	-13279
▁환자의	-13280
▁아라비아	-13281
버스터미널	-13282
약한	-13283
컨대	-13284
▁민병	-13285
▁표지	-13286
공무원	-13287
▁교육의	-13288
▁역임하고	-13289
▁실질적으로	-13290
▁기증	-13291
▁꽃은	-13292
▁대안	-13293
▁발병	-13294
▁잡혀	-13295
▁기준을	-13296
▁음반에	-13297
▁파리의	-13298
▁내용으로	-13299
▁방글라데	-13300
▁가나가와현	-13301
생명	-13302
_11	-13303
▁테레	-13304
omys	-13305
▁소송을	-13306
▁잡아먹	-13307
▁진행하고	-13308
SC	-13309
▁쿤	-13310
팀을	-13311
▁알을	-13312
터미널	-13313
▁바오로	-13314
▁서비스는	-13315
브르	-13316
▁걱정	-13317
▁성사	-13318
▁인상을	-13319
aur	-13320
▁무의	-13321
▁입각	-13322
▁말까지	-13323
소타	-13324
▁수련	-13325
▁중복	-13326
▁취하고	-13327
▁파일을	-13328
전시	-13329
주간	-13330
▁극대	-13331
▁더해	-13332
▁맞붙	-13333
▁별은	-13334
▁105	-13335
▁실패한	-13336
▁서비스가	-13337
해로	-13338
▁병역	-13339
▁하남	-13340
▁밖에도	-13341
▁사람도	-13342
▁형성하고	-13343
▁데뷔하였고	-13344
▁출판되었다	-13345
마로	-13346
막을	-13347
▁정말	-13348
▁카나	-13349
▁섬으로	-13350
▁역사의	-13351
lex	-13352
▁건설을	-13353
▁산하에	-13354
▁일렉트로	-13355
들여	-13356
왕조	-13357
▁도입된	-13358
▁아마존	-13359
개와	-13360
집단	-13361
▁전동	-13362
▁주체	-13363
▁협정	-13364
▁때에도	-13365
거의	-13366
▁높게	-13367
▁조립	-13368
▁지녔	-13369
▁편에	-13370
▁실시한	-13371
▁은퇴했다	-13372
▁이루어지는	-13373
▁틸	-13374
기게	-13375
돌을	-13376
행동	-13377
▁러셀	-13378
▁대회가	-13379
▁도카이	-13380
▁드라이브	-13381
▁러시아는	-13382
▁방송되었던	-13383
▁붐	-13384
위성	-13385
준의	-13386
ull	-13387
▁결론을	-13388
▁효과적으로	-13389
쪽은	-13390
▁대치	-13391
▁자오	-13392
▁900	-13393
▁이내에	-13394
▁작업에	-13395
▁하원의	-13396
▁애칭	-13397
나가는	-13398
브리아	-13399
ific	-13400
▁전반에	-13401
루와	-13402
▁김규	-13403
▁모은	-13404
▁나타낸	-13405
▁온도가	-13406
▁현재에	-13407
▁위치하는	-13408
융합	-13409
▁국군	-13410
법이다	-13411
▁30%	-13412
▁CC	-13413
▁갱신	-13414
▁걸린	-13415
▁고래	-13416
▁연꽃	-13417
▁Rec	-13418
▁광저우	-13419
▁물러나	-13420
▁소나타	-13421
▁비밀리에	-13422
▁포켓몬스터	-13423
▁부채	-13424
▁일체	-13425
(2010	-13426
철은	-13427
▁검출	-13428
▁옵션	-13429
▁환영	-13430
▁대표적	-13431
▁발언을	-13432
▁조정에	-13433
년생	-13434
사고	-13435
양성	-13436
티넘	-13437
▁신축	-13438
▁체류	-13439
관계가	-13440
년대와	-13441
▁지키는	-13442
▁나중에는	-13443
▁드라이버	-13444
▁편지	-13445
▁포장	-13446
▁야마토	-13447
▁의미는	-13448
위기	-13449
ara	-13450
▁성종	-13451
▁주오	-13452
▁초신	-13453
▁뉴욕의	-13454
▁레슬링	-13455
▁연세대학교	-13456
여자고등학교	-13457
냐는	-13458
▁대교	-13459
▁무상	-13460
▁주사	-13461
▁패널	-13462
▁한인	-13463
▁계획이다	-13464
▁공개했다	-13465
▁그렇지만	-13466
▁볼리비아	-13467
▁시스템에	-13468
▁시뮬레이션	-13469
네마	-13470
노에	-13471
량에	-13472
▁특집	-13473
▁퍼포	-13474
되도록	-13475
▁베드로	-13476
▁하에서	-13477
위원회를	-13478
나오	-13479
▁성숙	-13480
▁영지	-13481
▁오지	-13482
▁워터	-13483
근이	-13484
시게	-13485
▁유권	-13486
▁무조건	-13487
▁새겨진	-13488
▁중앙아시아	-13489
바둑	-13490
토모	-13491
풍이	-13492
▁사범	-13493
▁이차	-13494
스트에	-13495
▁경제의	-13496
▁쓰시마	-13497
▁음악적	-13498
▁진행했다	-13499
▁취임했다	-13500
▁평가된다	-13501
다드	-13502
▁권총	-13503
▁배상	-13504
▁이소	-13505
▁당연히	-13506
▁몸길이는	-13507
세르	-13508
표가	-13509
▁달이	-13510
▁중종	-13511
▁KIA	-13512
▁경제는	-13513
▁기초로	-13514
▁버전을	-13515
▁소설가	-13516
▁일어났	-13517
▁있거나	-13518
▁포스터	-13519
▁둘러싸여	-13520
▁이루어지지	-13521
MB	-13522
TO	-13523
디를	-13524
왕과	-13525
▁보헤	-13526
▁정무	-13527
로맨스	-13528
▁그려진	-13529
▁설명할	-13530
▁일본국	-13531
▁하이드	-13532
▁프랑스가	-13533
▁후임으로	-13534
츠크	-13535
Pro	-13536
▁기숙	-13537
▁화강	-13538
루에서	-13539
▁영향이	-13540
▁최소한	-13541
서구	-13542
▁중일	-13543
했음을	-13544
▁바이킹	-13545
▁작업이	-13546
▁룩셈부르크	-13547
본으로	-13548
▁유학을	-13549
▁이루며	-13550
▁크기를	-13551
들에게는	-13552
산리	-13553
신인	-13554
▁대명	-13555
▁쓰촨	-13556
▁원천	-13557
렸지만	-13558
▁CEO	-13559
▁Cor	-13560
▁문과에	-13561
▁부근에	-13562
▁불리고	-13563
▁한성부	-13564
▁기어	-13565
▁둔다	-13566
▁같은해	-13567
▁한국은	-13568
▁명명되었다	-13569
신학	-13570
▁세네	-13571
▁진공	-13572
았다고	-13573
▁없어서	-13574
▁원인을	-13575
▁평론가	-13576
▁기록으로	-13577
▁알렉산드르	-13578
대대	-13579
해튼	-13580
▁낳은	-13581
▁대행	-13582
▁수비수	-13583
▁포로로	-13584
▁도시에서	-13585
▁연구에서	-13586
요의	-13587
우기	-13588
▁바빌	-13589
감으로	-13590
에미	-13591
▁아닐	-13592
▁의석	-13593
▁정치가	-13594
▁사용하면	-13595
거진	-13596
난성	-13597
당해	-13598
벽을	-13599
주지	-13600
▁안치	-13601
▁종로구	-13602
▁주어진다	-13603
▁대한민국과	-13604
바라키	-13605
▁범유행	-13606
▁캔자스	-13607
▁대통령과	-13608
▁뷔	-13609
▁판사	-13610
▁피겨	-13611
▁예선에서	-13612
감은	-13613
주어	-13614
arm	-13615
▁청원	-13616
▁치른	-13617
▁하시	-13618
▁대학생	-13619
▁별개의	-13620
▁어려서	-13621
▁쿠데타	-13622
▁미시시피	-13623
▁한국시리즈	-13624
추는	-13625
출판	-13626
▁김창	-13627
▁까닭	-13628
▁Res	-13629
▁말하면	-13630
▁본인이	-13631
▁상트페테르부르크	-13632
칼리	-13633
▁탐색	-13634
브리엘	-13635
▁안토니오	-13636
▁형성하는	-13637
▁얕	-13638
▁at	-13639
▁퇴역	-13640
ions	-13641
▁제치고	-13642
▁죽였다	-13643
▁청춘	-13644
명에서	-13645
▁설치하고	-13646
RI	-13647
Sc	-13648
만과	-13649
▁왕을	-13650
▁잔류	-13651
▁진지	-13652
▁충성	-13653
▁구단이	-13654
▁비용이	-13655
▁파란색	-13656
부리	-13657
올라	-13658
▁SU	-13659
▁개가	-13660
▁김지	-13661
▁품고	-13662
▁350	-13663
▁결정한다	-13664
일반	-13665
▁어둠	-13666
▁도요토미	-13667
▁불가능한	-13668
미트	-13669
불을	-13670
▁각색	-13671
▁두꺼	-13672
▁한층	-13673
운동의	-13674
▁아열대	-13675
▁위험이	-13676
▁카스티	-13677
트로이트	-13678
▁프로레슬링	-13679
amb	-13680
웨이트	-13681
테이션	-13682
▁기반한	-13683
▁사쿠라	-13684
▁산업의	-13685
▁개인적인	-13686
▁때문이라고	-13687
Ad	-13688
국사	-13689
준비	-13690
▁싸워	-13691
▁알지	-13692
▁나란히	-13693
▁야마가타	-13694
▁오사카부	-13695
▁랴	-13696
질러	-13697
.10	-13698
아버지	-13699
으로부터의	-13700
▁2:	-13701
▁불꽃	-13702
▁수장	-13703
▁키워	-13704
▁바티칸	-13705
조한	-13706
▁그후	-13707
▁바나	-13708
▁중장	-13709
▁키스	-13710
▁쌍둥이	-13711
기자	-13712
▁무슨	-13713
▁볼로	-13714
▁빈번	-13715
▁103	-13716
▁고유의	-13717
▁국립공	-13718
▁아나키	-13719
렉션	-13720
pro	-13721
▁GS	-13722
▁세례	-13723
▁용병	-13724
▁승무원	-13725
▁Christ	-13726
역학	-13727
▁자아	-13728
▁1,0	-13729
▁확실한	-13730
▁고구려의	-13731
▁그레이트	-13732
▁지나면서	-13733
▁금성	-13734
▁곡들은	-13735
▁국제적	-13736
▁세포의	-13737
▁행동에	-13738
▁보도했다	-13739
▁함부르크	-13740
EG	-13741
루에	-13742
~10	-13743
▁죽어	-13744
▁파벌	-13745
심에서	-13746
무로	-13747
벨라	-13748
아마	-13749
팀에	-13750
▁성서	-13751
▁시노	-13752
▁얼음	-13753
▁이때부터	-13754
▁클라이언	-13755
모든	-13756
미한	-13757
양함	-13758
쿠버	-13759
▁가옥	-13760
▁다테	-13761
▁안테	-13762
▁원더	-13763
▁경기로	-13764
▁지역구의	-13765
받게	-13766
산동	-13767
▁고트	-13768
▁보내고	-13769
▁제한된	-13770
라리	-13771
▁선비	-13772
▁득표율	-13773
▁삿포로	-13774
▁암호화	-13775
▁에디션	-13776
▁1883	-13777
았기	-13778
▁가려	-13779
▁길에	-13780
▁적다	-13781
▁오피스	-13782
▁태양을	-13783
▁받았다고	-13784
▁중화민국의	-13785
▁중서	-13786
▁지옥	-13787
▁건축가	-13788
▁빨간색	-13789
▁드러났다	-13790
Ge	-13791
▁구의	-13792
▁번에	-13793
▁이병	-13794
▁종착	-13795
동이다	-13796
선수권	-13797
▁각본가	-13798
▁교회는	-13799
▁왕국은	-13800
▁트리플	-13801
다를	-13802
혹한	-13803
ony	-13804
▁음모	-13805
▁이북	-13806
▁코코	-13807
▁헬리	-13808
시인	-13809
.15	-13810
▁그릇	-13811
▁주장에	-13812
▁대표적으로	-13813
▁크리스티안	-13814
마크	-13815
왔던	-13816
하늘	-13817
▁92	-13818
▁깨끗	-13819
▁조조	-13820
▁청소	-13821
▁가로지	-13822
▁게이지	-13823
▁매카트	-13824
▁무함마	-13825
▁시즌에서	-13826
▁눌	-13827
▁솜	-13828
궁의	-13829
부산	-13830
▁be	-13831
▁거뒀	-13832
▁시립	-13833
▁장비를	-13834
urg	-13835
▁온대	-13836
▁이란의	-13837
▁지도를	-13838
▁쳐들어	-13839
▁공격하여	-13840
기나	-13841
나서	-13842
발로	-13843
운다	-13844
키를	-13845
▁돌입	-13846
▁미들	-13847
들보다	-13848
▁모티브	-13849
▁뱅	-13850
후쿠	-13851
▁벌금	-13852
▁보게	-13853
▁북방	-13854
▁히타	-13855
층에서	-13856
▁니콜라이	-13857
숙종	-13858
법에서	-13859
월에서	-13860
▁제목은	-13861
▁올림픽의	-13862
▁인터페이	-13863
▁포기하고	-13864
상도	-13865
▁가볍	-13866
▁감마	-13867
▁마야	-13868
▁지위	-13869
▁투르	-13870
▁내려가	-13871
▁1888	-13872
퍼는	-13873
▁리만	-13874
▁수성	-13875
▁콜라	-13876
▁튀니	-13877
▁혐의	-13878
▁호출	-13879
계약을	-13880
▁생물학적	-13881
▁프로젝트는	-13882
내지	-13883
르며	-13884
▁로맨	-13885
레이크	-13886
정책을	-13887
▁새로이	-13888
적으로도	-13889
▁Your	-13890
▁사용되지	-13891
▁입장에서	-13892
▁시작하면서	-13893
▁스코틀랜드의	-13894
링은	-13895
인권	-13896
티시	-13897
▁가동	-13898
▁드는	-13899
▁사관	-13900
▁사정	-13901
▁아소	-13902
▁임관	-13903
▁가정에서	-13904
▁or	-13905
▁넘게	-13906
▁본명	-13907
▁압둘	-13908
▁통영	-13909
행위를	-13910
▁위원회의	-13911
빈은	-13912
alk	-13913
erm	-13914
▁견제	-13915
▁왜곡	-13916
▁종족	-13917
▁확신	-13918
▁것인지	-13919
▁고향인	-13920
머는	-13921
변에	-13922
전차	-13923
▁퇴임	-13924
경찰서	-13925
▁기업인	-13926
▁여성은	-13927
▁자료가	-13928
루아	-13929
▁충실	-13930
▁다카라	-13931
▁의원을	-13932
▁평화를	-13933
▁Life	-13934
▁타이베이	-13935
나시	-13936
-201	-13937
ield	-13938
▁공격수	-13939
▁예수의	-13940
일자	-13941
평론	-13942
ett	-13943
▁대책	-13944
▁여우	-13945
▁우승했다	-13946
▁콜로라도	-13947
▁디트로이트	-13948
티가	-13949
▁간신	-13950
▁섬을	-13951
▁커리	-13952
▁태극	-13953
▁테르	-13954
▁80%	-13955
▁정치를	-13956
▁정치에	-13957
▁중대한	-13958
OU	-13959
링턴	-13960
제학	-13961
▁현악	-13962
▁격렬한	-13963
▁연결되는	-13964
▁개통되었다	-13965
봉사	-13966
환은	-13967
▁김민	-13968
▁발칸	-13969
▁작가의	-13970
▁정권의	-13971
▁허가를	-13972
▁점령하고	-13973
▁페이스북	-13974
드릭	-13975
브스	-13976
▁과일	-13977
▁피의	-13978
▁레인저	-13979
▁정당은	-13980
▁작가이다	-13981
▁아이스하키	-13982
효과	-13983
▁83	-13984
▁스태	-13985
▁윤리	-13986
▁국왕의	-13987
▁마르코	-13988
▁전하는	-13989
▁1882	-13990
▁1893	-13991
▁대응하는	-13992
▁최대풍속	-13993
AI	-13994
단지	-13995
▁기회	-13996
▁남게	-13997
판에서	-13998
▁휘하의	-13999
▁부드러운	-14000
▁해당된다	-14001
롭고	-14002
타스	-14003
isc	-14004
▁명사	-14005
▁입을	-14006
▁전지	-14007
▁지수	-14008
▁창출	-14009
받았고	-14010
▁분리된	-14011
?)	-14012
▁감리	-14013
▁생체	-14014
▁이씨	-14015
▁추첨	-14016
호선과	-14017
▁건설된	-14018
▁사이토	-14019
▁나섰	-14020
▁세상	-14021
▁없었	-14022
▁경기의	-14023
▁영국에	-14024
▁슬로베니아	-14025
▁z	-14026
국적	-14027
▁값이	-14028
▁고사	-14029
▁불상	-14030
▁폭로	-14031
▁현금	-14032
되어있다	-14033
▁수료	-14034
▁해고	-14035
▁도널드	-14036
▁재판을	-14037
▁프란체	-14038
코타	-14039
▁건륭	-14040
▁교리	-14041
▁하차	-14042
품으로	-14043
▁물건을	-14044
erson	-14045
▁겁	-14046
elf	-14047
▁AD	-14048
▁강희	-14049
▁냄새	-14050
▁모양이	-14051
▁점수를	-14052
▁혁명의	-14053
▁International	-14054
강은	-14055
아과	-14056
쿠니	-14057
혹은	-14058
환이	-14059
▁응시	-14060
▁이데	-14061
▁뉴저지	-14062
▁보다는	-14063
▁스페이스	-14064
▁출신이며	-14065
절이	-14066
its	-14067
▁맺은	-14068
▁선도	-14069
▁호응	-14070
▁센다이	-14071
▁외에는	-14072
▁Night	-14073
▁비판하였다	-14074
▁프로젝트의	-14075
▁상인	-14076
▁시공	-14077
▁관련해	-14078
▁엑스박스	-14079
루이스	-14080
▁War	-14081
▁경찰의	-14082
▁이곳을	-14083
▁그로부터	-14084
▁레스토랑	-14085
▁발견되어	-14086
가요	-14087
린을	-14088
점인	-14089
▁유라	-14090
▁가사를	-14091
▁딸이다	-14092
▁절차를	-14093
▁John	-14094
▁요청했다	-14095
▁의미하며	-14096
아야	-14097
▁Br	-14098
▁달걀	-14099
▁로그	-14100
▁무실	-14101
▁절단	-14102
▁프론	-14103
▁함수의	-14104
▁불가능하다	-14105
노르	-14106
▁Mc	-14107
▁원을	-14108
▁회수	-14109
우리는	-14110
지금의	-14111
클레오	-14112
▁끌었다	-14113
▁대체되었다	-14114
EM	-14115
▁킥	-14116
나에	-14117
▁공과	-14118
▁루시	-14119
▁무지	-14120
▁보드	-14121
▁도입하였다	-14122
무가	-14123
▁슈타	-14124
▁앞면	-14125
▁서울대	-14126
▁선택할	-14127
▁아키타	-14128
▁동일하다	-14129
▁종교개혁	-14130
▁등장하였다	-14131
EX	-14132
번지	-14133
▁선출된	-14134
▁지나는	-14135
커가	-14136
-23	-14137
▁견인	-14138
▁마오쩌	-14139
▁벼슬을	-14140
▁토지를	-14141
시켰으며	-14142
▁대학교를	-14143
.12	-14144
~15	-14145
▁군이	-14146
▁등용	-14147
▁기간은	-14148
▁학문을	-14149
▁System	-14150
▁지정되었다가	-14151
건축	-14152
▁쪽은	-14153
▁카사	-14154
▁계약이	-14155
▁도시철도	-14156
▁만족시키는	-14157
행의	-14158
-13	-14159
▁김홍	-14160
▁법의	-14161
▁지름	-14162
▁충전	-14163
▁콘솔	-14164
번으로	-14165
avid	-14166
▁여파로	-14167
▁연고지로	-14168
▁Do	-14169
▁만세	-14170
▁사간	-14171
▁상세	-14172
▁팔레스타인	-14173
살의	-14174
월호	-14175
▁급성	-14176
▁민영	-14177
▁쌓은	-14178
▁해의	-14179
▁비율로	-14180
▁진출한	-14181
▁유지하기	-14182
현대	-14183
▁아날	-14184
▁음료	-14185
▁주위	-14186
▁직장	-14187
▁규정에	-14188
▁무대로	-14189
ari	-14190
▁Su	-14191
▁농림	-14192
▁모용	-14193
▁세비	-14194
▁영등	-14195
▁세력의	-14196
▁태국의	-14197
▁조선로동당	-14198
부상	-14199
주자	-14200
티드	-14201
ave	-14202
▁93	-14203
▁몸의	-14204
▁줄여	-14205
▁중공	-14206
▁소재지는	-14207
▁적용되었다	-14208
내가	-14209
▁(2	-14210
▁넓게	-14211
되므로	-14212
ille	-14213
▁가문은	-14214
▁경상도	-14215
▁지구에	-14216
▁오케스트	-14217
▁간토	-14218
▁대두	-14219
▁주머니	-14220
▁오케스트라	-14221
▁엮	-14222
▁Ap	-14223
▁서포	-14224
▁칼뱅	-14225
▁교회를	-14226
▁서울의	-14227
▁조직이	-14228
▁1892	-14229
루수	-14230
이한	-14231
▁경향을	-14232
▁자세히	-14233
▁김병	-14234
기록을	-14235
▁뒤이어	-14236
▁산하의	-14237
▁헌법에	-14238
▁공격으로	-14239
▁그레고리오	-14240
▁잘라	-14241
▁탐구	-14242
▁아름답	-14243
▁정치적인	-14244
▁캉	-14245
공연	-14246
애틀	-14247
원인	-14248
▁남구	-14249
끄러운	-14250
▁경로를	-14251
▁아니라는	-14252
▁증가하고	-14253
심히	-14254
▁위와	-14255
▁유의	-14256
▁차용	-14257
▁보여준	-14258
▁스즈키	-14259
▁조선에	-14260
▁분위기를	-14261
▁학생들의	-14262
▁기록되었다	-14263
)(	-14264
교와	-14265
▁IM	-14266
▁부설	-14267
▁양육	-14268
▁이천	-14269
▁시장의	-14270
▁해마다	-14271
도스	-14272
본의	-14273
▁Sm	-14274
▁수색	-14275
▁자칭	-14276
▁파인	-14277
누스의	-14278
ange	-14279
▁경계로	-14280
▁도왔다	-14281
▁정차한다	-14282
슬레	-14283
▁돌출	-14284
▁들을	-14285
▁숨어	-14286
▁요새를	-14287
▁개념으로	-14288
▁야마구치	-14289
▁이를테면	-14290
생은	-14291
영과	-14292
사들이	-14293
▁상황은	-14294
▁인간을	-14295
▁질문에	-14296
인당	-14297
킨스	-14298
▁배가	-14299
▁상표	-14300
▁소통	-14301
스트가	-14302
▁붙여진	-14303
▁소리가	-14304
▁순위를	-14305
보니	-14306
빈의	-14307
화할	-14308
▁가솔	-14309
▁니코	-14310
▁당주	-14311
▁병을	-14312
▁선로	-14313
▁경찰이	-14314
▁명이다	-14315
▁위원장	-14316
대학교의	-14317
맥스	-14318
심은	-14319
파리	-14320
▁없던	-14321
▁체인	-14322
▁플래티넘	-14323
▁{	-14324
신에	-14325
▁SD	-14326
▁미션	-14327
▁사서	-14328
▁상담	-14329
▁회피	-14330
크리트	-14331
▁똑같은	-14332
▁예이다	-14333
▁저작권	-14334
▁강점기의	-14335
▁사람들과	-14336
▁신조	-14337
▁약혼	-14338
당하는	-14339
▁가지의	-14340
▁시대가	-14341
▁주어졌다고	-14342
▁포스트시즌	-14343
▁station	-14344
시청	-14345
폭탄	-14346
▁제니	-14347
루시아	-14348
지역에	-14349
▁가깝다	-14350
▁그러다가	-14351
▁시리즈에	-14352
너가	-14353
메가	-14354
▁GP	-14355
▁공습	-14356
▁로버	-14357
▁리베	-14358
▁보라	-14359
▁스테이	-14360
▁임명된	-14361
▁종목은	-14362
▁발생하여	-14363
▁씌	-14364
운이	-14365
▁미친	-14366
▁로마에	-14367
▁비행기	-14368
▁임명되었고	-14369
오나	-14370
▁방법에	-14371
▁진행하는	-14372
리얼	-14373
치노	-14374
▁백화	-14375
▁산의	-14376
▁재편	-14377
우스가	-14378
하기는	-14379
▁섬이다	-14380
▁케네디	-14381
▁토리노	-14382
법인이다	-14383
▁방송되는	-14384
▁정의된다	-14385
▁Music	-14386
Cl	-14387
_12	-14388
air	-14389
▁맞대	-14390
단했다	-14391
주머니	-14392
▁뒤에도	-14393
▁드래프트에서	-14394
▁라오	-14395
▁소모	-14396
▁실버	-14397
업으로	-14398
▁볼셰비	-14399
▁사업에	-14400
▁음반이	-14401
▁출판된	-14402
▁설치하여	-14403
▁취임하였다	-14404
▁말미	-14405
▁모인	-14406
▁조화	-14407
▁미야기	-14408
▁사랑에	-14409
▁아이폰	-14410
대한민국	-14411
merican	-14412
인칭	-14413
Com	-14414
▁발각	-14415
▁압력	-14416
▁컴백	-14417
▁사카이	-14418
▁엔진이	-14419
▁동참	-14420
▁형상	-14421
이었을	-14422
▁어렸을	-14423
▁경연	-14424
▁비영	-14425
▁시종	-14426
▁치안	-14427
▁파나	-14428
전이다	-14429
▁Art	-14430
▁열린다	-14431
▁이해할	-14432
▁질량이	-14433
▁실시하고	-14434
En	-14435
체계	-14436
▁쓰레	-14437
▁전날	-14438
▁퍼포먼	-14439
년대까지	-14440
▁Time	-14441
▁로마에서	-14442
▁룰	-14443
▁서적	-14444
▁수녀	-14445
▁그룹에	-14446
▁지구를	-14447
▁청주시	-14448
▁거부하고	-14449
▁시즌부터	-14450
▁유래했다	-14451
▁우크라이나의	-14452
▁다비	-14453
▁터보	-14454
▁NGC	-14455
▁가지로	-14456
▁대도시	-14457
▁메달을	-14458
▁문화와	-14459
▁시간의	-14460
▁아돌프	-14461
▁여성을	-14462
법률	-14463
▁국어	-14464
▁세조	-14465
▁연합군	-14466
▁변경했다	-14467
▁독립운동가	-14468
CAF	-14469
▁들려	-14470
▁입헌	-14471
▁짐작	-14472
▁휴전	-14473
기관의	-14474
▁완성된	-14475
▁장애인	-14476
▁시작하였으며	-14477
▁커뮤니케이션	-14478
▁ID	-14479
▁군청	-14480
▁사바	-14481
▁오크	-14482
▁진실	-14483
▁태자	-14484
지었다	-14485
키아의	-14486
▁1.0	-14487
▁1848	-14488
▁개념이다	-14489
EA	-14490
카에	-14491
▁만료	-14492
▁실력	-14493
▁연봉	-14494
▁정립	-14495
▁가져온	-14496
▁모니터	-14497
▁정기적으로	-14498
▁꿀	-14499
운의	-14500
rag	-14501
▁6,	-14502
▁개를	-14503
▁믿는	-14504
▁집결	-14505
▁탁월	-14506
▁궤도를	-14507
▁이상한	-14508
▁토너먼	-14509
급을	-14510
전략	-14511
트레	-14512
함수	-14513
▁데모	-14514
▁브랜	-14515
▁크롬	-14516
▁하비	-14517
▁가격이	-14518
▁더이상	-14519
▁동유럽	-14520
▁마다가	-14521
▁묘사한	-14522
▁클라우드	-14523
▁우즈베키스탄	-14524
(9	-14525
히트	-14526
▁공손	-14527
▁무궁	-14528
▁싸우는	-14529
(2006	-14530
▁도착했다	-14531
▁밭	-14532
러드	-14533
로프	-14534
lor	-14535
▁꽃이	-14536
▁균형을	-14537
▁리더십	-14538
▁선발로	-14539
▁청와대	-14540
▁구해	-14541
▁글자	-14542
▁이닝	-14543
▁포착	-14544
▁함대	-14545
▁헬륨	-14546
▁자랐다	-14547
▁장군은	-14548
▁가네	-14549
▁불태	-14550
▁신정	-14551
▁요약	-14552
▁안전한	-14553
▁Rock	-14554
▁디자인은	-14555
▁승강장을	-14556
▁제기되었다	-14557
상업	-14558
▁곡선	-14559
▁시험을	-14560
▁웨스턴	-14561
학자이자	-14562
▁Fran	-14563
▁거부했다	-14564
인산	-14565
▁메릴	-14566
▁저하	-14567
▁건축물	-14568
▁목록을	-14569
▁흔적이	-14570
▁스타리그	-14571
진보	-14572
컴퓨	-14573
황이	-14574
▁긴장	-14575
▁문인	-14576
▁분출	-14577
▁아유	-14578
▁맨해튼	-14579
▁바꾸는	-14580
▁방사성	-14581
▁나타내고	-14582
▁일어나고	-14583
▁경기장이다	-14584
▁플레이어가	-14585
▁아리스토텔레	-14586
▁뾰	-14587
▁킴	-14588
씨로	-14589
▁끌고	-14590
▁이장	-14591
▁0.0	-14592
▁애비뉴	-14593
락이	-14594
병은	-14595
▁과반	-14596
▁안나	-14597
▁캐서	-14598
▁말부터	-14599
설에	-14600
▁손실	-14601
▁앞장	-14602
▁지평	-14603
▁판정	-14604
▁물질이	-14605
▁비하여	-14606
▁유럽과	-14607
▁건축물이다	-14608
야에	-14609
체고	-14610
▁투명	-14611
▁리그인	-14612
▁것입니다	-14613
▁워크	-14614
▁자크	-14615
▁정유	-14616
▁htt	-14617
▁동쪽의	-14618
▁모습은	-14619
▁수단으로	-14620
여우	-14621
집의	-14622
▁모나	-14623
▁from	-14624
▁체포되었다	-14625
법칙	-14626
트루	-14627
▁측에	-14628
▁뛰었다	-14629
▁서쪽의	-14630
▁숙청	-14631
▁이산	-14632
▁절차	-14633
▁지미	-14634
▁각국의	-14635
▁그룹이	-14636
▁기하여	-14637
▁활발히	-14638
▁올랐으며	-14639
▁피아니스트	-14640
▁해체되었다	-14641
모스	-14642
▁가오	-14643
▁우회	-14644
▁사전에	-14645
▁알리는	-14646
▁이라고	-14647
▁제도는	-14648
▁투수가	-14649
▁가르쳤다	-14650
mus	-14651
▁경작	-14652
▁반공	-14653
▁부재	-14654
▁기간이	-14655
▁북아일랜드	-14656
▁10,000	-14657
피가	-14658
형인	-14659
▁견해	-14660
▁공표	-14661
▁기단	-14662
▁나주	-14663
때문에	-14664
▁정권이	-14665
▁주연을	-14666
▁중국인	-14667
▁필리프	-14668
▁상관없이	-14669
메드	-14670
발사	-14671
rat	-14672
▁국장	-14673
▁동문	-14674
▁투여	-14675
▁평정	-14676
에너지	-14677
▁데스크	-14678
▁붙었다	-14679
▁센고쿠	-14680
▁여우주연	-14681
RC	-14682
▁상응	-14683
▁평평	-14684
차이나	-14685
▁갈등이	-14686
▁문제와	-14687
▁다이아몬드	-14688
런은	-14689
▁돌을	-14690
▁비치	-14691
▁저널	-14692
▁추종	-14693
▁역사와	-14694
▁장소로	-14695
▁푸에르	-14696
ience	-14697
▁미네소타	-14698
▁지도자로	-14699
▁엇	-14700
리니	-14701
쿠르	-14702
토와	-14703
거리가	-14704
▁분석을	-14705
▁지역인	-14706
▁이전까지	-14707
분과	-14708
▁le	-14709
▁가열	-14710
▁유동	-14711
▁즈음	-14712
▁하동	-14713
▁국가와	-14714
▁선수들	-14715
▁작성한	-14716
▁치열한	-14717
▁공격했다	-14718
▁학생들을	-14719
▁뻔	-14720
말에	-14721
서기	-14722
조부	-14723
▁타협	-14724
해졌고	-14725
▁2-0	-14726
▁프로그램인	-14727
관련	-14728
한이	-14729
▁관악	-14730
▁루카	-14731
▁종을	-14732
▁파이터	-14733
▁표현한	-14734
El	-14735
▁앤더	-14736
▁이태	-14737
Fran	-14738
ited	-14739
▁들어올	-14740
▁모두를	-14741
▁부드럽	-14742
▁소련이	-14743
▁되었다는	-14744
네르	-14745
어족	-14746
▁굵은	-14747
▁명목	-14748
▁뽑아	-14749
티미터	-14750
티아의	-14751
▁막부의	-14752
▁선생의	-14753
▁열차를	-14754
▁1600	-14755
▁1868	-14756
ean	-14757
▁EU	-14758
▁IN	-14759
▁감수	-14760
▁국유	-14761
▁석탑	-14762
▁원조	-14763
▁부대가	-14764
▁전략을	-14765
▁주위에	-14766
▁컨트리	-14767
▁섀	-14768
▁쾰	-14769
망에	-14770
야스	-14771
▁윤보	-14772
▁가족을	-14773
▁남성의	-14774
▁소문이	-14775
▁송나라	-14776
세기까지	-14777
▁동일하게	-14778
▁낫	-14779
▁AN	-14780
▁가자	-14781
▁바흐	-14782
▁그룹을	-14783
▁독일에	-14784
메다	-14785
작인	-14786
찬을	-14787
취를	-14788
▁드레	-14789
▁이룩	-14790
▁통용	-14791
▁해명	-14792
위원을	-14793
▁세워져	-14794
▁제시한	-14795
▁중국은	-14796
▁인정하는	-14797
변의	-14798
염을	-14799
▁마녀	-14800
▁영유	-14801
▁펑크	-14802
▁Par	-14803
▁가상의	-14804
▁극심한	-14805
▁기관총	-14806
▁기여를	-14807
▁뉴욕주	-14808
▁사라진	-14809
▁자체의	-14810
▁미사일을	-14811
▁제주특별자치도	-14812
번이	-14813
ior	-14814
▁Gu	-14815
▁번성	-14816
▁석회	-14817
▁양을	-14818
▁타당	-14819
▁다이어	-14820
▁되었던	-14821
▁주위를	-14822
▁통합하여	-14823
RS	-14824
망의	-14825
▁Qu	-14826
▁늦게	-14827
▁파동	-14828
▁한해	-14829
년에도	-14830
▁나라는	-14831
▁세력은	-14832
▁시작할	-14833
▁가브리엘	-14834
▁연립	-14835
▁이송	-14836
▁결정에	-14837
▁꼽힌다	-14838
▁나오고	-14839
▁소련은	-14840
▁클레멘	-14841
▁각지에서	-14842
▁대중교통	-14843
▁영화제에서	-14844
▁때가	-14845
▁마가	-14846
▁불린	-14847
▁최성	-14848
▁히사	-14849
▁인류의	-14850
▁흐름을	-14851
덴부르크	-14852
▁GN	-14853
▁낙동	-14854
▁다를	-14855
▁빌라	-14856
▁천재	-14857
▁호프	-14858
▁오로지	-14859
▁고려하여	-14860
▁기본으로	-14861
들리	-14862
터키	-14863
aut	-14864
▁은메달	-14865
▁터키의	-14866
▁압도적인	-14867
능한	-14868
당인	-14869
▁7,	-14870
▁늑대	-14871
▁동조	-14872
▁파산	-14873
▁폭행	-14874
▁피를	-14875
▁90%	-14876
▁마스크	-14877
▁수용할	-14878
▁슬라브	-14879
▁카드를	-14880
▁홍콩의	-14881
Wh	-14882
현실	-14883
▁예는	-14884
▁차를	-14885
▁높이가	-14886
▁동영상	-14887
▁통과하는	-14888
밀히	-14889
요를	-14890
히코	-14891
▁무척	-14892
▁스노	-14893
▁어뢰	-14894
▁황족	-14895
▁가족과	-14896
▁알프레	-14897
▁저기압	-14898
런의	-14899
표는	-14900
▁교양	-14901
▁양반	-14902
▁탄도	-14903
▁실력을	-14904
▁수행한다	-14905
▁카탈루냐	-14906
▁필요성을	-14907
▁델라	-14908
▁유가	-14909
▁아미타	-14910
▁개발했다	-14911
▁시즈오카	-14912
▁형성되어	-14913
▁케임브리지	-14914
▁헥	-14915
개에	-14916
지오	-14917
▁GO	-14918
▁LA	-14919
▁위헌	-14920
▁시애틀	-14921
▁와일드	-14922
▁의사소	-14923
▁자기의	-14924
▁지방도	-14925
▁통일신라	-14926
Sp	-14927
형제	-14928
▁감싸	-14929
▁갑옷	-14930
▁터치	-14931
▁티켓	-14932
▁풍자	-14933
▁회상	-14934
▁흥미	-14935
▁신화의	-14936
▁벨기에의	-14937
▁병원에서	-14938
▁간선	-14939
▁겪고	-14940
▁곤란	-14941
▁주자	-14942
석에서	-14943
▁동부에	-14944
▁미치지	-14945
▁올리는	-14946
▁카르타	-14947
▁투수로	-14948
세기에는	-14949
▁이적하여	-14950
▁체코슬로바키아	-14951
▁으	-14952
직은	-14953
▁밀리	-14954
▁살려	-14955
▁세자	-14956
▁유진	-14957
▁토끼	-14958
선거구	-14959
▁붙였다	-14960
▁아스널	-14961
직의	-14962
ros	-14963
▁미상	-14964
▁선과	-14965
▁실존	-14966
밀하게	-14967
▁대신해	-14968
▁대표는	-14969
▁중심에	-14970
▁방문하여	-14971
▁고든	-14972
▁나를	-14973
▁레이더	-14974
▁일대의	-14975
▁운영되고	-14976
대군	-14977
중추	-14978
▁리보	-14979
▁마닐	-14980
▁모호	-14981
▁직할	-14982
팀으로	-14983
▁역사에서	-14984
▁효과적인	-14985
▁빔	-14986
리사	-14987
빌딩	-14988
▁기기	-14989
▁총장	-14990
왕후의	-14991
▁저널리	-14992
▁정책은	-14993
▁효고현	-14994
▁받으면서	-14995
▁듀얼	-14996
▁앞의	-14997
▁허위	-14998
여명의	-14999
터에서	-15000
▁교수를	-15001
▁불규칙	-15002
▁부르고뉴	-15003
▁옥스퍼드	-15004
▁일이었다	-15005
▁돌격	-15006
▁복용	-15007
▁히라	-15008
문화유산	-15009
▁살아있는	-15010
▁스타일을	-15011
▁사용하기도	-15012
림과	-15013
600	-15014
▁공천	-15015
▁권유	-15016
▁면허	-15017
▁연소	-15018
▁현행	-15019
▁본래의	-15020
▁증상이	-15021
▁고려시대	-15022
비오	-15023
원자	-15024
▁판매를	-15025
▁하루에	-15026
▁현재도	-15027
▁성적으로	-15028
▁용어이다	-15029
▁인디애나	-15030
훈을	-15031
▁다저	-15032
▁닫힌	-15033
▁독창	-15034
▁도입한	-15035
▁생산된	-15036
▁트로이	-15037
▁노란	-15038
▁짧고	-15039
호선이	-15040
▁CBS	-15041
▁똑같이	-15042
▁반도체	-15043
▁왔으며	-15044
▁간격으로	-15045
▁대대적인	-15046
▁3)	-15047
▁온갖	-15048
▁회로	-15049
▁가을에	-15050
▁백제의	-15051
▁크라이	-15052
▁Girl	-15053
설은	-15054
▁발의	-15055
▁본인	-15056
▁부시	-15057
▁지장	-15058
들었다	-15059
스키는	-15060
양으로	-15061
▁따뜻한	-15062
▁인공지능	-15063
▁오늘날에는	-15064
BI	-15065
누마	-15066
창한	-15067
▁농경	-15068
▁동인	-15069
▁해저	-15070
▁오르는	-15071
▁위주로	-15072
▁집안의	-15073
▁콤팩트	-15074
▁선수로서	-15075
몽골	-15076
▁가환	-15077
▁군산	-15078
▁동위	-15079
▁배후	-15080
▁평을	-15081
직으로	-15082
▁스카우	-15083
▁요시노	-15084
▁이르렀	-15085
▁100%	-15086
▁1886	-15087
▁노이	-15088
▁콘테	-15089
▁내리는	-15090
▁작업은	-15091
▁여겨졌다	-15092
▁연기했다	-15093
디지	-15094
훈은	-15095
테리아	-15096
▁스트레	-15097
▁Tour	-15098
창군	-15099
▁연못	-15100
▁읽고	-15101
▁자생	-15102
▁조광	-15103
로이드	-15104
안에서	-15105
▁애리조	-15106
▁혁명을	-15107
▁지원하고	-15108
▁캐나다에서	-15109
돌은	-15110
요는	-15111
▁도네	-15112
▁세기	-15113
▁점수	-15114
바야시	-15115
▁누구나	-15116
▁유지했다	-15117
엔터테인먼	-15118
이야	-15119
▁다름	-15120
▁매매	-15121
▁비엔	-15122
▁상경	-15123
▁장미	-15124
▁태백	-15125
▁갈리아	-15126
▁일제의	-15127
▁관계없이	-15128
니오	-15129
▁토크	-15130
▁패전	-15131
사회의	-15132
over	-15133
▁사항을	-15134
▁외교관	-15135
▁샌드	-15136
▁원격	-15137
역까지	-15138
지지만	-15139
▁친일파	-15140
▁후지와라노	-15141
▁가늘	-15142
▁고토	-15143
▁발령	-15144
▁조류	-15145
▁체크	-15146
해야만	-15147
▁1891	-15148
▁발견되지	-15149
▁형성되었다	-15150
노래	-15151
_15	-15152
▁LP	-15153
▁땄다	-15154
▁배려	-15155
▁뾰족	-15156
▁민간인	-15157
▁올바른	-15158
▁창원시	-15159
▁부근에서	-15160
▁추구하는	-15161
▁딕	-15162
▁91	-15163
▁Pe	-15164
▁농장	-15165
▁카카	-15166
▁Bar	-15167
▁소나무	-15168
▁책이다	-15169
▁플래시	-15170
▁넷째	-15171
▁다마	-15172
▁이규	-15173
▁(16	-15174
▁구간의	-15175
▁연구와	-15176
▁중국을	-15177
▁생겨났다	-15178
▁아날로그	-15179
▁판매하는	-15180
날레	-15181
▁강동	-15182
▁고인	-15183
▁박람	-15184
▁박헌	-15185
▁불참	-15186
▁원숭	-15187
▁제퍼	-15188
메이지	-15189
▁건조한	-15190
▁생방송	-15191
▁수도를	-15192
▁통치를	-15193
▁내용이다	-15194
▁노선이다	-15195
산물	-15196
시카	-15197
편은	-15198
▁강에	-15199
▁궁궐	-15200
▁우측	-15201
▁한족	-15202
berg	-15203
▁다케다	-15204
▁인접해	-15205
▁차트에	-15206
▁하도록	-15207
졌기	-15208
▁맞고	-15209
▁춤을	-15210
▁쓰여진	-15211
▁선수단은	-15212
▁다카라즈카	-15213
보와	-15214
장로	-15215
▁김제	-15216
▁오류	-15217
▁원인으로	-15218
업체	-15219
제곱	-15220
집은	-15221
▁제의	-15222
▁하반	-15223
▁제도에	-15224
RO	-15225
ein	-15226
▁목성	-15227
▁연인	-15228
▁입양	-15229
ular	-15230
▁떨어뜨	-15231
▁머리에	-15232
▁못하여	-15233
▁생성된	-15234
▁열차의	-15235
▁인간은	-15236
▁장르의	-15237
주의적인	-15238
▁1887	-15239
▁이전부터	-15240
▁At	-15241
▁광양	-15242
▁무작	-15243
▁작아	-15244
▁키가	-15245
iver	-15246
▁자란다	-15247
▁내에서는	-15248
▁내정	-15249
▁유비	-15250
▁트렌	-15251
개월간	-15252
▁서식지는	-15253
▁한편으로	-15254
▁수록되었다	-15255
▁시즌에서는	-15256
~7	-15257
천사	-15258
행에	-15259
▁배속	-15260
▁얇은	-15261
▁오로	-15262
▁용암	-15263
▁즐길	-15264
▁공격해	-15265
▁유지할	-15266
▁나타나고	-15267
시킴	-15268
▁격투	-15269
▁별이	-15270
▁이방	-15271
▁물체의	-15272
▁바꾸고	-15273
▁청동기	-15274
▁치렀고	-15275
▁아랍에미	-15276
▁프로그램으로	-15277
_13	-15278
▁것일	-15279
▁결선	-15280
▁년간	-15281
▁논란을	-15282
▁소유한	-15283
▁시도를	-15284
▁원나라	-15285
▁총리는	-15286
▁발견하고	-15287
ations	-15288
▁전이	-15289
세이다	-15290
▁그렸다	-15291
▁레이싱	-15292
▁마을이	-15293
▁싸움을	-15294
/3	-15295
▁고소	-15296
▁바우	-15297
~201	-15298
▁Med	-15299
▁반응이	-15300
▁서부에	-15301
▁서울에	-15302
▁성향의	-15303
▁시간대	-15304
세다	-15305
▁난을	-15306
▁음향	-15307
▁장을	-15308
▁체르	-15309
▁후세	-15310
년경에	-15311
▁아무것도	-15312
의학	-15313
▁내무	-15314
▁링크	-15315
▁배수	-15316
▁유벤	-15317
▁은거	-15318
orth	-15319
▁면적의	-15320
▁수학적	-15321
▁의무를	-15322
▁종교의	-15323
▁표현할	-15324
▁노선으로	-15325
▁늘어났다	-15326
▁세종특별자치	-15327
▁El	-15328
▁리옹	-15329
▁음원	-15330
ella	-15331
▁도로를	-15332
▁수행했다	-15333
▁맺어	-15334
▁스텔	-15335
▁치고	-15336
▁패럴	-15337
▁프렌	-15338
학교의	-15339
▁그것의	-15340
▁대화를	-15341
▁반응은	-15342
▁않아서	-15343
▁영지를	-15344
LC	-15345
에의	-15346
조각	-15347
준이	-15348
▁모자	-15349
▁올드	-15350
▁동등한	-15351
▁순으로	-15352
성인	-15353
채가	-15354
캐슬	-15355
▁동점	-15356
▁보성	-15357
▁세트	-15358
▁집정	-15359
▁키는	-15360
▁품질	-15361
▁일하고	-15362
▁클럽이다	-15363
▁미드필더로	-15364
▁업그레이드	-15365
가장	-15366
▁데카	-15367
▁윌슨	-15368
▁차원	-15369
액이	-15370
▁처분	-15371
▁황해	-15372
위이다	-15373
▁사태가	-15374
▁선수의	-15375
▁바르샤바	-15376
▁작품에서	-15377
▁명은	-15378
▁세라	-15379
▁합친	-15380
게이트	-15381
만명의	-15382
▁김정은	-15383
▁생각이	-15384
▁제출한	-15385
▁기념하여	-15386
▁종료되었다	-15387
치히	-15388
▁La	-15389
▁원의	-15390
▁일일	-15391
▁자산	-15392
▁연합군의	-15393
것은	-15394
님은	-15395
림은	-15396
알라	-15397
ows	-15398
▁김옥	-15399
▁수령	-15400
▁초빙	-15401
▁영국이	-15402
▁경질	-15403
▁광학	-15404
▁요인	-15405
▁파손	-15406
▁해남	-15407
▁심하게	-15408
▁1,500	-15409
▁릭	-15410
분교	-15411
있게	-15412
▁여운	-15413
▁싸웠다	-15414
▁아키텍	-15415
▁제국과	-15416
▁철학적	-15417
▁한계를	-15418
시한	-15419
▁삼중	-15420
▁아산	-15421
▁않자	-15422
▁마천루	-15423
▁아폴로	-15424
계에서는	-15425
▁고등교육	-15426
▁설명하고	-15427
▁출연하여	-15428
나로	-15429
러를	-15430
▁미세	-15431
▁순조	-15432
사단은	-15433
▁아이치현	-15434
▁않았다는	-15435
▁전반적인	-15436
분열	-15437
ena	-15438
▁부총	-15439
▁서원	-15440
▁연수	-15441
호선은	-15442
▁MTV	-15443
▁관직에	-15444
▁철도는	-15445
▁헤르체고	-15446
사도	-15447
ety	-15448
oot	-15449
▁구와	-15450
▁어쩔	-15451
▁주입	-15452
▁장면이	-15453
▁지리적	-15454
▁참여할	-15455
▁코치를	-15456
▁현상은	-15457
▁므	-15458
▁우정	-15459
▁입국	-15460
▁치세	-15461
속에서	-15462
▁가르침	-15463
▁독일인	-15464
▁서식지	-15465
▁도쿄에서	-15466
▁애틀랜타	-15467
HC	-15468
민과	-15469
바오	-15470
▁생일	-15471
▁현종	-15472
오스트	-15473
▁세군다	-15474
▁앨범에	-15475
▁자유형	-15476
▁죽음에	-15477
▁협력을	-15478
▁방면으로	-15479
▁정상적인	-15480
▁스트라이커	-15481
병과	-15482
▁돌로	-15483
▁매체	-15484
▁조병	-15485
▁팀과	-15486
▁포스	-15487
레이트	-15488
▁des	-15489
▁도시인	-15490
▁엘리트	-15491
▁증거를	-15492
▁혼란을	-15493
▁극장에서	-15494
ux	-15495
▁샀	-15496
▁팰	-15497
▁AG	-15498
▁중등	-15499
▁칸은	-15500
▁쿠빌	-15501
▁동메달	-15502
▁역까지	-15503
여자중학교	-15504
광을	-15505
선발	-15506
천면	-15507
▁an	-15508
▁느린	-15509
▁전격	-15510
년도에	-15511
쪽에는	-15512
▁과도한	-15513
▁도덕적	-15514
▁따왔다	-15515
▁유리한	-15516
▁해군은	-15517
▁진행하였다	-15518
AF	-15519
▁샐	-15520
카쓰	-15521
피에	-15522
▁경에	-15523
▁막는	-15524
▁타자	-15525
화하기	-15526
▁나라가	-15527
▁바다에	-15528
▁불안정	-15529
▁프레데	-15530
▁강조했다	-15531
유지	-15532
▁대패	-15533
▁목판	-15534
▁부도	-15535
▁상부	-15536
▁어업	-15537
▁죽인	-15538
▁중퇴	-15539
▁스포르	-15540
▁회원국	-15541
▁그룹으로	-15542
난을	-15543
▁가맹	-15544
▁광명	-15545
▁지쿠	-15546
▁내용에	-15547
▁앨범인	-15548
▁1876	-15549
▁실패하고	-15550
▁적용된다	-15551
▁베네수엘라	-15552
▁앰	-15553
비르	-15554
▁고원	-15555
▁김유	-15556
▁당원	-15557
▁부유	-15558
▁논쟁이	-15559
▁양식의	-15560
▁지바현	-15561
▁내부에서	-15562
▁일부이다	-15563
▁공수	-15564
▁박지	-15565
▁예고	-15566
▁검사를	-15567
개국에서	-15568
▁1881	-15569
▁평안남도	-15570
▁사이타마현	-15571
놀이	-15572
▁라그	-15573
▁미키	-15574
▁성이	-15575
▁영산	-15576
▁하워드	-15577
▁효과는	-15578
▁단독으로	-15579
▁활동하다가	-15580
▁냈	-15581
▁싣	-15582
raph	-15583
▁THE	-15584
▁받아야	-15585
▁친구인	-15586
▁했었다	-15587
▁헬리콥	-15588
▁작용하는	-15589
노를	-15590
전인	-15591
포와	-15592
▁나비	-15593
▁방침	-15594
▁산지	-15595
▁조지프	-15596
▁되어있다	-15597
▁은퇴하였다	-15598
erg	-15599
▁바에	-15600
▁간신히	-15601
▁리그로	-15602
▁마르티	-15603
▁방향에	-15604
▁제정된	-15605
▁점령했다	-15606
ky	-15607
바퀴	-15608
발은	-15609
승지	-15610
▁델타	-15611
▁투항	-15612
here	-15613
▁무렵에	-15614
▁밖에서	-15615
▁상처를	-15616
▁자메이	-15617
하와	-15618
▁클러	-15619
승으로	-15620
▁3.5	-15621
▁가솔린	-15622
▁국민당	-15623
▁노래가	-15624
▁남북으로	-15625
▁담당한다	-15626
절의	-15627
진군	-15628
▁기수	-15629
▁김원	-15630
▁레온	-15631
▁제너	-15632
부리그	-15633
▁1,2	-15634
▁권위를	-15635
▁역할은	-15636
▁젊은이	-15637
▁헌법을	-15638
▁전국적으로	-15639
리던	-15640
보리	-15641
_19	-15642
▁GT	-15643
▁내어	-15644
▁부에	-15645
▁일간	-15646
▁조세	-15647
▁지출	-15648
감의	-15649
미나	-15650
▁결별	-15651
▁회화	-15652
▁놀라운	-15653
▁보고서	-15654
▁승리에	-15655
▁혐의를	-15656
▁에너지가	-15657
철이	-15658
ula	-15659
▁데서	-15660
▁전복	-15661
▁지류	-15662
루스의	-15663
심으로	-15664
ator	-15665
▁호르몬	-15666
▁그저	-15667
▁40%	-15668
▁구하는	-15669
▁다나카	-15670
▁믿었다	-15671
▁오클랜드	-15672
태를	-15673
▁기인	-15674
▁방콕	-15675
▁펜싱	-15676
▁항목	-15677
물리학	-15678
▁의혹을	-15679
▁선수들의	-15680
▁알래스카	-15681
▁사운드트랙	-15682
야와	-15683
▁국적	-15684
▁명인	-15685
▁씨의	-15686
▁이완	-15687
▁쾌속	-15688
▁헌신	-15689
차례의	-15690
▁경쟁을	-15691
▁당국은	-15692
▁명확한	-15693
▁협정을	-15694
▁평안북도	-15695
HD	-15696
ode	-15697
▁고다	-15698
▁김구	-15699
▁영장	-15700
▁학원	-15701
났지만	-15702
블랜드	-15703
▁썬	-15704
청구	-15705
▁대부	-15706
▁선행	-15707
▁예하	-15708
▁혼성	-15709
▁되도록	-15710
▁마르틴	-15711
▁약속을	-15712
▁열매는	-15713
▁그녀에게	-15714
▁선수들은	-15715
Ed	-15716
가구	-15717
버의	-15718
전달	-15719
▁공신	-15720
케라톱	-15721
ount	-15722
▁관해서는	-15723
▁사용되어	-15724
▁수여받았다	-15725
사르	-15726
▁날이	-15727
▁루키	-15728
▁시부	-15729
▁의결	-15730
▁허리	-15731
vent	-15732
▁70%	-15733
▁총리를	-15734
▁트럼프	-15735
▁황제는	-15736
▁경기도의	-15737
▁위원회는	-15738
▁기여하였다	-15739
▁더불어민주	-15740
XX	-15741
협의	-15742
▁이득	-15743
▁코소	-15744
▁하나다	-15745
▁홍콩에서	-15746
▁#	-15747
공무	-15748
년제	-15749
복음	-15750
▁것의	-15751
▁궁정	-15752
▁맞춘	-15753
섬에서	-15754
▁법무부	-15755
▁스튜어트	-15756
▁영화에서	-15757
▁첸	-15758
부아	-15759
▁이렇	-15760
▁모로코	-15761
▁전통적	-15762
▁광범위하게	-15763
술은	-15764
▁vs	-15765
▁감금	-15766
▁신형	-15767
▁이겨	-15768
▁좌석	-15769
▁영역에	-15770
▁정의는	-15771
▁프랜차	-15772
▁활동하던	-15773
▁심해	-15774
▁대표가	-15775
▁수도로	-15776
▁아이가	-15777
▁언론에	-15778
▁의혹이	-15779
▁표현이	-15780
▁지원하기	-15781
▁캐릭터를	-15782
통은	-15783
lan	-15784
▁미라	-15785
rain	-15786
▁Mon	-15787
▁대사관	-15788
▁세금을	-15789
▁정의를	-15790
▁조정의	-15791
▁독립적으로	-15792
++	-15793
ney	-15794
▁이현	-15795
세였다	-15796
조에서	-15797
▁도로가	-15798
미네	-15799
쉽게	-15800
히데	-15801
▁구형	-15802
▁살라	-15803
▁입구	-15804
▁혼동	-15805
▁손해배	-15806
▁솔로몬	-15807
▁여지가	-15808
▁위에는	-15809
▁주도한	-15810
▁차지했고	-15811
▁국가대표팀에	-15812
~8	-15813
아트	-15814
유도	-15815
크트	-15816
ray	-15817
▁씨앗	-15818
▁증대	-15819
정부가	-15820
▁고대의	-15821
▁몽골의	-15822
▁초창기	-15823
▁의회에서	-15824
법상	-15825
정리	-15826
콜라	-15827
하르	-15828
▁치즈	-15829
▁희곡	-15830
하기가	-15831
illa	-15832
▁기술적	-15833
▁정도에	-15834
▁마오쩌둥	-15835
▁무대에서	-15836
▁부족으로	-15837
니코	-15838
더가	-15839
득점	-15840
레시	-15841
와도	-15842
웠던	-15843
풀이	-15844
▁몰수	-15845
▁분지	-15846
▁시어	-15847
▁카시	-15848
▁타구	-15849
▁브리튼	-15850
▁건물이다	-15851
▁천문학자	-15852
▁겹쳐	-15853
▁다툼	-15854
▁되던	-15855
▁스포	-15856
▁포식	-15857
▁협조	-15858
▁대기업	-15859
▁비주얼	-15860
▁스톡홀름	-15861
▁받아들였다	-15862
▁산성	-15863
▁개인적	-15864
▁방영한	-15865
▁세이부	-15866
▁이름과	-15867
▁임명하였다	-15868
독한	-15869
로워	-15870
lin	-15871
▁계수	-15872
▁고쿠	-15873
▁남미	-15874
▁벽돌	-15875
▁알프	-15876
▁의문	-15877
▁창녕	-15878
정부는	-15879
▁220	-15880
▁가격은	-15881
▁여배우	-15882
▁지키기	-15883
▁직위를	-15884
는가	-15885
통상	-15886
_14	-15887
▁기고	-15888
▁단식	-15889
▁바꿀	-15890
▁왼손	-15891
▁인과	-15892
▁쾰른	-15893
하게도	-15894
▁대대로	-15895
▁부문의	-15896
ensis	-15897
▁애리조나	-15898
▁출전하지	-15899
▁수락	-15900
▁아빠	-15901
▁그보다	-15902
▁낳는다	-15903
▁마리의	-15904
▁미주리	-15905
▁안티오	-15906
▁열심히	-15907
▁낚	-15908
▁흠	-15909
▁안도	-15910
▁마라톤	-15911
▁비영리	-15912
▁알파벳	-15913
▁이용된다	-15914
▁사용되기도	-15915
▁강간	-15916
▁모차	-15917
▁아프	-15918
▁정동	-15919
▁진을	-15920
▁핑크	-15921
▁ATP	-15922
▁무소속	-15923
▁힘으로	-15924
섬과	-15925
▁봄에	-15926
▁상공	-15927
▁여겼다	-15928
▁연합의	-15929
▁음악과	-15930
▁버전으로	-15931
호텔	-15932
▁온건	-15933
▁해부	-15934
▁조성된	-15935
권에서는	-15936
공화	-15937
묘한	-15938
지스	-15939
▁아쿠	-15940
▁유러	-15941
학적인	-15942
▁Don	-15943
▁con	-15944
▁밴쿠버	-15945
▁우려가	-15946
▁작성된	-15947
▁전기의	-15948
축을	-15949
▁찍은	-15950
▁남쪽은	-15951
▁수준을	-15952
▁전당에	-15953
▁한국과	-15954
정상	-15955
▁벌여	-15956
▁스칸	-15957
▁카테	-15958
▁헬싱	-15959
자라고	-15960
▁1-2	-15961
▁명확히	-15962
▁서쪽은	-15963
▁손실을	-15964
안과	-15965
타우	-15966
하겐	-15967
▁박종	-15968
▁부각	-15969
▁취업	-15970
▁휩쓸	-15971
조참판	-15972
린과	-15973
벌을	-15974
선생	-15975
해석	-15976
▁전래	-15977
▁목소리	-15978
▁무리를	-15979
▁참가할	-15980
▁클럽의	-15981
끄러	-15982
정사	-15983
▁대마	-15984
▁봉기	-15985
▁사쿠	-15986
▁요하	-15987
교에서	-15988
hael	-15989
▁병원에	-15990
▁제품의	-15991
▁제공했다	-15992
▁가신	-15993
▁국한	-15994
▁베리	-15995
▁자란	-15996
▁출가	-15997
▁해가	-15998
▁부모의	-15999
▁음반인	-16000
▁전투의	-16001
▁컴퓨팅	-16002
▁관련되어	-16003
BN	-16004
네티	-16005
부작	-16006
종에	-16007
▁CS	-16008
▁모셔	-16009
▁미셸	-16010
▁서민	-16011
▁야외	-16012
▁장흥	-16013
bert	-16014
▁규모를	-16015
▁사건과	-16016
▁전략적	-16017
▁스크린도	-16018
▁만들어진다	-16019
▁찐	-16020
록을	-16021
한은	-16022
▁방치	-16023
▁산둥	-16024
▁와인	-16025
▁차체	-16026
▁취항	-16027
▁카즈	-16028
연으로	-16029
▁규정을	-16030
▁시에서	-16031
▁요제프	-16032
▁조직은	-16033
▁지휘를	-16034
▁다양하게	-16035
▁보존되어	-16036
(12	-16037
▁다윈	-16038
▁대영	-16039
▁드라	-16040
▁스퀘	-16041
▁하키	-16042
▁행진	-16043
▁보낸다	-16044
▁생긴다	-16045
▁관할했다	-16046
▁시작하고	-16047
▁엥	-16048
창의	-16049
카리	-16050
▁페니	-16051
각형의	-16052
세에서	-16053
위까지	-16054
▁영국령	-16055
▁지키고	-16056
▁1866	-16057
▁공격하는	-16058
▁여겨지는	-16059
▁주관하는	-16060
▁출발하여	-16061
▁클리블랜드	-16062
▁소프트웨어를	-16063
▁겔	-16064
그가	-16065
바브	-16066
어인	-16067
▁94	-16068
▁대출	-16069
▁수필	-16070
제도를	-16071
▁교통의	-16072
▁언론인	-16073
▁자원을	-16074
▁스타일의	-16075
바리	-16076
▁사탕	-16077
▁이븐	-16078
▁형인	-16079
▁내각의	-16080
▁식물의	-16081
▁축구를	-16082
▁아이디얼	-16083
6,	-16084
타워	-16085
▁강풍	-16086
당하여	-16087
▁가이드	-16088
▁대중의	-16089
▁찬사를	-16090
받았으며	-16091
▁결합하여	-16092
두의	-16093
▁et	-16094
▁공백	-16095
▁먹이	-16096
▁승점	-16097
▁청산	-16098
왕으로	-16099
회사로	-16100
▁배터리	-16101
▁지배하는	-16102
OK	-16103
사한	-16104
▁바꿨	-16105
▁첨단	-16106
▁타케	-16107
▁달러에	-16108
▁죽음의	-16109
▁최연소	-16110
▁토스카	-16111
위원회에	-16112
▁하였지만	-16113
▁전반적으로	-16114
트맨	-16115
▁다투	-16116
▁딸이	-16117
▁유타	-16118
▁파기	-16119
시간이	-16120
▁고양시	-16121
▁나타날	-16122
▁카메룬	-16123
ision	-16124
암의	-16125
채는	-16126
초로	-16127
▁값은	-16128
▁갤러	-16129
▁상급	-16130
▁아데	-16131
▁모리스	-16132
▁발표하고	-16133
▁운행하고	-16134
강한	-16135
직할	-16136
▁Up	-16137
▁삼척	-16138
▁장제	-16139
▁주조	-16140
outh	-16141
▁그래도	-16142
▁전신인	-16143
▁홍문관	-16144
▁활발하게	-16145
영국	-16146
uss	-16147
▁격추	-16148
▁잠정	-16149
▁폐렴	-16150
▁노래의	-16151
▁장소에	-16152
▁일어나지	-16153
▁함경남도	-16154
▁"(	-16155
▁슬픔	-16156
▁오아	-16157
▁이모	-16158
▁인명	-16159
▁풍속	-16160
론으로	-16161
▁바뀌어	-16162
▁암컷은	-16163
▁맘	-16164
비용	-16165
▁메뉴	-16166
▁별세	-16167
▁신동	-16168
▁이타	-16169
▁중생	-16170
▁포터	-16171
▁동대문	-16172
▁들어갔	-16173
▁유니버설	-16174
보스	-16175
MHz	-16176
▁차출	-16177
▁구역은	-16178
▁마이애	-16179
▁천천	-16180
▁코카	-16181
▁휴식	-16182
났는데	-16183
능력을	-16184
회의를	-16185
▁금요일	-16186
▁파일럿	-16187
ative	-16188
▁전국동시지방선거의	-16189
▁;	-16190
New	-16191
▁살게	-16192
▁화를	-16193
▁조약이	-16194
▁증상을	-16195
▁프레이	-16196
▁1873	-16197
▁활동하며	-16198
데라	-16199
추진	-16200
por	-16201
▁SL	-16202
▁제인	-16203
▁노래로	-16204
▁북동부	-16205
▁십자군	-16206
▁아리아	-16207
▁영업을	-16208
▁원칙을	-16209
▁의문을	-16210
▁전국의	-16211
박물관에	-16212
▁이번에는	-16213
▁필리핀의	-16214
8,	-16215
NG	-16216
Pr	-16217
▁렉	-16218
무의	-16219
사다	-16220
700	-16221
▁갖지	-16222
▁내걸	-16223
▁노면	-16224
▁소울	-16225
▁출석	-16226
▁보호하는	-16227
▁콘크리트	-16228
▁죠	-16229
마케	-16230
수지	-16231
스기	-16232
키타	-16233
▁불분	-16234
▁세가	-16235
▁조형	-16236
▁채취	-16237
▁추서	-16238
▁힘썼	-16239
스키의	-16240
우스와	-16241
▁가리지	-16242
▁단어가	-16243
▁주민들의	-16244
▁아틀레티코	-16245
▁웬	-16246
면적	-16247
물인	-16248
전국	-16249
▁김선	-16250
▁이건	-16251
▁남았다	-16252
▁동쪽은	-16253
▁말미암	-16254
▁모른다	-16255
▁들어오는	-16256
▁영역에서	-16257
근을	-16258
▁렌즈	-16259
▁박쥐의	-16260
▁비롯된	-16261
▁서울로	-16262
▁이시카와	-16263
▁딥	-16264
령과	-16265
아라	-16266
▁간첩	-16267
▁복소	-16268
▁일기	-16269
▁장사	-16270
치에서	-16271
▁Vol	-16272
▁당대의	-16273
▁왕실의	-16274
▁헤이안	-16275
▁1872	-16276
▁나타나지	-16277
▁연극배우	-16278
▁주인공으로	-16279
▁면제	-16280
▁보복	-16281
레스는	-16282
▁Can	-16283
▁나라에	-16284
▁남동생	-16285
▁만들었고	-16286
▁영향력이	-16287
디와	-16288
온을	-16289
▁AV	-16290
▁리조	-16291
▁오락	-16292
▁차로	-16293
▁파란	-16294
▁해병대	-16295
결혼	-16296
쓰마	-16297
철학	-16298
▁CM	-16299
▁침묵	-16300
들처럼	-16301
▁달라고	-16302
▁사이로	-16303
▁않다고	-16304
▁해밀턴	-16305
▁정치적으로	-16306
련된	-16307
▁매력	-16308
▁입주	-16309
▁전함	-16310
▁API	-16311
▁경제를	-16312
▁스테파	-16313
▁정당이다	-16314
▁허리케인	-16315
lation	-16316
▁국가대표로	-16317
▁일제강점기	-16318
▁공방	-16319
▁좌측	-16320
reen	-16321
▁돌고	-16322
▁앙골	-16323
▁정작	-16324
▁집어	-16325
▁켈트	-16326
▁상업적	-16327
▁수업을	-16328
▁인도에서	-16329
▁공개적으로	-16330
▁퐁	-16331
배가	-16332
복합	-16333
비언	-16334
▁서스	-16335
▁우아	-16336
▁조국	-16337
▁죽기	-16338
▁질문	-16339
▁느끼는	-16340
▁단체의	-16341
▁서재필	-16342
▁않아도	-16343
▁앨리스	-16344
▁정상에	-16345
▁해안에	-16346
▁입학하여	-16347
▁지역구의원	-16348
▁한편으로는	-16349
▁비례대표의원	-16350
▁뢰	-16351
심과	-16352
자고	-16353
▁부합	-16354
▁식당	-16355
▁전전	-16356
▁짓는	-16357
자리의	-16358
▁불과하다	-16359
▁붙여졌다	-16360
▁에콰도르	-16361
▁조사에서	-16362
▁활동했으며	-16363
▁리바	-16364
▁유료	-16365
▁음악이	-16366
▁친구가	-16367
▁천연기념	-16368
▁코무네다	-16369
SD	-16370
크레	-16371
▁모색	-16372
▁목재	-16373
▁언니	-16374
▁칼럼	-16375
▁겉보기	-16376
▁전쟁과	-16377
▁페트로	-16378
▁설립하여	-16379
교사	-16380
토록	-16381
▁김광	-16382
▁더빙	-16383
▁반격	-16384
▁산호	-16385
▁선원	-16386
▁찬양	-16387
되어서	-16388
▁가져다	-16389
▁가족이	-16390
▁문화에	-16391
▁전화를	-16392
▁플라이	-16393
▁국내에서	-16394
▁그랑프리	-16395
▁대항하여	-16396
▁지명되었다	-16397
포시	-16398
▁유목	-16399
▁카툰	-16400
운동장	-16401
▁것이나	-16402
▁다목적	-16403
▁불확실	-16404
za	-16405
미래	-16406
▁규칙을	-16407
▁끼쳤다	-16408
▁시에라	-16409
▁지난날	-16410
과정에서	-16411
▁Park	-16412
▁미스터리	-16413
▁박사학위를	-16414
코딩	-16415
oly	-16416
▁1:	-16417
▁공존	-16418
고에서	-16419
▁공로를	-16420
▁당하고	-16421
▁몬테네	-16422
▁크리에	-16423
▁안정적인	-16424
by	-16425
것을	-16426
독을	-16427
먼의	-16428
바가	-16429
활성	-16430
▁시몬	-16431
▁윈도	-16432
▁허드	-16433
▁열대폭	-16434
▁따라서는	-16435
▁성장했다	-16436
▁전까지는	-16437
▁중심지로	-16438
기갑	-16439
기둥	-16440
세키	-16441
oft	-16442
▁고개	-16443
▁타지	-16444
▁헤어	-16445
자라는	-16446
▁교회가	-16447
▁인테르	-16448
▁여겨지고	-16449
7,	-16450
링겐	-16451
▁대역	-16452
▁입지	-16453
▁탄자	-16454
지느러	-16455
▁단계를	-16456
▁산업은	-16457
▁월요일	-16458
▁조반니	-16459
거리에서	-16460
▁스페인어	-16461
▁선거결과를	-16462
니크	-16463
더를	-16464
▁by	-16465
▁대북	-16466
▁징병	-16467
▁공항은	-16468
▁쓰나미	-16469
▁서울특별시의	-16470
5,	-16471
천년	-16472
▁he	-16473
▁김형	-16474
▁나노	-16475
▁사리	-16476
▁이고	-16477
르트의	-16478
▁공간은	-16479
▁목적이	-16480
▁1850	-16481
▁1861	-16482
남부	-16483
타고	-16484
iew	-16485
▁궁전	-16486
▁보리	-16487
▁셀레	-16488
▁못했지만	-16489
▁문화체육	-16490
셨다	-16491
원수	-16492
Con	-16493
▁강대	-16494
▁낮다	-16495
▁세븐	-16496
▁전무	-16497
▁중엽	-16498
당한다	-16499
▁느끼고	-16500
▁레오폴	-16501
▁루돌프	-16502
▁정보는	-16503
▁한국을	-16504
했음에도	-16505
▁탈락했다	-16506
절에	-16507
중종	-16508
▁누이	-16509
▁동학	-16510
가능한	-16511
▁서로의	-16512
▁어렵게	-16513
▁정책의	-16514
▁Song	-16515
▁강조하는	-16516
▁맷	-16517
테의	-16518
▁개항	-16519
▁적어	-16520
▁제임	-16521
▁분야를	-16522
▁유닉스	-16523
▁선임되었다	-16524
▁기해	-16525
▁노조	-16526
▁보증	-16527
▁블레	-16528
헝가리	-16529
▁시장이	-16530
▁주위의	-16531
▁패배한	-16532
국제공항	-16533
섬을	-16534
▁로페	-16535
▁저격	-16536
▁하프	-16537
▁미군의	-16538
▁증거는	-16539
▁스트리밍	-16540
▁프랑스령	-16541
▁튼	-16542
▁준수	-16543
▁코시	-16544
데이터	-16545
테이너	-16546
▁Eng	-16547
▁기관차	-16548
▁마르세	-16549
▁시에는	-16550
▁프로모	-16551
▁시리즈이다	-16552
라드	-16553
비츠	-16554
스퍼	-16555
▁묶어	-16556
work	-16557
▁기타를	-16558
▁논쟁을	-16559
▁의지를	-16560
▁홉	-16561
농업	-16562
막이	-16563
▁선동	-16564
▁전구	-16565
▁포수	-16566
▁에스페	-16567
▁미야자키	-16568
▁옮겨졌다	-16569
사유	-16570
▁동정	-16571
▁접한	-16572
사들은	-16573
(190	-16574
▁넘어서	-16575
▁용인시	-16576
▁이동하는	-16577
나기	-16578
나파	-16579
▁느낄	-16580
▁랴오	-16581
▁부다	-16582
▁성전	-16583
▁재팬	-16584
▁긴테쓰	-16585
▁천황이	-16586
▁체계는	-16587
▁사용자의	-16588
▁후반부터	-16589
보장	-16590
▁강철	-16591
▁섬은	-16592
▁이양	-16593
▁쪽에	-16594
▁호크	-16595
대회를	-16596
▁구하기	-16597
▁전자의	-16598
▁이바라키	-16599
▁일으킨다	-16600
▁항공모함	-16601
▁아프리카의	-16602
궁을	-16603
min	-16604
▁자민	-16605
▁전담	-16606
▁개발하였다	-16607
▁코스타리카	-16608
구미	-16609
테른	-16610
app	-16611
www	-16612
▁드리	-16613
▁듣지	-16614
개국이	-16615
하겠다	-16616
▁거두며	-16617
▁마누엘	-16618
▁무역을	-16619
세손	-16620
▁BM	-16621
▁간략	-16622
▁요충	-16623
▁추존	-16624
▁픽처	-16625
▁서대문	-16626
▁속이다	-16627
▁이기고	-16628
▁정하고	-16629
(2014	-16630
ody	-16631
▁심지	-16632
▁모시고	-16633
▁목성의	-16634
▁아나톨	-16635
▁이론이	-16636
▁1878	-16637
▁결승전에	-16638
▁기간동안	-16639
▁아이디어를	-16640
도상	-16641
▁동네	-16642
▁떠오	-16643
▁상행	-16644
▁어찌	-16645
▁작다	-16646
▁직통	-16647
▁한명	-16648
▁대전의	-16649
▁드디어	-16650
▁미토콘	-16651
▁신화에	-16652
▁아이언	-16653
▁자치체	-16654
LE	-16655
서스	-16656
▁공이	-16657
▁성리	-16658
▁정성	-16659
▁체조	-16660
▁감염된	-16661
▁도메인	-16662
▁방안을	-16663
▁왕가의	-16664
▁유력한	-16665
▁의석을	-16666
▁인간과	-16667
▁설계되었다	-16668
ze	-16669
▁늙	-16670
되나	-16671
▁공감	-16672
▁번영	-16673
▁아바	-16674
▁중형	-16675
▁헬레	-16676
그룹의	-16677
▁10,	-16678
▁노선에	-16679
▁북쪽은	-16680
▁생명을	-16681
▁케이스	-16682
▁클레이	-16683
▁태권도	-16684
CACAF	-16685
▁프란체스코	-16686
▁찢	-16687
간은	-16688
구멍	-16689
료는	-16690
▁때려	-16691
▁무언	-16692
▁성에	-16693
▁컸다	-16694
지거나	-16695
▁단계에	-16696
▁이주한	-16697
개인	-16698
통치	-16699
▁SE	-16700
▁나갔	-16701
▁비대	-16702
▁죽게	-16703
▁최진	-16704
▁키보	-16705
▁방식에	-16706
▁용어가	-16707
▁유학생	-16708
▁조직에	-16709
▁투자를	-16710
▁NASA	-16711
▁키프로스	-16712
▁실시되었다	-16713
▁확정되었다	-16714
기며	-16715
럴드	-16716
oid	-16717
▁남자가	-16718
▁단계로	-16719
▁대표를	-16720
▁신학자	-16721
▁표현은	-16722
▁화학적	-16723
▁세인트루이스	-16724
▁경복	-16725
▁도래	-16726
▁장인	-16727
atch	-16728
▁난카이	-16729
▁다양체	-16730
▁쉴	-16731
증에	-16732
트넘	-16733
_16	-16734
▁김명	-16735
▁보석	-16736
▁선천	-16737
▁점과	-16738
▁프롤	-16739
▁현직	-16740
상규명	-16741
▁쿠웨이트	-16742
▁효율적으로	-16743
조리	-16744
호른	-16745
▁극우	-16746
▁이이	-16747
나에서	-16748
▁다리가	-16749
▁1864	-16750
라니	-16751
분부터	-16752
▁미하일	-16753
▁예컨대	-16754
▁흐르고	-16755
▁데뷔하였으며	-16756
▁ne	-16757
▁대각	-16758
▁옥타	-16759
▁유혹	-16760
▁화순	-16761
예정자	-16762
▁노르망	-16763
▁양자로	-16764
▁충청도	-16765
▁사무실은	-16766
""	-16767
▁EX	-16768
▁경희	-16769
▁잠깐	-16770
▁장안	-16771
디자인	-16772
웨스트	-16773
▁위치가	-16774
▁후기에	-16775
▁1875	-16776
전대	-16777
ven	-16778
▁강은	-16779
▁서산	-16780
▁천거	-16781
민스터	-16782
▁고문을	-16783
▁작전에	-16784
▁흐른다	-16785
▁밝혀지지	-16786
▁유러피언	-16787
▁댓	-16788
노와	-16789
영조	-16790
▁OB	-16791
▁동력	-16792
▁요동	-16793
▁자작	-16794
▁철폐	-16795
▁휘말	-16796
▁Per	-16797
▁처분을	-16798
▁1863	-16799
▁경기장으로	-16800
▁프로듀서이다	-16801
경비	-16802
여단	-16803
재산	-16804
▁Ge	-16805
▁고아	-16806
▁백신	-16807
▁정전	-16808
▁진해	-16809
▁Mag	-16810
▁고유한	-16811
▁달했다	-16812
▁러시아와	-16813
▁발매됐다	-16814
포에	-16815
▁사당	-16816
▁청룡	-16817
▁iOS	-16818
▁게릴라	-16819
▁마을은	-16820
▁비정상	-16821
▁생겨난	-16822
▁수사를	-16823
▁예로는	-16824
▁활동의	-16825
▁계속되는	-16826
▁이용해서	-16827
▁할리우드	-16828
▁현장에서	-16829
복의	-16830
쇼와	-16831
유예	-16832
호르	-16833
▁To	-16834
▁비전	-16835
▁타르	-16836
▁자녀를	-16837
▁자유당	-16838
▁주파수	-16839
▁해당되는	-16840
▁현대자동차	-16841
▁겪은	-16842
▁장이	-16843
▁접수	-16844
관계에	-16845
순위로	-16846
자에서	-16847
▁ABC	-16848
▁OST	-16849
▁북서부	-16850
▁시청률	-16851
▁정하는	-16852
▁대항하는	-16853
척을	-16854
▁ar	-16855
▁부평	-16856
▁트란	-16857
가들이	-16858
▁독일군	-16859
▁증가하는	-16860
읍에	-16861
▁동등	-16862
▁미에	-16863
▁병이	-16864
▁복장	-16865
▁솟아	-16866
▁자서	-16867
▁축조	-16868
부분에	-16869
▁0.5	-16870
▁쓰기도	-16871
▁연이어	-16872
▁총리로	-16873
▁동치이다	-16874
▁알렉산드리아	-16875
안보	-16876
약의	-16877
▁너머	-16878
▁돕는	-16879
▁옮긴	-16880
만원을	-16881
▁내리고	-16882
▁이스탄	-16883
▁흩어져	-16884
▁아인슈타	-16885
저의	-16886
증권	-16887
표준	-16888
헌법	-16889
▁서임	-16890
▁후배	-16891
▁Air	-16892
▁각지의	-16893
▁종류는	-16894
▁프란치	-16895
▁선수단이다	-16896
du	-16897
벨트	-16898
▁모른	-16899
▁바젤	-16900
▁연동	-16901
▁알프스	-16902
▁설립되어	-16903
▁유로파리그	-16904
당할	-16905
시다	-16906
_20	-16907
▁돼지	-16908
▁상해	-16909
▁부대의	-16910
▁와이번	-16911
▁함수를	-16912
▁설치하였다	-16913
▁깜	-16914
황의	-16915
▁경의	-16916
▁포럼	-16917
▁폭풍	-16918
▁사상은	-16919
▁지나가	-16920
화하였다	-16921
OT	-16922
극을	-16923
토로	-16924
품은	-16925
~16	-16926
▁몽고	-16927
▁피할	-16928
▁혼다	-16929
저기압	-16930
▁가공의	-16931
▁카타르	-16932
▁행하는	-16933
▁청나라의	-16934
▁김인	-16935
▁세습	-16936
▁앞선	-16937
▁(17	-16938
▁감옥에	-16939
▁노동당	-16940
▁자유의	-16941
▁측에서	-16942
▁1865	-16943
▁대한항공	-16944
▁측정하는	-16945
사자	-16946
())	-16947
▁가산	-16948
▁군부	-16949
▁카지	-16950
▁받았던	-16951
▁생활에	-16952
▁참석한	-16953
▁만들어져	-16954
▁포함되지	-16955
▁프리메라	-16956
업의	-16957
천이	-16958
체른	-16959
▁많지	-16960
▁백두	-16961
▁시바	-16962
▁오기	-16963
▁온다	-16964
▁전수	-16965
▁컴파	-16966
▁새끼를	-16967
▁시코쿠	-16968
▁영원히	-16969
▁아이들을	-16970
▁찔	-16971
-22	-16972
EST	-16973
▁낙하	-16974
▁사인	-16975
▁총을	-16976
▁나트륨	-16977
▁소재의	-16978
▁안정된	-16979
▁클럽인	-16980
코로	-16981
테는	-16982
히게	-16983
히지	-16984
▁박성	-16985
▁이언	-16986
▁Out	-16987
▁현대적인	-16988
▁언급하였다	-16989
DC	-16990
니라	-16991
▁가중	-16992
▁반전	-16993
▁태그	-16994
▁못했던	-16995
▁본부를	-16996
▁성향을	-16997
▁천천히	-16998
들이었다	-16999
▁제작했다	-17000
▁후계자로	-17001
▁독자적으로	-17002
▁형사소송법	-17003
▁송신	-17004
▁악의	-17005
▁유식	-17006
▁라파엘	-17007
▁빠졌다	-17008
스테르담	-17009
름의	-17010
승의	-17011
▁검거	-17012
▁초콜	-17013
화되고	-17014
▁모델의	-17015
▁방사능	-17016
대학교를	-17017
▁것이므로	-17018
▁비교하여	-17019
▁하나로서	-17020
▁흥선대원	-17021
레니	-17022
▁재일	-17023
▁되어야	-17024
▁명령에	-17025
▁사거리	-17026
▁원리를	-17027
▁기념하기	-17028
▁단체이다	-17029
▁프랑스를	-17030
▁시작되었고	-17031
Be	-17032
금과	-17033
틀리	-17034
▁마셜	-17035
▁암석	-17036
▁키르	-17037
▁곳곳에	-17038
▁대단히	-17039
▁복소수	-17040
▁주제에	-17041
▁진행을	-17042
▁국제적으로	-17043
▁대한민국을	-17044
장사	-17045
▁우파	-17046
▁근본적인	-17047
▁비판하는	-17048
▁투수이다	-17049
▁가면라이더	-17050
HL	-17051
러브	-17052
리마	-17053
질환	-17054
ars	-17055
▁놓인	-17056
▁면이	-17057
▁충북	-17058
orge	-17059
▁제안한	-17060
▁책에서	-17061
▁치명적인	-17062
▁한국철도	-17063
티를	-17064
▁니혼	-17065
▁도출	-17066
▁엔터	-17067
▁강남구	-17068
▁밴드가	-17069
스크리트	-17070
▁프랑스로	-17071
▁플랫폼을	-17072
▁국회의원을	-17073
▁예정이었다	-17074
소비	-17075
워서	-17076
▁sp	-17077
▁생겼	-17078
▁수로	-17079
▁승무	-17080
▁악마	-17081
▁잃게	-17082
▁찾고	-17083
운드의	-17084
▁1-1	-17085
▁공장을	-17086
▁달리는	-17087
▁밀도가	-17088
▁작품인	-17089
▁클라크	-17090
▁도입했다	-17091
▁물리치고	-17092
위원회에서	-17093
색과	-17094
▁엄마	-17095
▁이회	-17096
▁자결	-17097
▁파고	-17098
▁견해가	-17099
▁너무나	-17100
▁무궁화	-17101
▁북한이	-17102
▁생전에	-17103
▁적었다	-17104
▁퍼스트	-17105
▁살아남은	-17106
▁전달하는	-17107
▁산시	-17108
펜하겐	-17109
행으로	-17110
▁SNS	-17111
▁기법을	-17112
▁번째는	-17113
▁받았는데	-17114
▁방지하기	-17115
▁배우이자	-17116
▁윌리엄스	-17117
▁수록예정자	-17118
▁아프리카계	-17119
달의	-17120
청장	-17121
커를	-17122
▁과테	-17123
▁실무	-17124
▁집회	-17125
▁기준이	-17126
▁맡았던	-17127
▁반도의	-17128
▁어느날	-17129
▁Comm	-17130
방과	-17131
정권	-17132
지부	-17133
처는	-17134
▁칼로	-17135
▁해태	-17136
▁서로를	-17137
▁지닌다	-17138
언론	-17139
_21	-17140
▁개헌	-17141
▁고딕	-17142
▁시합	-17143
▁원통	-17144
▁제대	-17145
청에서	-17146
▁원정을	-17147
잉글랜드	-17148
▁진출한다	-17149
▁체결했다	-17150
▁Black	-17151
마귀	-17152
▁안드	-17153
였다는	-17154
▁2~3	-17155
▁AKB	-17156
▁대륙의	-17157
▁빅토르	-17158
▁신앙을	-17159
▁우루과이	-17160
양과	-17161
▁Ne	-17162
▁닮은	-17163
▁방화	-17164
연대는	-17165
익스피	-17166
▁메시지	-17167
▁사실에	-17168
▁서바이	-17169
▁있어서의	-17170
선형	-17171
▁게리	-17172
▁관동	-17173
▁국외	-17174
▁대왕	-17175
▁더비	-17176
▁모범	-17177
▁모의	-17178
▁조인	-17179
▁테라	-17180
▁레드삭	-17181
적이라고	-17182
▁JTBC	-17183
▁경과	-17184
▁글꼴	-17185
▁도피	-17186
▁마린	-17187
▁볼프	-17188
▁성곽	-17189
▁아다	-17190
▁450	-17191
▁지시를	-17192
▁삼층석탑	-17193
▁여객철도의	-17194
발트	-17195
증과	-17196
▁브룩	-17197
▁에레	-17198
▁은신	-17199
▁끝난다	-17200
하더라도	-17201
▁실시하는	-17202
▁전적으로	-17203
▁담당하였다	-17204
▁후쿠오카현	-17205
마디	-17206
▁Kn	-17207
▁누나	-17208
▁돕기	-17209
▁문과	-17210
▁습윤	-17211
▁싶다	-17212
▁유해	-17213
▁조로	-17214
쪽에서	-17215
rich	-17216
▁근거가	-17217
▁부부는	-17218
▁온도는	-17219
▁중부에	-17220
▁체제의	-17221
▁효율적인	-17222
lu	-17223
정지	-17224
▁간이	-17225
▁발해	-17226
▁비늘	-17227
▁아치	-17228
▁회귀	-17229
ient	-17230
▁소피아	-17231
▁왕국이	-17232
▁체제로	-17233
▁어머니와	-17234
▁영국으로	-17235
▁쿠데타를	-17236
▁성장하였다	-17237
ization	-17238
군인	-17239
랑을	-17240
▁나루	-17241
▁다듬	-17242
▁은혜	-17243
▁에어로	-17244
▁영어를	-17245
▁지점에서	-17246
봉은	-17247
스레	-17248
▁그릴	-17249
▁후예	-17250
다람쥐	-17251
회사가	-17252
▁3.0	-17253
▁뉴캐슬	-17254
▁심리적	-17255
▁아라곤	-17256
▁직책을	-17257
▁패했다	-17258
▁프리스	-17259
퍼레이션	-17260
▁1830	-17261
▁일본군의	-17262
▁쿡	-17263
길에	-17264
날의	-17265
월을	-17266
▁비준	-17267
▁열을	-17268
▁정선	-17269
노스케	-17270
span	-17271
▁면이다	-17272
▁댈	-17273
전에는	-17274
omas	-17275
▁USS	-17276
▁시신은	-17277
▁자료에	-17278
강전에서	-17279
▁국립공원	-17280
▁국무총리	-17281
mp	-17282
▁괄	-17283
▁떡	-17284
섬유	-17285
속도	-17286
▁서귀	-17287
▁줄리	-17288
▁공군의	-17289
▁보내어	-17290
▁세우는	-17291
▁제공할	-17292
▁아오모리	-17293
▁출시했다	-17294
▁발전하였다	-17295
ka	-17296
네오	-17297
▁맡는	-17298
▁했기	-17299
▁이동할	-17300
▁저항을	-17301
▁제한을	-17302
▁추가된	-17303
▁카이로	-17304
▁둘러싸인	-17305
▁몸길이가	-17306
▁앨범으로	-17307
▁프로세서	-17308
▁네이션스컵	-17309
▁스크린도어가	-17310
yr	-17311
검은	-17312
브가	-17313
▁신입	-17314
▁우유	-17315
▁만난다	-17316
문서	-17317
변속	-17318
요리	-17319
▁Ac	-17320
▁교정	-17321
▁번갈	-17322
▁소외	-17323
대학의	-17324
oint	-17325
▁구성은	-17326
▁모르고	-17327
▁보이게	-17328
▁장소를	-17329
▁판정을	-17330
▁설립하고	-17331
사범	-17332
죄로	-17333
▁조롱	-17334
▁표를	-17335
으려는	-17336
쥐과에	-17337
▁EBS	-17338
▁각자의	-17339
▁뿌리를	-17340
▁언어가	-17341
▁연주를	-17342
▁외국어	-17343
▁이해하는	-17344
▁창설되었다	-17345
파울	-17346
▁미륵	-17347
▁아메	-17348
▁증폭	-17349
공사의	-17350
대통령	-17351
▁결혼한	-17352
▁부인은	-17353
▁지구가	-17354
▁흥미를	-17355
이었다는	-17356
▁공부했다	-17357
▁후쿠시마현	-17358
▁막스	-17359
▁보강	-17360
▁재선	-17361
▁직책	-17362
▁LED	-17363
▁가문이	-17364
▁발전소	-17365
▁북유럽	-17366
▁시절을	-17367
▁않다는	-17368
▁미래통합	-17369
▁위키백과	-17370
▁의미이다	-17371
▁Dream	-17372
▁판매되었다	-17373
BT	-17374
가쿠	-17375
▁나갈	-17376
▁라디	-17377
▁적게	-17378
▁종군	-17379
▁주니	-17380
내었다	-17381
(189	-17382
▁국적을	-17383
▁연주자	-17384
▁정당이	-17385
ublic	-17386
▁완벽하게	-17387
▁고려시대의	-17388
▁역임했으며	-17389
CO	-17390
▁챙	-17391
됐던	-17392
케의	-17393
▁반포	-17394
화했다	-17395
▁들어가게	-17396
▁명령했다	-17397
▁전해지는	-17398
시안	-17399
▁IV	-17400
▁동사	-17401
▁매수	-17402
▁스플	-17403
▁우세	-17404
▁재상	-17405
▁조이	-17406
▁학과	-17407
▁글로브	-17408
▁바스크	-17409
▁설계된	-17410
▁오른손	-17411
▁유럽에	-17412
▁패밀리	-17413
▁행성이	-17414
▁니가타현	-17415
▁보이지만	-17416
▁지역에는	-17417
▁파괴되었다	-17418
▁앗	-17419
성장	-17420
틴은	-17421
ham	-17422
ien	-17423
▁달고	-17424
▁리에	-17425
▁매킨	-17426
퍼런스	-17427
▁Rev	-17428
▁기관의	-17429
▁일자리	-17430
▁거리에서	-17431
▁의과대학	-17432
▁컴퓨터를	-17433
▁분리되었다	-17434
▁CONCACAF	-17435
기본	-17436
세력	-17437
처의	-17438
▁공고	-17439
▁도둑	-17440
▁실재	-17441
ontr	-17442
▁가라앉	-17443
▁단체인	-17444
▁등판해	-17445
▁미술관	-17446
▁피라미	-17447
▁행동은	-17448
▁없었으며	-17449
PD	-17450
례로	-17451
출력	-17452
코를	-17453
피트	-17454
▁비어	-17455
각으로	-17456
▁공격은	-17457
▁도로는	-17458
▁생산이	-17459
▁예선에	-17460
▁자기가	-17461
▁주었고	-17462
▁행동이	-17463
사관학교	-17464
▁메릴랜드	-17465
▁중요하게	-17466
▁필수적인	-17467
▁유래되었다	-17468
GA	-17469
모에	-17470
버른	-17471
초가	-17472
▁과장	-17473
▁노바	-17474
▁찰리	-17475
▁초고	-17476
청소년	-17477
▁개봉된	-17478
▁구성을	-17479
▁선수였다	-17480
▁자료이다	-17481
▁갚	-17482
세요	-17483
▁관세	-17484
▁단원	-17485
▁말과	-17486
▁배양	-17487
▁아와	-17488
▁파는	-17489
▁비타민	-17490
▁에스페란	-17491
▁지칭하는	-17492
▁투표에서	-17493
▁요구하였다	-17494
격은	-17495
고지	-17496
매김	-17497
메트	-17498
시경	-17499
▁3:	-17500
▁계단	-17501
▁불변	-17502
▁상연	-17503
▁일차	-17504
▁커플	-17505
▁폭파	-17506
는다는	-17507
연합회	-17508
(186	-17509
▁거리의	-17510
▁과정의	-17511
▁시간과	-17512
▁연설을	-17513
▁운행이	-17514
▁작가가	-17515
▁패트릭	-17516
▁회사에	-17517
디나비아	-17518
▁공화국이	-17519
▁명확하게	-17520
▁승리했다	-17521
거가	-17522
그마	-17523
▁나우	-17524
▁최강	-17525
▁Bro	-17526
▁급격한	-17527
▁소식이	-17528
▁은하의	-17529
▁실시했다	-17530
▁원활	-17531
▁음이	-17532
▁강의를	-17533
▁요구에	-17534
▁차례에	-17535
▁측면을	-17536
▁함수는	-17537
주식회사	-17538
▁공개하였다	-17539
▁콕	-17540
리콘	-17541
▁나일	-17542
▁숨을	-17543
▁우의	-17544
▁즐거	-17545
색이다	-17546
▁아브라	-17547
▁장기간	-17548
▁Good	-17549
▁공장에서	-17550
▁준우승에	-17551
tr	-17552
분한	-17553
▁가타	-17554
▁격려	-17555
▁공격이	-17556
▁병력이	-17557
▁산티아	-17558
▁이와테	-17559
▁황제를	-17560
▁진행한다	-17561
▁네트워크를	-17562
▁인도네시아의	-17563
기타	-17564
_17	-17565
▁차관	-17566
스터의	-17567
회사의	-17568
▁손상을	-17569
▁이스탄불	-17570
▁토착종이다	-17571
루이	-17572
변호	-17573
코토	-17574
▁금호	-17575
▁기쁨	-17576
▁나이는	-17577
▁성명을	-17578
▁피해자	-17579
▁것이지만	-17580
▁대학교는	-17581
▁주전으로	-17582
객이	-17583
남에	-17584
다와	-17585
배에	-17586
약이	-17587
▁8,	-17588
▁관절	-17589
▁군용	-17590
▁여인	-17591
▁인재	-17592
▁포털	-17593
▁125	-17594
▁교사로	-17595
▁자라는	-17596
고속도로의	-17597
▁경상북도의	-17598
개미	-17599
우로	-17600
줄기	-17601
헤드	-17602
rav	-17603
▁띄는	-17604
▁설문	-17605
▁이누	-17606
▁제로	-17607
제이다	-17608
▁의약품	-17609
▁의회에	-17610
▁접근을	-17611
▁가르침을	-17612
▁림프	-17613
▁불행	-17614
▁교육에	-17615
▁모았다	-17616
▁시신을	-17617
▁책으로	-17618
▁철학을	-17619
▁Heart	-17620
▁Instit	-17621
IR	-17622
니언	-17623
지던	-17624
▁공휴	-17625
▁수양	-17626
▁통보	-17627
페스트	-17628
▁발달한	-17629
▁이론과	-17630
▁코펜하겐	-17631
락의	-17632
랑은	-17633
소시	-17634
평의	-17635
프턴	-17636
▁김준	-17637
▁문경	-17638
▁평의	-17639
▁해독	-17640
▁호를	-17641
번이나	-17642
집으로	-17643
▁미래를	-17644
▁1862	-17645
bo	-17646
자동	-17647
▁김윤	-17648
▁레일	-17649
▁지극	-17650
▁허블	-17651
▁결합을	-17652
▁공간에	-17653
▁끌어들	-17654
▁요청에	-17655
▁콘서트를	-17656
▁승강장으로	-17657
▁기니	-17658
▁삼림	-17659
▁선은	-17660
▁소극	-17661
겠지만	-17662
▁급속히	-17663
▁바탕에	-17664
▁세네갈	-17665
▁소관의	-17666
▁공간으로	-17667
▁기관이다	-17668
Robert	-17669
▁College	-17670
등과	-17671
스콘	-17672
키스	-17673
▁싸이	-17674
▁해왕	-17675
▁구축함	-17676
▁등에게	-17677
▁부근의	-17678
▁성으로	-17679
▁알제리	-17680
▁요시다	-17681
▁장점이	-17682
▁전하고	-17683
음으로써	-17684
▁날카로운	-17685
견이	-17686
▁SA	-17687
▁민감	-17688
▁에게	-17689
▁지침	-17690
▁히메	-17691
▁사형을	-17692
▁선언을	-17693
지역에서	-17694
▁공산당의	-17695
▁룸	-17696
덕왕	-17697
심에	-17698
워즈	-17699
토프	-17700
▁전락	-17701
▁치는	-17702
▁파우	-17703
▁후진	-17704
세포의	-17705
▁3-1	-17706
▁무엇이	-17707
▁문화는	-17708
▁미래에	-17709
▁언론의	-17710
스케이팅	-17711
,000,000	-17712
박이	-17713
암은	-17714
예수	-17715
▁달에	-17716
▁물체	-17717
▁장덕	-17718
운동이	-17719
▁예전에	-17720
▁프린스턴	-17721
사적	-17722
회원	-17723
uth	-17724
▁위촉	-17725
▁이메	-17726
▁하급	-17727
reet	-17728
▁계통의	-17729
▁순서로	-17730
▁자료는	-17731
▁챌린지	-17732
▁코드는	-17733
▁없었지만	-17734
▁유래하였다	-17735
▁%	-17736
공파	-17737
정맥	-17738
▁Fe	-17739
▁경호	-17740
▁류큐	-17741
▁읽는	-17742
▁잦은	-17743
▁항쟁	-17744
▁전역을	-17745
▁철저히	-17746
▁혁명이	-17747
고등법원	-17748
▁발표하여	-17749
▁혀	-17750
도쿄	-17751
▁바와	-17752
▁샤이	-17753
▁역도	-17754
▁게이오	-17755
▁중심을	-17756
▁어머니를	-17757
▁헛	-17758
▁산이	-17759
ates	-17760
▁128	-17761
▁공으로	-17762
▁바다의	-17763
▁학교는	-17764
▁아카데미상	-17765
절로	-17766
▁새긴	-17767
▁양측	-17768
▁염려	-17769
▁102	-17770
▁Inc	-17771
▁강하다	-17772
▁느끼게	-17773
▁맡기도	-17774
▁멤버가	-17775
▁책임이	-17776
▁서울중앙	-17777
▁산스크리트	-17778
▁중수	-17779
▁중위	-17780
▁페레	-17781
▁폭이	-17782
클리드	-17783
▁갈라져	-17784
▁강화를	-17785
▁브뤼셀	-17786
▁존재로	-17787
▁활용하여	-17788
로폰	-17789
▁칭송	-17790
직하고	-17791
▁것과는	-17792
▁비율을	-17793
▁이르게	-17794
▁그레고리	-17795
▁프랜시스	-17796
▁하느님의	-17797
▁줄어들었다	-17798
▁숀	-17799
▁펩	-17800
내려	-17801
달라	-17802
리드	-17803
복이	-17804
▁냉전	-17805
▁주권	-17806
▁칼슘	-17807
▁털은	-17808
▁거쳤다	-17809
▁현대에	-17810
▁쿠빌라이	-17811
▁남작	-17812
▁났다	-17813
▁출구	-17814
▁새누리당	-17815
▁스테이션	-17816
그림	-17817
르카	-17818
살에	-17819
섬은	-17820
▁공성	-17821
▁국기	-17822
▁나미	-17823
▁머신	-17824
▁워드	-17825
▁피핀	-17826
미사일	-17827
▁높았다	-17828
▁비교해	-17829
▁샌디에	-17830
▁지상파	-17831
▁National	-17832
미치	-17833
불이	-17834
수단	-17835
ope	-17836
▁말리	-17837
▁성도	-17838
▁치환	-17839
시켜야	-17840
▁인정을	-17841
▁일주일	-17842
▁공항으로	-17843
▁들어왔다	-17844
▁인기있는	-17845
▁선고받았다	-17846
eck	-17847
ila	-17848
▁모빌	-17849
▁불완	-17850
▁성명	-17851
로스의	-17852
▁240	-17853
▁경주시	-17854
▁존재했다	-17855
▁프랭클린	-17856
료가	-17857
배의	-17858
조치	-17859
협정	-17860
▁고생	-17861
▁구호	-17862
▁꿈꾸	-17863
▁무술	-17864
▁세바	-17865
▁잡는	-17866
▁맞았다	-17867
▁삼국지	-17868
▁수요가	-17869
▁작사가	-17870
▁주지사	-17871
▁케플러	-17872
(2009	-17873
▁늪	-17874
공개	-17875
박을	-17876
초는	-17877
▁군정	-17878
▁조회	-17879
▁하행	-17880
그리고	-17881
▁구조와	-17882
▁브루스	-17883
▁언급이	-17884
▁한다면	-17885
▁아직까지	-17886
▁경기장에서	-17887
▁미토콘드리아	-17888
공립	-17889
공장	-17890
샤오	-17891
off	-17892
▁밀도	-17893
▁성운	-17894
라이드	-17895
전부터	-17896
▁계획의	-17897
▁그리는	-17898
▁기원은	-17899
▁로마로	-17900
▁미나모토	-17901
▁장소에서	-17902
▁채택되었다	-17903
말의	-17904
케는	-17905
▁무서	-17906
▁산을	-17907
▁송출	-17908
▁접해	-17909
▁페로	-17910
▁지위에	-17911
▁파푸아	-17912
시키면서	-17913
▁스페인은	-17914
▁Award	-17915
감사	-17916
▁기뻐	-17917
▁문하	-17918
▁보낼	-17919
▁파병	-17920
▁그만큼	-17921
▁법칙을	-17922
▁볼티모	-17923
▁비중이	-17924
▁위구르	-17925
▁침공을	-17926
▁말미암아	-17927
▁수행하고	-17928
▁움직임이	-17929
▁출연한다	-17930
BL	-17931
막의	-17932
▁변동	-17933
▁상기	-17934
▁상법	-17935
▁육체	-17936
▁호쿠	-17937
▁극도로	-17938
▁상태는	-17939
▁서부의	-17940
▁자격이	-17941
▁벌어지는	-17942
자금	-17943
천은	-17944
▁배달	-17945
▁송파	-17946
▁평민	-17947
▁마음의	-17948
▁않았을	-17949
▁에서는	-17950
▁테네시	-17951
▁추정되며	-17952
ociation	-17953
▁결핵	-17954
▁명종	-17955
부에는	-17956
▁소유의	-17957
▁앤드루	-17958
▁피아노를	-17959
주아	-17960
후가	-17961
▁결핍	-17962
▁넓고	-17963
▁입수	-17964
▁정제	-17965
▁기관이	-17966
▁따르고	-17967
▁선거인	-17968
▁의회가	-17969
▁종래의	-17970
▁줄이기	-17971
▁파견하여	-17972
▁패럴림픽	-17973
▁쪼	-17974
가미	-17975
ger	-17976
olf	-17977
▁러일	-17978
▁맛을	-17979
▁에반	-17980
▁외래	-17981
▁장녀	-17982
당했고	-17983
cess	-17984
irst	-17985
▁걸쳐서	-17986
▁것들을	-17987
▁오세아	-17988
▁케이프	-17989
▁항복을	-17990
▁1867	-17991
상황	-17992
쾌한	-17993
-09	-17994
inn	-17995
▁NT	-17996
▁정주	-17997
분까지	-17998
수에서	-17999
▁경력이	-18000
▁기술과	-18001
▁밝혀진	-18002
▁적용되는	-18003
▁지나간다	-18004
▁암스테르담	-18005
층과	-18006
▁구이	-18007
▁럭비	-18008
▁서열	-18009
▁연희	-18010
▁요정	-18011
▁야마모토	-18012
▁예전에는	-18013
▁스트라이크	-18014
▁푸에르토리	-18015
▁랄	-18016
니티	-18017
머가	-18018
물리	-18019
수송	-18020
하되	-18021
회관	-18022
▁수교	-18023
▁연한	-18024
▁촉발	-18025
▁사이먼	-18026
▁사회가	-18027
시키는데	-18028
▁덧붙였다	-18029
▁발견되며	-18030
▁브루클린	-18031
Se	-18032
▁괌	-18033
슨을	-18034
애니	-18035
저를	-18036
▁넣는	-18037
▁대위	-18038
▁우한	-18039
▁쳤다	-18040
▁혐오	-18041
메이트	-18042
시이다	-18043
▁기록과	-18044
▁내무부	-18045
▁시위가	-18046
▁역할로	-18047
▁요르단	-18048
▁라이선스	-18049
▁뿐이었다	-18050
▁문화체육관광	-18051
개씩	-18052
마니	-18053
▁성악	-18054
▁칭기	-18055
▁헌액	-18056
ship	-18057
▁하느님	-18058
▁협회의	-18059
aster	-18060
▁1874	-18061
▁Club	-18062
▁아나운서	-18063
▁크리에이	-18064
▁합류하여	-18065
투수	-18066
호마	-18067
▁농부	-18068
▁높여	-18069
▁천왕	-18070
대서양	-18071
방송을	-18072
▁그림은	-18073
▁외부의	-18074
▁장관이	-18075
▁Best	-18076
TE	-18077
▁굶	-18078
기통	-18079
사법	-18080
▁법에	-18081
▁인력	-18082
▁조슈	-18083
▁판례	-18084
▁Har	-18085
▁끝나는	-18086
▁자세를	-18087
▁출전을	-18088
▁튀르크	-18089
▁국가들은	-18090
▁목소리가	-18091
다오	-18092
명종	-18093
▁목회	-18094
▁정인	-18095
▁증상	-18096
▁집착	-18097
▁트램	-18098
스터는	-18099
▁문학의	-18100
▁사망할	-18101
▁파나마	-18102
▁1869	-18103
▁더글러스	-18104
▁소말리아	-18105
Gr	-18106
수입	-18107
▁As	-18108
▁불균	-18109
▁쉽다	-18110
▁절벽	-18111
▁가깝게	-18112
▁기여한	-18113
▁부모는	-18114
▁피렌체	-18115
▁심지어는	-18116
▁없으므로	-18117
▁일대에서	-18118
▁최고인민	-18119
▁추정하고	-18120
르다	-18121
학사	-18122
▁규탄	-18123
▁스와	-18124
▁토미	-18125
놓았다	-18126
▁Wii	-18127
▁떠난다	-18128
▁사랑과	-18129
▁상에서	-18130
▁활동으로	-18131
▁경제적으로	-18132
CH	-18133
▁널	-18134
훈이	-18135
str	-18136
▁sc	-18137
▁un	-18138
▁관상	-18139
▁맞춤	-18140
조사를	-18141
▁경계에	-18142
▁구조에	-18143
▁병사를	-18144
▁이뤄진	-18145
▁형식은	-18146
▁훈장을	-18147
▁국민투표	-18148
▁이탈리아는	-18149
토쿠	-18150
~14	-18151
▁몸은	-18152
▁백과	-18153
▁신원	-18154
▁심근	-18155
▁차츰	-18156
▁광고를	-18157
▁생각한	-18158
▁주민의	-18159
▁집단의	-18160
▁초부터	-18161
▁축구단	-18162
ura	-18163
▁배운	-18164
▁위그	-18165
▁클루	-18166
▁멜버른	-18167
▁사망자	-18168
▁성남시	-18169
▁이바지	-18170
▁재정적	-18171
earch	-18172
▁Open	-18173
▁구성하고	-18174
▁캐릭터가	-18175
구스	-18176
모어	-18177
좌를	-18178
충은	-18179
ype	-18180
▁당뇨	-18181
▁무안	-18182
▁자카	-18183
▁좀더	-18184
▁퍼즐	-18185
국이다	-18186
▁60%	-18187
▁기억을	-18188
▁몇몇의	-18189
▁사상의	-18190
▁안타를	-18191
▁오이타	-18192
▁제주시	-18193
공화국의	-18194
▁임명했다	-18195
▁제정되었다	-18196
관인	-18197
든다	-18198
▁다발	-18199
▁로얄	-18200
▁반감	-18201
▁일괄	-18202
▁자책	-18203
▁반란이	-18204
▁안되는	-18205
▁중성자	-18206
▁평가가	-18207
▁가와사키	-18208
▁달라진다	-18209
▁잃어버린	-18210
▁텍사스주	-18211
Te	-18212
▁맬	-18213
국립	-18214
옆면	-18215
▁늦은	-18216
▁사슴	-18217
▁섭정	-18218
▁수목	-18219
▁정몽	-18220
▁사헌부	-18221
▁초콜릿	-18222
▁주변에서	-18223
▁인플레이션	-18224
▁제작하였다	-18225
▁애니메이션이다	-18226
Or	-18227
가게	-18228
곡리	-18229
명칭	-18230
모르	-18231
▁인원	-18232
▁화랑	-18233
▁대성당	-18234
▁박사는	-18235
▁참여를	-18236
▁체제가	-18237
▁사용하게	-18238
▁주인공이	-18239
▁대한민국에는	-18240
오버	-18241
판사	-18242
두었다	-18243
마리의	-18244
ival	-18245
▁단체는	-18246
▁예선을	-18247
▁유니언	-18248
▁정도는	-18249
그라운드	-18250
(2012	-18251
▁스칸디나비아	-18252
바위	-18253
업과	-18254
짐에	-18255
컵을	-18256
▁경인	-18257
▁답변	-18258
▁미성	-18259
▁쿠퍼	-18260
▁동안에는	-18261
▁에너지의	-18262
▁율리우스	-18263
unction	-18264
경쟁	-18265
움이	-18266
▁기와	-18267
▁노후	-18268
▁농어	-18269
▁로비	-18270
▁면을	-18271
▁물과	-18272
▁불필	-18273
▁자제	-18274
▁재난	-18275
▁카네	-18276
▁캐시	-18277
▁한중	-18278
족으로	-18279
▁연안에	-18280
▁전원이	-18281
방향으로	-18282
arles	-18283
▁패하였다	-18284
표의	-18285
▁송도	-18286
▁정려	-18287
▁정자	-18288
전까지	-18289
uman	-18290
▁숫자는	-18291
▁있듯이	-18292
▁함대를	-18293
대학으로	-18294
되었음을	-18295
진상규명	-18296
▁이베리아	-18297
▁중앙정보	-18298
▁컴퓨터의	-18299
▁Record	-18300
루엔	-18301
하길	-18302
gel	-18303
▁간혹	-18304
▁피셔	-18305
▁호랑	-18306
학과에	-18307
▁솔루션	-18308
▁나카무라	-18309
▁취소되었다	-18310
티즌	-18311
합성	-18312
▁Dr	-18313
▁광물	-18314
▁씨가	-18315
▁채굴	-18316
사무소	-18317
▁마카오	-18318
▁별명이	-18319
▁시트콤	-18320
▁정의된	-18321
▁회장으로	-18322
_18	-18323
▁체스	-18324
번호는	-18325
프에서	-18326
▁당선된	-18327
▁세상의	-18328
▁채널을	-18329
▁펠리페	-18330
▁회장이	-18331
▁이론에서	-18332
▁시작되었으며	-18333
▁노스캐롤라이나	-18334
궁에	-18335
대리	-18336
표로	-18337
▁Gl	-18338
▁구금	-18339
▁기성	-18340
▁미칠	-18341
▁승용	-18342
▁함양	-18343
▁성매매	-18344
▁포유류	-18345
박쥐과에	-18346
▁도미니카	-18347
▁셰익스피	-18348
▁스리랑카	-18349
▁하이브리	-18350
확인	-18351
▁버진	-18352
▁피오	-18353
▁하타	-18354
ason	-18355
▁대사를	-18356
▁돌연변	-18357
▁제한이	-18358
▁체결된	-18359
▁취임한	-18360
(2008	-18361
▁연주하는	-18362
▁일본군은	-18363
▁완성되었다	-18364
My	-18365
락은	-18366
지정	-18367
▁길다	-18368
▁마비	-18369
▁108	-18370
▁신주쿠	-18371
▁싱글은	-18372
▁오리온	-18373
▁소설이다	-18374
▁중소기업	-18375
▁프로세스	-18376
oe	-18377
만화	-18378
창은	-18379
uch	-18380
▁고이	-18381
▁관제	-18382
▁넷플	-18383
▁노보	-18384
▁당황	-18385
▁미소	-18386
▁별을	-18387
▁수복	-18388
▁신기	-18389
▁탈레	-18390
▁탈취	-18391
▁포토	-18392
▁군대와	-18393
▁나누는	-18394
▁대체할	-18395
▁뛰어넘	-18396
▁팬들의	-18397
▁행위는	-18398
▁일반적이다	-18399
▁싼	-18400
▁김대	-18401
▁마키	-18402
▁저자	-18403
▁하니	-18404
▁홍수	-18405
해지자	-18406
▁중이며	-18407
▁City	-18408
▁표기한다	-18409
▁닷	-18410
노부	-18411
륜구	-18412
아노	-18413
용과	-18414
▁급증	-18415
▁부러	-18416
▁우치	-18417
▁지는	-18418
▁형용	-18419
되다가	-18420
베스트	-18421
reak	-18422
▁믿는다	-18423
▁분기점	-18424
▁비중을	-18425
▁테스트를	-18426
▁4.	-18427
▁구독	-18428
▁시속	-18429
▁재차	-18430
▁측이	-18431
라에몽	-18432
음보살	-18433
ling	-18434
▁머리카	-18435
▁사후에	-18436
▁이름에	-18437
▁멍	-18438
상대	-18439
유전	-18440
▁마요	-18441
▁조셉	-18442
▁하코	-18443
지라도	-18444
▁가리는	-18445
▁이론적	-18446
▁전기를	-18447
▁데스크톱	-18448
▁연관되어	-18449
라나	-18450
▁5%	-18451
▁막대	-18452
▁버마	-18453
▁요격	-18454
▁인가	-18455
▁읽을	-18456
▁얻었고	-18457
▁우간다	-18458
▁지내는	-18459
▁기록이다	-18460
데자	-18461
och	-18462
▁DF	-18463
▁위를	-18464
▁추억	-18465
▁걸리는	-18466
▁계속된	-18467
▁분포하고	-18468
▁사회민주	-18469
▁이산화탄	-18470
AE	-18471
▁몹	-18472
▁씻	-18473
모노	-18474
코어	-18475
▁대도	-18476
▁상서	-18477
▁세분	-18478
▁콜레	-18479
▁길이를	-18480
▁남동쪽	-18481
▁라오스	-18482
▁시민의	-18483
▁질량을	-18484
타수	-18485
-50	-18486
ese	-18487
▁사신	-18488
▁에른	-18489
▁친왕	-18490
만명을	-18491
▁Mic	-18492
▁아이콘	-18493
▁엔진의	-18494
▁예정인	-18495
▁왕조가	-18496
▁유전적	-18497
▁지원이	-18498
CP	-18499
He	-18500
극의	-18501
오자	-18502
Ste	-18503
▁갈래	-18504
슬레틱	-18505
코리아	-18506
▁0.3	-18507
▁3-0	-18508
▁이해를	-18509
▁전투로	-18510
임의	-18511
피오	-18512
]],	-18513
▁공명	-18514
▁블로	-18515
▁서인	-18516
▁진사	-18517
기관이	-18518
버스는	-18519
▁다시금	-18520
▁성격의	-18521
▁아카이	-18522
▁유치원	-18523
▁의원의	-18524
▁대표팀의	-18525
▁이슬람교	-18526
▁종목에서	-18527
공단	-18528
군주	-18529
망은	-18530
있어	-18531
지상	-18532
erc	-18533
▁상록	-18534
▁월터	-18535
▁이봉	-18536
▁편안	-18537
▁라이너	-18538
▁방정식	-18539
▁성적이	-18540
▁쌓았다	-18541
▁가능성도	-18542
▁거점으로	-18543
▁무시하고	-18544
▁이용되고	-18545
▁입단하여	-18546
여자대학교	-18547
▁통합되었다	-18548
▁거인	-18549
▁군마	-18550
▁굴절	-18551
▁도사	-18552
▁맛이	-18553
▁보행	-18554
▁USB	-18555
▁것이기	-18556
▁부르게	-18557
▁사무를	-18558
▁진출할	-18559
▁태생의	-18560
리그에서	-18561
▁귀국하여	-18562
▁올림피아	-18563
IF	-18564
다양	-18565
▁김승	-18566
▁바울	-18567
▁세레	-18568
▁취한	-18569
시켜서	-18570
타나베	-18571
▁두각을	-18572
▁서양의	-18573
▁안전을	-18574
▁철저한	-18575
▁대규모의	-18576
▁함경북도	-18577
▁보고되었다	-18578
마력	-18579
복은	-18580
최고	-18581
▁재외	-18582
▁von	-18583
▁롬바르	-18584
▁프레임워	-18585
▁프랑스군은	-18586
농구	-18587
몬트	-18588
▁순차	-18589
▁얘기	-18590
▁열려	-18591
▁조부	-18592
년마다	-18593
달라는	-18594
itch	-18595
press	-18596
▁1879	-18597
▁유사하게	-18598
루트	-18599
And	-18600
▁덴쇼	-18601
▁뚫고	-18602
▁배에	-18603
▁저해	-18604
▁축성	-18605
로마치	-18606
비치는	-18607
▁무엇을	-18608
▁단백질의	-18609
▁제공된다	-18610
▁협력하여	-18611
▁받아들이지	-18612
리쿠	-18613
질에	-18614
▁오대	-18615
▁쪽이	-18616
▁캐피	-18617
▁화해	-18618
▁그밖에	-18619
▁먹이는	-18620
▁핵융합	-18621
▁1200	-18622
▁High	-18623
▁기념하는	-18624
▁독일군의	-18625
▁사용하던	-18626
▁베이시스트	-18627
▁다우	-18628
▁자와	-18629
▁제재	-18630
▁조현	-18631
▁커서	-18632
공으로	-18633
궐선거	-18634
자리는	-18635
gram	-18636
▁세르게	-18637
▁하늘을	-18638
▁매끄러운	-18639
▁시도했다	-18640
▁히틀러는	-18641
▁익스프레스	-18642
Ne	-18643
▁쾨	-18644
록시	-18645
통과	-18646
▁고추	-18647
▁구장	-18648
▁그외	-18649
▁압록	-18650
▁재래	-18651
▁단체가	-18652
▁중앙의	-18653
▁스트레스	-18654
▁지속되었다	-18655
▁필요하다고	-18656
광이	-18657
금속	-18658
사실	-18659
hem	-18660
▁부당	-18661
▁산요	-18662
▁온난	-18663
▁유희	-18664
▁육식	-18665
베이성	-18666
▁Des	-18667
▁리프트	-18668
▁원칙에	-18669
▁장남으로	-18670
▁클럽에서	-18671
pp	-18672
▁뮐	-18673
▁쟈	-18674
개소	-18675
레드	-18676
폐합	-18677
▁남하	-18678
▁번도	-18679
▁보며	-18680
▁점진	-18681
▁종신	-18682
▁증진	-18683
▁대니얼	-18684
▁산맥의	-18685
▁차세대	-18686
도서관은	-18687
▁가르치는	-18688
▁러시아가	-18689
▁사용자는	-18690
▁활약으로	-18691
일인	-18692
▁공자	-18693
▁공적	-18694
▁배드	-18695
▁우두	-18696
▁한큐	-18697
▁TBS	-18698
▁마을로	-18699
▁방송이	-18700
▁스트라	-18701
▁영토로	-18702
▁종교는	-18703
분간	-18704
▁Fl	-18705
▁김천	-18706
▁당내	-18707
▁때를	-18708
▁함흥	-18709
▁106	-18710
▁보이스	-18711
▁작가로	-18712
▁조사한	-18713
olution	-18714
Ex	-18715
보컬	-18716
자문	-18717
▁거칠	-18718
▁급여	-18719
▁몰두	-18720
▁손잡	-18721
▁이코	-18722
▁정이	-18723
▁택시	-18724
루스는	-18725
▁가지지	-18726
▁건강한	-18727
▁사업이	-18728
▁패러디	-18729
유산으로	-18730
(2001	-18731
9,	-18732
AA	-18733
CS	-18734
학술	-18735
해질	-18736
▁갖춰	-18737
▁과연	-18738
▁능동	-18739
▁만드	-18740
▁열릴	-18741
▁Sec	-18742
▁소재한	-18743
▁아내가	-18744
▁항성의	-18745
▁확인된	-18746
▁물리학자	-18747
▁슛	-18748
산염	-18749
외교	-18750
RNA	-18751
▁대포	-18752
▁무어	-18753
▁장벽	-18754
기면서	-18755
르기스	-18756
리스는	-18757
▁IOC	-18758
▁나무를	-18759
▁장치가	-18760
▁전자는	-18761
▁분류한다	-18762
▁지진으로	-18763
▁인정받았다	-18764
두가	-18765
러와	-18766
▁디에	-18767
▁머무	-18768
▁복선	-18769
▁색이	-18770
▁스텝	-18771
▁신자	-18772
르타뉴	-18773
▁주계열	-18774
▁연합군은	-18775
▁Center	-18776
▁틴	-18777
포타	-18778
▁신종	-18779
▁용서	-18780
▁위함	-18781
▁이단	-18782
▁입는	-18783
▁정읍	-18784
▁지부	-18785
▁타락	-18786
▁팔아	-18787
리스가	-18788
▁버린다	-18789
▁주제는	-18790
▁컬렉션	-18791
▁이용하고	-18792
등은	-18793
순은	-18794
제인	-18795
창이	-18796
▁전미	-18797
▁Act	-18798
▁검찰은	-18799
▁벗어난	-18800
▁빠져나	-18801
▁세포가	-18802
▁직후에	-18803
[...]
